<pad>	0
<s>	0
</s>	0
<unk>	0
�	-1.68371
▁�	-2.26413
��	-2.54801
▁����	-2.73083
▁��	-2.76082
���	-2.85032
▁������	-3.27308
▁���	-3.40264
▁.	-3.62226
����	-3.91957
▁�����	-4.22827
ߴ	-4.41475
▁	-4.63623
▁,	-4.8341
�����	-4.87112
ִ	-5.08786
Θ	-5.13677
κ	-5.19269
▁��������	-5.32771
Ʈ	-5.72278
ٰ�	-5.85172
ȭ	-5.89261
ġ	-5.92786
ũ	-5.95665
ȸ	-6.00496
يٴ	-6.0555
������	-6.10489
ε	-6.14683
״	-6.20079
Ÿ	-6.2107
ǰ	-6.24117
ƴ	-6.25167
ڵ	-6.26013
ð	-6.28914
Ű	-6.33664
ǥ	-6.38823
ü	-6.40602
ϸ	-6.41627
ο	-6.41892
ٴ	-6.46554
▁�̹�	-6.50919
Ѵ	-6.53833
ρ	-6.5394
ΰ	-6.55308
ǿ	-6.55612
▁�̱�	-6.57622
ź	-6.60461
▁�̶�	-6.61639
Ͽ	-6.63679
▁�׷���	-6.65106
s	-6.65241
Ǿ	-6.66062
Ϻ	-6.66245
Ҵ	-6.66365
▁ȸ	-6.67623
δ	-6.68146
߱	-6.80751
־	-6.81015
μ	-6.82375
▁���̶���	-6.84707
α	-6.85494
ī	-6.8666
ڽ	-6.86825
θ	-6.88894
ڴ	-6.89549
ν	-6.90209
▁�̱���	-6.90377
ȣ	-6.90409
ѱ	-6.91676
Ǹ	-6.95633
ٿ	-6.97023
Ƽ	-6.97696
Ǵ	-6.99244
L	-6.99898
ְ	-7.02035
ȴ	-7.0298
▁�̶���	-7.0409
Դ	-7.0641
߰	-7.08224
ڸ	-7.10262
▁���̴�	-7.11479
ĺ	-7.12264
ִٰ	-7.15091
Ѹ	-7.18389
װ	-7.18609
▁Ȯ	-7.18649
ֱ	-7.1967
ø	-7.21038
▁ȣ	-7.23732
츮	-7.2738
忡	-7.27803
ڿ	-7.28248
▁ī	-7.28774
ڰ	-7.29755
⸦	-7.30797
û	-7.32025
ó	-7.33066
▁�ʾ	-7.33312
õ	-7.33314
뺯	-7.33465
Ͼ	-7.34342
ֿ	-7.35735
λ	-7.36206
þ	-7.37281
Ϸ	-7.40162
ؼ	-7.40709
▁�����̴�	-7.41232
▁Ÿ	-7.42314
縦	-7.43772
Ƿ	-7.45302
ǻ	-7.45788
ɹ	-7.47121
籹	-7.47315
翡	-7.47686
ؾ	-7.48164
ȹ	-7.49123
Ҹ	-7.49819
▁ó	-7.50571
▁ȭ	-7.51502
鼭	-7.52952
ֵ	-7.5313
ֽ	-7.53941
▁Ŭ	-7.53984
▁�޾	-7.54337
ٽ	-7.54477
�������	-7.54485
ް	-7.54821
϶	-7.54947
ų	-7.5629
ư	-7.56394
ȿ	-7.59437
▁ü	-7.62484
▁ġ	-7.62729
ŷ	-7.62804
Ȱ	-7.65592
ƿ	-7.66765
▁́�	-7.67139
簡	-7.71257
ÿ	-7.73043
▁�̿�	-7.73312
Ȳ	-7.73575
·�	-7.74166
ڻ	-7.74895
å	-7.75337
ǹ	-7.76451
ڷ	-7.76687
ŵ	-7.78273
ι	-7.78738
▁�׸���	-7.79632
ܱ	-7.80532
Ƹ	-7.80635
ؿ	-7.80859
ô	-7.81879
h	-7.82387
▁Ư	-7.82687
湮	-7.83684
ذ	-7.83768
ɰ	-7.84871
䱸	-7.85042
▁�׵���	-7.85206
▁the	-7.85598
ڱ	-7.86113
ֹ	-7.86759
▁�������	-7.87571
Ͻ	-7.87574
▁�߻��	-7.87608
ҽ	-7.88873
Ⱓ	-7.89497
▁����������	-7.89944
׳	-7.9139
б	-7.91847
л	-7.92213
▁Ż	-7.92607
ָ	-7.92765
Ұ	-7.93599
▁�߻���	-7.93737
Ҽ	-7.94123
Բ	-7.94159
Ƶ	-7.94253
ƹ	-7.94347
غ	-7.94347
뼱	-7.9444
▁ȯ	-7.94847
鿡��	-7.94945
Ǽ	-7.95289
▁�̻���	-7.96
ȯ	-7.96195
ߵ	-7.96625
Ѵٰ	-7.96877
Ż	-7.97076
▁�̷���	-7.97713
▁ǥ	-7.98289
ۇٴ	-7.98501
ö	-7.99054
Ը	-7.99641
▁Ȱ	-8.00476
y	-8.01006
Ź	-8.01336
ҿ	-8.0184
ý	-8.02083
ķ	-8.0255
Ⱑ	-8.02958
Ϳ	-8.03163
ּ	-8.03368
ǽ	-8.03698
▁cnn	-8.03813
ã	-8.04089
ӵ	-8.05034
▁�̰���	-8.05129
۵	-8.05288
Һ	-8.06072
▁ä	-8.06074
ۿ	-8.06283
▁�׷�	-8.071
▁�̸�	-8.07693
ռ	-8.08311
▁�̷�	-8.09505
ظ	-8.10051
▁�̴�	-8.106
▁�̵���	-8.10824
Ӹ	-8.12686
Ƴ	-8.13135
▁õ	-8.13566
▁to	-8.13851
߸	-8.13967
وٴ	-8.14282
▁ģ	-8.14586
▁ū	-8.15049
뿡	-8.15551
ӽ	-8.16007
ݴ	-8.16509
▁�̸���	-8.16771
▁�̳�	-8.17088
▁�̻�	-8.17126
Ѱ	-8.17449
▁�޷���	-8.18801
Ʋ	-8.19577
▁���̸�	-8.20253
и	-8.20813
▁���̰�	-8.20838
ƴٰ	-8.20842
اٴ	-8.21058
ݱ	-8.21549
ٹ	-8.2235
մ	-8.2351
踦	-8.24294
ҹ	-8.2442
Ե	-8.24901
�̴�	-8.24951
ٱ	-8.25146
��ٰ�	-8.25345
η	-8.25437
▁�̵�	-8.25736
ҵ	-8.25823
ݵ	-8.27109
Ŭ	-8.27392
ù	-8.27564
ɼ	-8.27638
▁�޷�	-8.27652
繫	-8.28294
ϳ	-8.2869
п	-8.29087
▁û	-8.29277
ȷ	-8.30281
▁ö	-8.3047
▁ù	-8.30747
ұ	-8.30828
Ҿ	-8.30963
ش	-8.30985
ݸ	-8.31369
Σ	-8.3156
ģ	-8.31808
dz	-8.31987
ݿ	-8.33387
ڼ	-8.33705
▁a	-8.3416
ͳ	-8.34262
پ	-8.34955
׷���	-8.35178
յ	-8.35387
ѹ	-8.35783
▁��°	-8.36135
▁of	-8.36707
ƾ	-8.36733
▁s	-8.36839
Կ	-8.37241
ݷ	-8.37819
▁�׸�	-8.37912
ڹ	-8.38109
▁���	-8.38264
ӿ	-8.38692
ȥ	-8.39167
▁���̽�	-8.39525
ǵ	-8.39724
ҷ	-8.40163
밡	-8.40312
迡	-8.40758
븦	-8.41206
Ծ	-8.41356
۾	-8.41507
ܰ	-8.43479
缱	-8.43479
▁ħ	-8.45214
▁ȫ	-8.46977
ξ	-8.47227
߰ߵ	-8.4801
ħ	-8.48295
м	-8.48347
▁���⿡	-8.49549
▁̧�	-8.50106
▁�̽�����	-8.50152
▁tv	-8.51141
▁å	-8.51311
ɸ	-8.51452
Ŵ	-8.52249
İ	-8.52452
ں	-8.5262
纸	-8.52788
DZ	-8.52828
а	-8.53463
Ͱ	-8.53973
▁ij	-8.54199
▁�̽���	-8.54202
Ⱥ	-8.54656
濡	-8.54656
▁�����̶���	-8.5578
ܿ	-8.55863
ֳ	-8.5621
ر	-8.57436
ַ	-8.57613
ij	-8.57727
▁�÷	-8.57923
߷	-8.58499
뵿	-8.59214
ɿ	-8.59394
▁?	-8.59595
з	-8.59754
▁km	-8.60387
ƽþ	-8.60501
۷	-8.60842
ĸ	-8.60902
ڳ	-8.61574
ٺ	-8.62496
Ѽ	-8.62682
▁Ʈ	-8.62682
ҳ	-8.63427
ֺ	-8.63614
ļ	-8.63802
Ʒ	-8.63968
ܵ	-8.6399
ٳ	-8.64935
ӹ	-8.65125
▁Ƽ	-8.65508
▁joins	-8.65544
ƺ	-8.65654
▁�	-8.6568
ĵ	-8.658
ص	-8.66227
▁�˷���	-8.67062
ѿ	-8.68021
·��	-8.70866
��̴�	-8.7126
ñ	-8.71778
ľ	-8.71889
▁in	-8.71952
▁�߻�	-8.71998
·���	-8.72238
Ų	-8.72296
ػ	-8.72426
е	-8.73042
Ȯ	-8.73062
▁�˰�	-8.73393
۰	-8.73455
ƽ	-8.74448
ϻ	-8.75334
▁ź	-8.75761
й	-8.75968
ܹ	-8.76394
̾Ḷ	-8.76394
▁�˷�����	-8.77082
ɻ	-8.7715
▁�߿���	-8.77162
▁�̾�	-8.78314
▁̧���	-8.78756
▁ͅ信	-8.79013
Ȥ	-8.79202
漱	-8.79421
▁́	-8.79756
Ž	-8.80398
޸�	-8.81588
⵵	-8.82071
�̶���	-8.82432
ݰ	-8.82769
鿡	-8.82885
▁���߽��	-8.83344
ⱸ	-8.83633
Ʊ	-8.83681
㿡	-8.83681
ൿ	-8.84141
콺	-8.84602
Ḧ	-8.85999
▁â	-8.86281
·	-8.86626
Ǻ	-8.86941
ټ	-8.87025
н	-8.88372
浹	-8.88612
罺	-8.88853
ing	-8.89683
ż	-8.90556
▁�̿��	-8.90653
Ѷ	-8.90802
ƶ	-8.91295
͵	-8.91748
▁�߾���	-8.9221
Ĺ	-8.92409
▁Ű	-8.9244
鵵	-8.92539
ۼ	-8.92539
ڶ	-8.92771
▁ap	-8.928
⿡	-8.93054
▁���¿�	-8.93147
Ӵ	-8.93179
о	-8.93293
谡	-8.93545
߹	-8.93798
▁Ķ	-8.94204
▁ȥ	-8.94676
▁w	-8.95066
Ѿ	-8.95715
ı	-8.96106
�׷���	-8.96294
帮	-8.96366
ϼ	-8.96493
׷�	-8.97325
▁�ʿ���	-8.97349
▁���ٰ�	-8.97399
▁�ʹ�	-8.97714
▁���̵���	-8.97936
��������	-8.98184
▁m	-8.99736
�߿���	-9.00063
▁���̿�	-9.00095
ű	-9.0025
▁���޷�	-9.00691
ܼ	-9.00888
▁�����߽��	-9.01856
ѳ	-9.02258
丣	-9.02258
▁�����ٰ�	-9.02438
尡	-9.03647
▁�˱��	-9.03681
le	-9.03892
ɳ	-9.0449
߶	-9.05339
ױ	-9.0591
鸸	-9.0591
̾߱	-9.07273
Ĵ	-9.07933
Ӱ	-9.08181
౸	-9.08226
縣	-9.09108
▁�̹	-9.09518
▁for	-9.09697
w	-9.10281
▁���̺���	-9.10753
ed	-9.10875
γ	-9.11584
▁Į	-9.12934
ĥ	-9.1301
▁�߿�	-9.13313
ӱ	-9.13332
ῡ	-9.13332
濵	-9.1364
▁�̼���	-9.13934
▁�⿡	-9.13977
տ	-9.14261
긮	-9.14261
ɾ	-9.14572
۽	-9.15198
ɦ	-9.15513
▁�̿	-9.15876
▁���°�	-9.16034
ѷ	-9.16145
e	-9.17478
巯	-9.18065
▁�ʿ��	-9.19225
��׽	-9.19311
▁�̲���	-9.19455
ɽ	-9.20674
▁korea	-9.21646
▁�����鿡��	-9.22704
▁�����̾���	-9.22953
ᱹ	-9.23032
▁�����̸�	-9.23473
▁���̾	-9.23568
빫	-9.24745
▁�޴�	-9.24752
簳	-9.25091
▁artic	-9.2514
ߺ	-9.25438
带	-9.25786
▁Ȳ	-9.26093
ɷ	-9.26329
丮	-9.26487
��̳�	-9.26737
▁Ǯ	-9.269
▁�ʿ	-9.27313
䰡	-9.27547
▁and	-9.27651
Ľ	-9.27903
▁���̵�	-9.28328
ս	-9.29339
▁com	-9.2935
▁eu	-9.29384
ͽ	-9.29702
▁ž	-9.29914
▁���⿡��	-9.29978
Ա	-9.3043
ݼ	-9.30756
ͱ	-9.30797
▁���	-9.31163
ȵ	-9.31369
̴�	-9.31532
ݹ	-9.31904
ǽõ	-9.32417
���̴�	-9.32763
ѻ	-9.33023
弼	-9.34155
Լ	-9.34535
Խ	-9.34535
ŭ	-9.34917
ձ	-9.34917
ž	-9.35486
▁���࿡	-9.35667
▁n	-9.35747
▁Ž	-9.35906
d	-9.36413
°�	-9.36934
▁la	-9.37302
��̶���	-9.37572
▁����¡	-9.3784
պ	-9.38419
▁�̱��	-9.3846
▁�׿�	-9.38613
▁�����߾���	-9.38743
Ļ	-9.38805
뽺	-9.38816
▁��	-9.39292
�̸�	-9.39336
Θٰ	-9.39698
д	-9.40016
հ	-9.40419
㰡	-9.41231
ܽ	-9.4246
o	-9.43552
▁���̺�	-9.43583
Ǫ	-9.43587
▁�̱	-9.43734
▁̧��	-9.45098
▁�߽	-9.45249
ٲ	-9.45268
è	-9.45389
븸	-9.45389
▁���̽���	-9.45677
▁�԰�	-9.45686
ä	-9.45709
Ⱦ	-9.46242
븮	-9.46242
▁e	-9.48003
並	-9.48407
▁Ǫƾ	-9.48465
Ʃ	-9.48741
쿡	-9.48845
▁�˻	-9.4891
ޱ	-9.49728
�ʹ�	-9.51667
�̳�	-9.5199
▁�̽�	-9.52473
▁���̾�	-9.52733
ɺ	-9.52882
▁�˸�	-9.5303
▁�޸�	-9.53284
ĭ	-9.53392
al	-9.53625
ζ	-9.54614
▁���̷�	-9.54657
▁���̾���	-9.55086
ھ	-9.55197
ع	-9.55963
▁�±�	-9.56078
Ķ	-9.56329
▁�����̳�	-9.56356
▁�̽�������	-9.57641
׿�	-9.57912
▁���£	-9.58132
▁�߽���	-9.58364
▁�̷	-9.58484
г	-9.5853
▁on	-9.58531
▁���̶�	-9.58676
▁ĭ	-9.5886
▁us	-9.59048
▁dz	-9.59246
ѵ	-9.59503
▁Ǫ	-9.59509
▁�ʾ�����	-9.59628
��	-9.59827
▁�޸���	-9.60851
۱	-9.61451
̶���	-9.61974
డ	-9.61979
▁Ȧ	-9.62293
ݶ	-9.62481
۴	-9.62978
帣	-9.62986
Ƕ	-9.63494
㸮	-9.63494
̵�	-9.63667
▁un	-9.63768
	-9.64279
▁�޴���	-9.645
꿡	-9.65297
Ǯ	-9.65461
â	-9.65535
▁�׷��	-9.66016
▁�����̸	-9.67139
��̸�	-9.67889
ȱ	-9.68719
▁�޽�����	-9.68817
▁Ȩ	-9.68888
޵�	-9.69778
չ	-9.69795
▁�׷	-9.70055
▁�̿���	-9.70191
	-9.7082
۳	-9.70885
▁�¶���	-9.71178
ͼ	-9.71987
▁�͸���	-9.72367
▁���̳�	-9.72848
▁���ʿ�	-9.73347
▁�׻�	-9.73393
̸�	-9.74549
▁�˾	-9.74779
þƿ	-9.74811
▁�	-9.75142
ܾ	-9.75943
▁�3⁄4�	-9.76343
▁ͅ	-9.77018
▁�߽��	-9.77021
▁nasa	-9.77143
ݺ	-9.78275
༺	-9.78275
▁���׼�����	-9.78857
к	-9.78867
▁�̷�����	-9.79299
▁���	-9.79378
▁���¿���	-9.79711
��̾���	-9.80229
ж	-9.80663
ضج	-9.80663
▁be	-9.8091
▁�̽��	-9.81239
�	-9.81356
�ٰ�	-9.81701
▁�߾�	-9.81745
�߽��	-9.82146
▁�߻	-9.82471
Ѻ	-9.8311
▁�⿬�	-9.83366
̱�	-9.8384
⵿	-9.84356
۶	-9.84985
߿�	-9.85161
ۺ	-9.86255
st	-9.86474
ɵ	-9.86732
▁�˹	-9.86897
ణ	-9.87541
�̰�	-9.8762
▁���£��	-9.87892
▁���	-9.87985
▁�̱�����	-9.88313
▁�̼�	-9.88543
縶	-9.88701
ú	-9.88824
▁�°�	-9.88829
轼	-9.88844
▁���޷���	-9.89312
켱	-9.89502
▁co	-9.89745
▁�߿��	-9.9001
▁g	-9.90318
▁�����鿡	-9.90692
ܳ	-9.90793
▁fbi	-9.90859
▁�˻���	-9.90957
r	-9.91038
峭	-9.91502
▁�����̿�	-9.917
�̾���	-9.92216
▁korean	-9.92373
̰�	-9.92489
▁�����̰�	-9.92608
▁c	-9.9266
ջ	-9.92858
	-9.93358
屺	-9.93543
▁�����̾�	-9.93661
▁d	-9.93775
Ī	-9.94172
▁�3⁄4	-9.94809
�׷�	-9.95093
̴Ͼ	-9.95274
ӷ	-9.95626
߳	-9.95626
·����	-9.95801
▁�̽	-9.96197
溸	-9.9633
ۻ	-9.9633
Ϻδ	-9.96901
Ģ	-9.97039
ط	-9.97039
▁���߿�	-9.97256
▁u	-9.97731
⺻	-9.97754
▁�̶	-9.97798
뷮	-9.98473
▁���̿���	-9.98956
��̰�	-9.9934
跲	-9.99928
▁�ʹ	-10.0011
뷡	-10.0066
▁�̰�	-10.0086
▁�⿡��	-10.0127
▁bbc	-10.0143
▁�	-10.0175
▁p	-10.0245
þƴ	-10.0254
▁�߾	-10.0359
극	-10.0366
�̱�	-10.0378
▁k	-10.044
信	-10.0442
��鿡��	-10.0475
▁id	-10.0476
▁¡��	-10.0494
Ӽ	-10.0519
Ҷ	-10.0519
̽þ	-10.0548
▁new	-10.06
▁�̵��	-10.0654
Z	-10.0675
鸰	-10.0675
▁b	-10.0691
▁�󸶳�	-10.0721
	-10.0731
�͸�	-10.0768
▁�̾���	-10.0774
Ƚ	-10.0833
۸	-10.0833
ܺ	-10.0833
tp	-10.0836
▁cat	-10.0887
��	-10.0899
巹	-10.0913
▁iaea	-10.0918
▁���̺	-10.0926
▁cia	-10.1002
󿡼�	-10.1005
▁is	-10.102
▁ms	-10.1051
ݾ	-10.1075
▁�׿���	-10.1081
▁���˸�	-10.1127
▁ĥ	-10.1144
�°�	-10.1157
▁�1⁄4�	-10.1157
▁��°��	-10.1159
▁�������̸�	-10.1182
���̳�	-10.1211
▁��¥��	-10.1236
Թ	-10.124
��	-10.1242
▁ht	-10.1247
▁f	-10.1273
▁�˸���	-10.128
▁�˻�	-10.1297
ݽ	-10.1315
ܷ	-10.1323
▁asp	-10.1328
�޶���	-10.1345
n	-10.1398
丶	-10.1407
▁north	-10.1497
ູ	-10.1577
▁���̹�	-10.1581
���̶���	-10.1608
▁�˷��	-10.1644
	-10.1658
Ŷ	-10.1663
▁öȸ	-10.1669
▁ħü	-10.1687
췲	-10.175
▁farc	-10.1753
▁kg	-10.1801
糪	-10.1838
▁ͅ���	-10.1874
▁�⿬��	-10.1884
귣	-10.1926
▁south	-10.1931
⿡��	-10.1968
▁�޽���	-10.1974
彼	-10.2016
▁!	-10.2017
▁�޴	-10.2066
▁t	-10.2086
▁with	-10.2109
޶���	-10.2138
▁���׿�	-10.2172
շ	-10.2197
ఴ	-10.2197
ฦ	-10.2197
伺	-10.2197
帶	-10.2197
뺧	-10.2197
뼭	-10.2197
	-10.2208
▁���̷�����	-10.2215
▁�ʿ�	-10.2224
▁���	-10.2247
�°	-10.2261
tal	-10.2271
뵵	-10.2289
▁fta	-10.2394
▁�����̵���	-10.2428
▁�	-10.245
缺	-10.2475
뼺	-10.2475
▁���޵	-10.248
�߾���	-10.2548
▁iraq	-10.2573
▁̧�����	-10.2628
▁���»��	-10.2629
er	-10.2655
▁�߿	-10.2701
ٻ	-10.276
⹮	-10.2763
▁cbs	-10.2763
▁ceo	-10.2765
ly	-10.2796
t	-10.2799
▁���	-10.2803
▁�̰�����	-10.2838
�	-10.2848
亯	-10.2857
׵�	-10.2865
▁�˷	-10.2867
▁�׵�	-10.2878
▁�޼���	-10.2917
▁�����̿���	-10.2938
ion	-10.2982
▁�˷�	-10.2982
▁�׷�����	-10.2995
de	-10.3013
▁�޾�	-10.3024
鸮	-10.3047
▁at	-10.3049
ֻ	-10.3054
絵	-10.3054
心	-10.3054
▁�̽��󿤰�	-10.3085
̼۵	-10.309
°	-10.3111
̾Ƹ	-10.3126
▁�⿬	-10.313
߿���	-10.314
ʁ	-10.3154
▁ppp	-10.3157
▁�߾��	-10.3164
�̿�	-10.3172
▁�׹	-10.3185
▁�÷�	-10.3257
▁ô	-10.3295
ť	-10.335
찡	-10.3357
▁�׸��	-10.3434
ational	-10.3436
▁�̻	-10.3446
▁dna	-10.3466
es	-10.3477
��	-10.354
ͷ	-10.3565
輱	-10.3565
̽ð	-10.3571
▁�˴	-10.3631
▁�߼���	-10.3669
ݻ	-10.367
ٰ	-10.3698
Ȧ	-10.3771
ȳ	-10.3776
췽	-10.3776
�鿡	-10.3794
彺	-10.3884
▁president	-10.3891
▁Ī	-10.3893
▁�����	-10.39
▁�;��	-10.3932
▁�̻��	-10.3944
��߽��	-10.3977
¿�	-10.3999
▁ŷ	-10.4044
�̶�	-10.406
▁���߽�	-10.4062
▁who	-10.4104
▁nbc	-10.411
���̸�	-10.4125
▁́يٴ	-10.4126
▁j	-10.4128
▁�3�	-10.4199
Է	-10.4214
س	-10.4214
▁ų	-10.4215
▁will	-10.4216
▁�̼	-10.4223
▁į	-10.4241
▁ȹ	-10.431
▁�������̰�	-10.4321
▁�1���	-10.4323
귡	-10.4326
	-10.4367
▁�׽�	-10.442
巛	-10.444
ʹ�	-10.4442
▁�๰	-10.4446
▁���󿡼�	-10.446
▁���°���	-10.453
̵���	-10.4557
▁cm	-10.4614
Ư	-10.4658
ӻ	-10.4667
ѽ	-10.4671
뿹	-10.4671
츦	-10.4671
��°	-10.4674
▁���̱�	-10.468
▁�÷���	-10.473
▁h	-10.4767
糭	-10.4788
羊	-10.4788
▁an	-10.4812
▁���1⁄4���	-10.4824
▁�ٰ	-10.4852
׽�	-10.4861
▁�޶���	-10.4889
▁�¿�	-10.4905
ɱ	-10.4908
ἱ	-10.4908
븣	-10.4908
︮	-10.4908
▁�̸	-10.4909
ment	-10.4932
▁�ʾ�	-10.4997
ո	-10.5028
ؽ	-10.5028
▁japan	-10.5031
�̽�	-10.5103
۹	-10.515
÷�	-10.519
▁ac	-10.5194
±	-10.5196
▁�޾�����	-10.521
佺	-10.5273
▁�1⁄4���	-10.5344
▁���̴	-10.5347
▁�𸥴�	-10.5354
뺸	-10.5398
▁ioc	-10.5401
▁uefa	-10.5401
▁as	-10.542
▁�޵	-10.5436
▁�⸶��	-10.5436
▁�̵	-10.546
▁���׿���	-10.5512
ᰡ	-10.5525
ݳ	-10.5525
ҸӴ	-10.5554
�	-10.5578
▁�����⿡	-10.5591
▁¡�	-10.5602
▁�˱�	-10.5611
▁�̷��	-10.5615
ֶ	-10.5653
̳�	-10.5728
̱���	-10.5736
▁i	-10.5763
▁���⵵	-10.5767
谨	-10.5783
긦	-10.5783
뱹	-10.5783
▁frb	-10.5785
▁nato	-10.5786
Į	-10.5821
▁���͸�	-10.5864
▁�˰	-10.5883
▁�޷	-10.5888
�̾�	-10.5891
▁pc	-10.5909
ƻ	-10.5915
縮	-10.5915
翬	-10.5915
▁�	-10.5981
�⿡	-10.6004
��̼�	-10.6026
▁�޼��	-10.6039
▁�󽺺��̰	-10.607
▁gm	-10.6083
�鿡��	-10.6116
��	-10.6122
▁���·�	-10.6122
▁�̺���	-10.6138
▁�°���	-10.6138
▁�̴	-10.6182
ܴ	-10.6183
ⱹ	-10.6183
▁�߽�����	-10.6254
▁�߼�	-10.6277
▁�߻�����	-10.6296
ȶ	-10.632
▁�̾	-10.6353
▁���̷���	-10.6374
▁����¡����	-10.6377
�̻�	-10.639
▁�⵶��	-10.6425
Ӿ	-10.6444
귯	-10.6459
츣	-10.6459
���	-10.6471
▁�3⁄4	-10.6493
�񽺸�	-10.653
a	-10.6547
̿�	-10.6549
▁�	-10.6554
▁�̺�	-10.6591
漺	-10.66
轺	-10.66
▁abc	-10.6608
īƮ	-10.6642
▁l	-10.6664
▁it	-10.6672
▁�̸��	-10.6709
▁plan	-10.6724
縷	-10.6743
긲	-10.6743
▁ĵ	-10.6814
山	-10.6888
㽺	-10.6888
强	-10.6888
𽺸���	-10.6961
׸���	-10.6961
▁��¥	-10.6996
꽺	-10.7032
ܸ	-10.7035
▁�̲�	-10.7058
�÷	-10.7062
��̿�	-10.7114
▁�޵���	-10.7157
▁Ʋ	-10.7184
ɴ	-10.7184
▁government	-10.7193
▁�⸸��	-10.7198
i	-10.7243
Ǹŵ	-10.7276
▁nu	-10.7281
▁�޶��̶	-10.7318
▁from	-10.7338
▁�¿���	-10.7341
�̷�	-10.7362
���ٰ�	-10.7369
▁���ʹ�	-10.737
嵵	-10.7489
鿡�	-10.7494
clear	-10.7607
��	-10.7614
▁��¦	-10.7617
or	-10.7637
on	-10.7645
һ	-10.7646
屳	-10.7646
縯	-10.7646
뿪	-10.7646
▁���̵	-10.7703
▁�����	-10.7782
麸	-10.7804
䱺	-10.7804
깰	-10.7804
▁minister	-10.7809
▁ȯȣ	-10.7824
▁�׾	-10.784
▁no	-10.7861
󵥽�	-10.788
▁���˿�	-10.7893
▁�˻��	-10.7912
▁�̽��󿤱���	-10.7929
▁ǰ	-10.7929
⺸	-10.7966
▁world	-10.7985
c	-10.8058
▁�̷�������	-10.81
▁�1⁄2	-10.8102
༼	-10.8129
Ⱒ	-10.8129
븳	-10.8129
▁pkk	-10.8131
l	-10.819
ȫ	-10.8224
▁out	-10.8278
��̵�	-10.8293
庴	-10.8296
󸶹	-10.8296
ܻ	-10.8296
輺	-10.8296
���͸�	-10.8301
▁over	-10.832
����̴�	-10.8337
	-10.8348
▁���̷	-10.8364
▁�÷��	-10.8439
ies	-10.8461
갡	-10.8466
缳	-10.8466
迭	-10.8466
▁china	-10.8474
▁his	-10.8489
��	-10.8529
���̰�	-10.8554
▁re	-10.8557
���򿡼�	-10.8583
▁�̳	-10.8586
▁day	-10.8628
ȼ	-10.8638
༭	-10.8638
���������	-10.8665
⶧����	-10.868
▁�˶���	-10.8699
▁�����޾	-10.8734
▁�°�����	-10.8759
▁hiv	-10.8769
▁���÷�	-10.8781
翴	-10.8814
▁show	-10.8817
m	-10.8841
	-10.8881
�̵���	-10.8891
��鿡	-10.8894
▁�׼���	-10.8925
▁�������	-10.8926
�߿�	-10.8952
▁up	-10.8969
귮	-10.8992
▁nba	-10.8995
▁�޿�	-10.9022
׵���	-10.9076
▁���	-10.9085
▁�˵���	-10.9148
ͻ	-10.9174
볳	-10.9174
▁dvd	-10.9176
▁not	-10.9194
▁ͅ�	-10.9215
▁�̽��󿤿�	-10.9239
▁�����͸�	-10.9249
▁���̽	-10.9255
▁�1�����	-10.93
��̾�	-10.9302
▁�����̾��	-10.9331
▁r	-10.9334
Ӻ	-10.9359
β	-10.9359
▁party	-10.9361
▁md	-10.9366
̷�	-10.938
�̵�	-10.9438
����̸�	-10.9496
▁�𸣰	-10.9519
u	-10.9528
Ͷ	-10.9548
▁�⸶�	-10.9548
▁���¶���	-10.9548
▁obama	-10.9558
▁��¡�	-10.9559
�޶�	-10.959
▁���׸���	-10.96
▁��¡����	-10.9602
▁�׼	-10.9608
▁ģô	-10.962
ħü	-10.9707
▁foreign	-10.9742
▁�����̵�	-10.9765
en	-10.9781
�ʹ	-10.9784
▁����¡��	-10.9826
▁�̹���	-10.9837
▁�̵鿡	-10.9868
䴽	-10.9936
▁american	-10.9942
޸���	-10.9951
▁�¶��	-10.9951
▁�̻�����	-10.9969
�̽���	-11.0011
ce	-11.0053
▁���޵�	-11.0063
▁�׸	-11.0063
񽺸�	-11.0084
��̳���	-11.0087
���̾���	-11.0134
в	-11.0136
밨	-11.0136
ǽɵ	-11.0137
▁are	-11.0146
▁mbc	-11.0147
▁�̾�����	-11.0156
ial	-11.0157
߽��	-11.0182
▁�߼	-11.0199
▁news	-11.024
▁���ʽ	-11.0241
ers	-11.0286
޷�	-11.0292
��⿡	-11.0322
▁�ٰ�����	-11.0334
縸	-11.034
鰣	-11.034
▁fda	-11.0343
▁visit	-11.0345
▁imf	-11.0346
▁again	-11.0352
▁¡����	-11.0377
▁�๰��	-11.0386
ɷȴ	-11.0394
▁�𸣴�	-11.0428
▁���÷	-11.0461
·�����	-11.0479
▁�������̾���	-11.0488
▁���׸�	-11.0494
▁�߽�	-11.0539
Ժ	-11.0549
帳	-11.0549
常	-11.0549
켼	-11.0549
▁talks	-11.0552
▁nk	-11.0563
▁take	-11.0595
▁���	-11.0603
޾	-11.061
ese	-11.061
▁x	-11.062
▁�±���	-11.0633
▁�޹�	-11.0637
̾���	-11.0655
▁���	-11.0677
▁�����̽�	-11.0699
▁�����	-11.0728
▁���԰�	-11.0755
庣	-11.0761
▁seoul	-11.0763
▁opec	-11.0766
▁center	-11.0772
▁�⵵��	-11.0782
vs	-11.0786
▁art	-11.0786
̶�	-11.0815
׷	-11.0838
▁�̾��	-11.0868
▁fir	-11.0896
k	-11.0919
▁���̶��	-11.0975
⳻	-11.0979
찣	-11.0979
▁more	-11.0981
▁cdc	-11.0984
▁state	-11.0985
▁�̺�����	-11.0988
���	-11.1007
׸�	-11.104
	-11.1048
޴���	-11.1055
▁��÷��	-11.1086
▁���׵���	-11.1113
▁���ʽ���	-11.1117
▁���������	-11.1166
▁���̶	-11.1199
幰	-11.1201
▁nation	-11.1203
▁open	-11.1204
▁has	-11.121
▁time	-11.1269
�̿���	-11.1324
��̵���	-11.1333
▁�͸�	-11.1342
▁���޿�	-11.1389
▁���׸��	-11.1418
漭	-11.1428
汹	-11.1428
▁troop	-11.143
▁house	-11.1457
roh	-11.1474
▁�˽	-11.1488
▁by	-11.1513
¡��	-11.153
▁���	-11.1541
ֹ̾	-11.1588
▁���̳	-11.1598
���̽�	-11.1612
tv	-11.1644
潺	-11.1661
▁york	-11.1662
▁washington	-11.1663
▁ba	-11.1673
�޷�	-11.1675
▁�̲�����	-11.1676
bush	-11.169
▁�𸥴ٰ�	-11.1693
▁one	-11.1703
▁�÷��̸�	-11.1712
▁intern	-11.1728
�¿�	-11.1729
▁�˹��	-11.1739
cle	-11.175
▁�׺���	-11.1755
▁�̶��	-11.1795
▁�̰	-11.183
׿���	-11.1855
���̽���	-11.1893
ɶ	-11.1899
ⷮ	-11.1899
▁aig	-11.1907
▁�޸	-11.1909
▁��¡	-11.1925
▁�����󿡼�	-11.1928
▁its	-11.1944
ŸŬ	-11.1945
▁���	-11.1967
▁go	-11.2008
▁all	-11.2009
▁�޿���	-11.2027
▁pa	-11.2038
▁���̸	-11.2081
▁�ʽ��	-11.2127
屫	-11.2143
庮	-11.2143
米	-11.2143
▁ibm	-11.2144
▁fifa	-11.2144
▁mdc	-11.2145
▁bda	-11.2149
▁���̹���	-11.216
�̾	-11.2165
DZⱸ	-11.2165
▁��̿�	-11.2166
▁�����̾	-11.2182
�̹�	-11.2229
▁�;�	-11.224
▁�ٰ���	-11.2252
▁cd	-11.2273
us	-11.2356
▁�̸�����	-11.2365
õƴ	-11.2387
質	-11.2393
躸	-11.2393
▁military	-11.2395
�	-11.2442
̻�	-11.2443
Ƽĭ	-11.2445
ٹوٴ	-11.2455
��°�	-11.2496
▁�����̾��	-11.2516
▁¡������	-11.2551
▁my	-11.257
▁���⵵��	-11.2602
°���	-11.2607
two	-11.2626
▁���׽�	-11.2628
��߾���	-11.2633
ity	-11.2637
󿡴	-11.2649
▁people	-11.2651
▁apec	-11.2656
▁lg	-11.2656
▁ť	-11.2668
ode	-11.2668
▁���߾���	-11.2678
▁�̲��	-11.2706
�����̴�	-11.2707
▁have	-11.271
▁war	-11.2712
▁��¡��	-11.2713
▁�����̶�	-11.2751
�	-11.2773
▁�޶��	-11.279
th	-11.279
̿���	-11.2806
▁���̰	-11.2856
▁��̵�	-11.2865
׼�	-11.2867
▁�޺���	-11.2873
▁o	-11.2884
▁�޷��	-11.2896
Ƣ	-11.2912
幮	-11.2912
쵵	-11.2912
򰡸	-11.2912
达	-11.2912
▁secretary	-11.2914
���̾	-11.2927
ty	-11.2936
▁say	-11.2957
▁���»��·	-11.3037
�˷�	-11.309
▁�⵵�	-11.31
▁���	-11.3115
▁fa	-11.3135
▁�����ʹ�	-11.3149
▁de	-11.3156
౹	-11.3183
翣	-11.3183
▁�޼	-11.3184
▁�̽����	-11.324
▁�ʼ�	-11.3258
�޷���	-11.3263
▁�޽��	-11.3286
̹�	-11.3313
▁ai	-11.3316
▁�÷�����	-11.332
an	-11.3377
▁�޽�	-11.342
▁arti	-11.3441
▁���󺸴	-11.3443
帧	-11.346
켮	-11.346
▁england	-11.3462
▁�鿩	-11.3475
鿴��	-11.3477
um	-11.3482
city	-11.349
ation	-11.3528
▁̧	-11.3574
鿩	-11.3598
▁�̰��	-11.3613
������̻�	-11.3616
°��	-11.3701
̸鼭	-11.3708
ճ	-11.3746
▁court	-11.3754
��̵	-11.3754
▁���׶�	-11.3755
▁����	-11.377
�˰�	-11.3789
▁�⸮	-11.3815
׷��	-11.3826
̽�	-11.3836
▁week	-11.3844
׷�����	-11.3893
̾�	-11.3903
▁human	-11.391
▁���̳���	-11.392
ٴۇٴ	-11.3921
▁���̺��	-11.3927
▁�������°�	-11.3945
b	-11.395
▁�����	-11.3979
��¿�	-11.3981
▁���̿	-11.3993
ì	-11.404
Գ	-11.404
㺸	-11.404
翭	-11.404
帲	-11.404
icle	-11.4064
▁���ʿ���	-11.4085
󸶴�	-11.4098
▁�1⁄2�	-11.4104
ȵȴ	-11.4115
▁securit	-11.4132
▁�⻵�	-11.4138
▁��̵	-11.4143
̻籹	-11.4168
▁�׵	-11.4179
tion	-11.4195
▁th	-11.4195
▁�˺�����	-11.4272
ia	-11.4287
��ʿ�	-11.4308
▁�԰	-11.4316
▁���̹	-11.4335
巡	-11.4343
幫	-11.4343
뷫	-11.4343
▁kim	-11.4344
▁wto	-11.4346
▁press	-11.435
▁dis	-11.4374
�̾��	-11.4388
͸�	-11.4394
▁associat	-11.4395
𿡼�	-11.442
���̳���	-11.4448
▁top	-11.4456
▁�׸�����	-11.4457
▁���̾��	-11.4468
��	-11.447
▁�����԰�	-11.45
▁�3⁄4��	-11.4513
▁���ʽ�	-11.457
ic	-11.4592
ǵƴ	-11.4601
▁�����˴	-11.4618
▁���ʾ�	-11.4628
�׸���	-11.4639
ʿ�	-11.4643
�⵵	-11.4653
վ	-11.4656
ེ	-11.4656
齺	-11.4656
췹	-11.4656
캴	-11.4656
񽺴	-11.4656
󽺴	-11.4656
▁wfp	-11.4657
▁afp	-11.4657
▁lpga	-11.4657
▁london	-11.4657
▁nfl	-11.4658
▁bank	-11.4659
▁�̼��	-11.4683
��̿���	-11.4694
��ʹ�	-11.4697
▁life	-11.4728
▁�𸣰�	-11.4731
�÷�	-11.4737
��󿡼�	-11.4743
ary	-11.4746
▁¡	-11.4748
▁mm	-11.4771
▁�������̴�	-11.4797
▁�����̴	-11.4821
▁or	-11.4838
԰�	-11.4847
▁�⵵	-11.4952
▁��̵��	-11.4962
▁�߼��	-11.4971
▁�⿩��	-11.4975
ò	-11.4978
㸦	-11.4978
꼺	-11.4978
쿬	-11.4978
Ⳮ	-11.4978
尩	-11.4978
渮	-11.4978
▁url	-11.4978
Ϻη	-11.4982
▁may	-11.4987
̰ڴ	-11.4987
▁ȣŷ	-11.5012
ȣǰ	-11.5038
��̾	-11.5048
�󿡼�	-11.5081
▁�޶�	-11.5094
̽���	-11.5108
f	-11.5163
˴	-11.5192
▁���̻�	-11.5211
▁ƿ	-11.5211
¥��	-11.5218
���̿�	-11.5229
▁���·	-11.5242
▁v	-11.5272
�̼�	-11.5281
▁�ʺ���	-11.5286
�׸�	-11.5289
系	-11.5312
༱	-11.5312
索	-11.5312
ǷẸ	-11.5312
former	-11.5321
�⿡��	-11.5324
▁group	-11.5327
▁�����	-11.5329
޴�	-11.5335
▁high	-11.5341
▁usa	-11.5348
▁�޾���	-11.5379
÷	-11.5385
��߼���	-11.5471
ter	-11.549
▁�׶�����	-11.5501
▁thi	-11.5526
ǸŰ	-11.5528
▁sk	-11.5543
࿡��	-11.5605
Ȼ	-11.5656
Ѳ	-11.5656
彽	-11.5656
鷯	-11.5656
▁death	-11.5658
▁police	-11.5658
▁research	-11.5658
▁control	-11.566
▁service	-11.5669
▁�����̽	-11.568
󵥽	-11.5696
ǾƳ	-11.5707
▁back	-11.5707
��	-11.5711
׶���	-11.5714
▁�䷹��	-11.5732
Ƽű	-11.5781
Dz	-11.5789
▁au	-11.5825
▁�̿�����	-11.5839
��̽�	-11.5887
▁�⿩�	-11.5898
▁�3⁄4���	-11.5916
able	-11.5941
▁�׶�	-11.5954
Ȳû	-11.5967
in	-11.5984
▁you	-11.5987
▁election	-11.6002
Ḯ	-11.6009
ɲ	-11.6014
⺴	-11.6014
캸	-11.6014
مم	-11.6014
▁bmw	-11.6014
▁market	-11.6015
▁���񽺰�	-11.6016
▁economic	-11.6022
▁united	-11.6022
▁issue	-11.6023
said	-11.6029
▁eta	-11.6032
����	-11.6045
峪	-11.6055
▁���̵��	-11.6069
▁�߻�������	-11.6085
▁leader	-11.61
�̻���	-11.6102
▁want	-11.6106
��⵵	-11.611
▁Ĩ	-11.6134
▁���࿡��	-11.6135
▁face	-11.6146
▁man	-11.616
▁fire	-11.6199
߾���	-11.6231
▁���򰡵���	-11.6257
���鿡��	-11.6263
▁�������	-11.6271
▁�ʾ���	-11.6287
▁�𿴴	-11.6298
࿡	-11.6313
▁���񼱰	-11.6331
lee	-11.635
▁�׶���	-11.6383
尨	-11.6384
迵	-11.6384
뿩	-11.6384
걹	-11.6384
▁chief	-11.6384
▁general	-11.6385
▁consumer	-11.6385
▁was	-11.639
▁peace	-11.6393
▁financ	-11.6394
▁�߼�����	-11.6415
▁Ų	-11.6439
.	-11.6448
▁prim	-11.6453
���ʹ�	-11.6455
▁iss	-11.6456
into	-11.6465
▁inter	-11.6468
̽�����	-11.647
▁�����߾��	-11.6493
▁�˷����	-11.6496
޿�	-11.6508
▁make	-11.6515
Ҽӵ	-11.6519
▁win	-11.653
▁�𸥴	-11.6538
ýŵ	-11.6545
g	-11.6546
▁agenc	-11.6553
���̻�	-11.6556
▁change	-11.6592
׹	-11.6633
▁ȣȭ	-11.6644
▁�׶��	-11.6651
▁�޵��	-11.6656
󸶰�	-11.6689
�ʿ�	-11.671
▁�̽��󿤱�	-11.6723
▁baghdad	-11.6769
▁health	-11.6769
纻	-11.6769
跰	-11.6769
Ἲ	-11.6769
▁pakistan	-11.6769
䵵	-11.6769
漼	-11.6769
緹	-11.6769
踶	-11.6769
▁bbk	-11.6769
▁white	-11.6769
׽���	-11.6772
▁suv	-11.6772
▁ufo	-11.6775
▁get	-11.6779
▁�񿵸�	-11.6783
▁�3⁄4	-11.6804
▁off	-11.6812
▁�鿪	-11.6821
▁�׿��	-11.6839
ish	-11.6844
մԵ	-11.6854
▁dc	-11.6858
▁�޽	-11.6871
▁hd	-11.69
▁zan	-11.6902
��̾��	-11.6906
▁�׺	-11.693
�°��	-11.6941
▁¥��	-11.6949
▁�}����	-11.6958
�޾	-11.7017
▁�޼�	-11.7019
age	-11.706
man	-11.7061
���⿡	-11.707
�׷	-11.7072
޾�	-11.7101
▁�����⿡��	-11.7105
��̷�	-11.7111
▁pf	-11.7148
▁year	-11.7156
▁�÷��̾�	-11.7159
x	-11.7161
▁���°	-11.7162
▁america	-11.7162
⳪	-11.7169
庸	-11.7169
빮	-11.7169
Ằ	-11.7169
▁that	-11.7169
▁wild	-11.7178
▁�׼�	-11.7199
���̵�	-11.7231
▁���񼱰�	-11.725
�°���	-11.7285
▁�������¿�	-11.7285
ŸŸ	-11.7298
þƷ	-11.7308
¿���	-11.7308
▁�׾�	-11.7312
▁start	-11.7317
▁ftse	-11.7318
▁�⸶	-11.7343
▁�𿩵���	-11.7377
land	-11.7389
񿡼�	-11.7394
޶�	-11.7486
▁�޻��߼���	-11.7511
▁�����	-11.7518
޴	-11.7539
�̵	-11.7541
▁office	-11.7547
▁�����鿡�	-11.7554
	-11.7574
j	-11.7582
����̶���	-11.7584
▁pm	-11.7584
▁oecd	-11.7585
䳢	-11.7585
緯	-11.7585
蹫	-11.7585
뱸	-11.7585
󰡴	-11.7585
▁wwf	-11.7585
▁about	-11.7585
▁union	-11.7588
ǽõƴ	-11.7591
▁rights	-11.7595
▁do	-11.7597
▁call	-11.76
ũŸ	-11.7607
▁work	-11.7613
̻���	-11.7624
▁���߾�	-11.7658
▁ġŸ	-11.7668
▁ban	-11.7671
�̷	-11.7678
޵	-11.7686
׽	-11.7698
▁pop	-11.7711
˰�	-11.7712
▁����	-11.7716
▁�⸣��	-11.7734
▁�׺�����	-11.7749
ve	-11.7766
▁mo	-11.7767
▁�ٰ��	-11.7769
���	-11.7789
▁���˶���	-11.7794
�̷���	-11.785
▁�͹��	-11.785
ist	-11.7874
ȷȴ	-11.7877
▁�׵鿡	-11.7884
γε	-11.7897
▁����	-11.7899
▁���𿡼�	-11.7904
����̾���	-11.792
�	-11.7927
▁st	-11.7978
���̳	-11.799
▁�߾�������	-11.8014
ext	-11.8019
Ի	-11.802
▁australia	-11.802
赵	-11.802
뿭	-11.802
浵	-11.802
▁administration	-11.802
▁gnp	-11.802
▁six	-11.8021
▁���÷��̼	-11.8028
▁tax	-11.8039
▁���»��¿�	-11.8081
▁�ʹ���	-11.8118
▁�����̷�	-11.8118
▁�޷�����	-11.8127
▁arm	-11.821
ƪ	-11.8232
𿡰�	-11.8239
▁�𿡰�	-11.8267
▁���⹰��	-11.827
▁�޴�����	-11.8279
▁star	-11.8303
▁�̳���	-11.8323
̾Ƴ	-11.8334
▁poll	-11.8345
▁ak	-11.8357
��̳	-11.8373
▁down	-11.8378
▁brit	-11.8427
ney	-11.8432
൵	-11.8475
▁beijing	-11.8475
▁defense	-11.8475
▁nymex	-11.8475
▁summit	-11.8475
屸	-11.8475
漾	-11.8475
긣	-11.8475
븰	-11.8475
Ṯ	-11.8475
籸	-11.8475
▁movie	-11.8475
▁street	-11.8475
▁society	-11.8475
▁gps	-11.8475
▁claim	-11.8484
▁sg	-11.8484
▁hsbc	-11.8484
▁�˹�	-11.8487
▁break	-11.8496
▁�𵨷	-11.8513
����	-11.852
▁��̵鿡	-11.8538
▁���޾�	-11.8554
▁q	-11.8559
▁post	-11.8563
way	-11.8602
▁�񳭿�	-11.8608
▁space	-11.8612
ance	-11.8637
▁���	-11.8672
▁���÷��̼���	-11.8708
▁�����	-11.8714
���	-11.872
▁sun	-11.8732
޵���	-11.8737
▁�̺	-11.8761
▁�׾��	-11.8763
�̱���	-11.8778
▁�׵鿡�	-11.8808
���߽��	-11.882
���̾�	-11.8839
ious	-11.8843
⸸	-11.8849
▁���̿�����	-11.8852
��	-11.886
��͸�	-11.8873
▁�߾�����	-11.8882
▁�˿���	-11.8886
▁fun	-11.8889
▁��	-11.8895
��	-11.8904
▁���÷��̼�	-11.8918
▁���̽��	-11.8919
▁�⸧��	-11.8928
▁�������鿡��	-11.8933
Ҳ	-11.8951
ຸ	-11.8951
▁�󱼿�	-11.8951
Ⲩ	-11.8951
⿣	-11.8951
氨	-11.8951
縳	-11.8951
迪	-11.8951
뿤	-11.8951
ն	-11.8951
▁ecb	-11.8951
볪	-11.8951
▁journal	-11.8951
▁commission	-11.8951
▁park	-11.8951
▁candidate	-11.8951
▁faa	-11.8952
▁wti	-11.8952
▁russia	-11.8955
▁agree	-11.8956
▁science	-11.8957
▁forces	-11.8961
▁jp	-11.8965
��߼�����	-11.8972
▁official	-11.8972
it	-11.8974
ٲٱ	-11.8982
than	-11.9004
▁le	-11.9027
▁fc	-11.9027
▁hit	-11.9037
Ʒý	-11.904
▁report	-11.9041
▁air	-11.9042
���̽�����	-11.9085
��̶�	-11.9099
▁ge	-11.9119
▁�׿	-11.912
▁red	-11.9124
▁�񼭽���	-11.9148
▁ø	-11.9151
ir	-11.9156
▁home	-11.916
▁�̾��	-11.9173
▁�·�����	-11.9186
▁���׸	-11.9195
▁���̽����̽�	-11.921
▁�𸮽�	-11.923
˻���	-11.9287
▁�˼�	-11.9308
ch	-11.9318
▁�˿�	-11.9384
▁£��	-11.9398
▁free	-11.9424
▁kt	-11.9428
▁school	-11.9436
▁�������	-11.9439
▁window	-11.9451
屹	-11.9451
踸	-11.9451
뱳	-11.9451
𸮴	-11.9451
▁rctv	-11.9451
▁www	-11.9451
▁uae	-11.9451
▁food	-11.9451
▁support	-11.9452
▁prosecutor	-11.9455
▁mid	-11.9459
ful	-11.9461
out	-11.9469
▁glob	-11.9479
▁��	-11.9485
▁ump	-11.9491
▁fund	-11.9493
󽺸�	-11.9516
ern	-11.9518
▁�˵�	-11.9534
red	-11.9551
head	-11.9562
day	-11.9565
޷���	-11.9573
Ǹž	-11.9584
▁���׹�	-11.9587
▁good	-11.9595
▁chin	-11.96
ft	-11.9621
▁�⵶���	-11.9624
�����	-11.9629
▁du	-11.9634
▁�}��	-11.9635
▁�̲����	-11.9635
▁head	-11.9675
���¿�	-11.9736
▁�񼭽�����	-11.9745
▁�ٰ�	-11.9753
▁���޷	-11.9754
̷κ	-11.9761
▁�;���	-11.9767
week	-11.9774
▁�˹���	-11.9798
▁am	-11.9837
▁������	-11.986
▁�͹̳	-11.9864
����ٰ�	-11.9864
▁������������	-11.99
▁���鿡	-11.9914
���鿡	-11.9934
▁heart	-11.9951
▁bp	-11.9951
▁system	-11.9963
▁public	-11.9967
▁meet	-11.9975
▁live	-11.9976
ӳ	-11.9977
▁economy	-11.9977
▁strike	-11.9977
▁usgs	-11.9977
巣	-11.9977
纹	-11.9977
기	-11.9977
쳪	-11.9977
츲	-11.9977
▁hostage	-11.9977
▁travel	-11.9978
̼���	-11.9979
▁soldiers	-11.9981
ֹ̾̿	-11.9984
▁law	-11.9995
▁chi	-11.9999
▁���͸���	-12.001
▁�׺��	-12.0013
��̼	-12.0026
▁�����޴�	-12.0059
򿡼�	-12.0091
▁���̵鿡	-12.0096
▁���»	-12.0105
▁�䷹	-12.0126
▁move	-12.0127
▁��1⁄4��	-12.0135
ڱݿ	-12.0136
cy	-12.0151
�̱	-12.0165
▁�˸	-12.0202
light	-12.0208
est	-12.0211
▁�–	-12.0255
▁÷��	-12.0282
ive	-12.0313
���̺�	-12.0318
▁sc	-12.0329
▁���׼���	-12.0338
▁���޾	-12.0341
ng	-12.0354
▁�޵�	-12.0403
▁right	-12.043
̼�	-12.0459
▁���๰	-12.0461
ĵƴ	-12.0466
▁aid	-12.0468
▁me	-12.0508
▁can	-12.0515
▁corp	-12.053
▁���̽����̽���	-12.0532
▁business	-12.0533
弭	-12.0533
氪	-12.0533
濬	-12.0533
簣	-12.0533
豹	-12.0533
齼	-12.0533
쵥	-12.0533
	-12.0533
▁california	-12.0533
迬	-12.0533
鸶	-12.0533
▁ŰƼȣũ	-12.0533
▁isaf	-12.0533
▁paris	-12.0533
▁committee	-12.0533
▁uci	-12.0533
▁ma	-12.0533
▁epl	-12.0535
▁nhc	-12.0536
▁grow	-12.054
▁attacks	-12.0541
▁sex	-12.0544
▁case	-12.0545
▁big	-12.0545
▁four	-12.0547
▁üþ	-12.0556
▁���߿���	-12.0557
▁�������̶���	-12.0559
▁tr	-12.0561
▁test	-12.0573
īƼ	-12.0575
▁�˱	-12.059
▁music	-12.061
▁bet	-12.0635
▁�����̾�����	-12.0636
▁green	-12.0641
̵忡	-12.0645
▁al	-12.0648
▁cut	-12.0658
�̱⵵	-12.068
▁�⵶����	-12.0705
▁�����͹���	-12.0713
▁¦���	-12.0719
▁worker	-12.0727
▁ps	-12.0737
▁���̵鿡�	-12.0741
鿩����	-12.0749
▁yout	-12.0766
▁���񽺿�	-12.0781
׸��	-12.079
ice	-12.0815
▁�����̰	-12.0815
�󵵳�	-12.0818
▁���̿��	-12.0844
˷�	-12.0847
▁way	-12.086
▁���޻�	-12.0865
ster	-12.0871
▁so	-12.0888
▁�±�����	-12.0898
ľǵ	-12.0899
▁�����̳	-12.0911
▁ira	-12.0929
▁urge	-12.0941
�ʿ���	-12.0953
▁�ʼ���	-12.0979
▁���1⁄2	-12.0981
�����̰�	-12.0984
ate	-12.1002
̷���	-12.101
▁�󹫺	-12.1011
▁�̾��	-12.1042
▁os	-12.1055
▁�󿵵	-12.106
▁���޽	-12.1086
▁�׾���	-12.1106
▁pro	-12.1108
▁bill	-12.1117
جل	-12.1121
▁church	-12.1121
▁unhcr	-12.1121
▁جلاله	-12.1121
Ⳳ	-12.1121
渶	-12.1121
밳	-12.1121
췮	-12.1121
N	-12.1121
䳻	-12.1121
뼼	-12.1121
▁iwc	-12.1121
▁irna	-12.1121
▁program	-12.1121
▁earth	-12.1121
▁demand	-12.1121
▁senate	-12.1121
▁gdp	-12.1121
▁thai	-12.1121
▁organization	-12.1121
▁kbs	-12.1122
▁mtv	-12.1128
▁esta	-12.1129
▁tsa	-12.1132
	-12.1135
▁years	-12.114
▁eads	-12.1141
▁��	-12.1141
▁ȣȲ	-12.1146
▁aids	-12.1148
▁�׷�������	-12.1149
ml	-12.1149
ٲپ	-12.1156
▁īī	-12.1175
▁car	-12.12
▁force	-12.1218
ٲٰ	-12.1248
▁su	-12.1271
▁�׵��	-12.133
▁under	-12.1331
tic	-12.1358
▁wid	-12.1361
▁ask	-12.1376
▁ag	-12.1387
����̰�	-12.1389
▁�̵鿡�	-12.1391
▁king	-12.1408
▁÷�	-12.1411
re	-12.1455
▁�׶����	-12.1476
book	-12.1513
time	-12.1519
space	-12.1545
▁�����̼�	-12.1546
׶�	-12.1551
ure	-12.1568
▁ces	-12.1579
▁���߽	-12.1607
ction	-12.162
eic	-12.1633
▁�׷��̽�	-12.1636
na	-12.17
▁�������̳�	-12.1717
▁emi	-12.1722
�̽�����	-12.1728
▁�»���	-12.1729
▁black	-12.1732
▁�޲	-12.1743
▁���1⁄2�	-12.1745
▁height	-12.1746
ç	-12.1746
ᵵ	-12.1746
▁conference	-12.1746
▁institute	-12.1746
迴	-12.1746
뽶	-12.1746
󰬴	-12.1746
Զ	-12.1746
▁�𷹽���	-12.1746
▁country	-12.1746
▁second	-12.1746
▁�÷��̽����̼�	-12.1746
▁dead	-12.1746
▁academy	-12.1746
▁abn	-12.1746
▁threaten	-12.1751
▁deal	-12.1753
▁killed	-12.1758
▁stop	-12.176
p	-12.1761
▁won	-12.1767
▁capital	-12.1769
▁train	-12.1769
▁list	-12.1773
̱ⱸ	-12.1775
▁trial	-12.1777
▁times	-12.1782
▁states	-12.1787
▁watch	-12.1788
ube	-12.1798
▁�޸�����	-12.1801
▁rate	-12.1805
▁�𿩵�����	-12.1819
�࿡	-12.182
▁�����	-12.1824
▁africa	-12.1831
▁franc	-12.1841
▁there	-12.1847
▁wall	-12.1849
▁�°	-12.185
ry	-12.1851
uri	-12.1855
▁east	-12.1885
▁���	-12.1896
▁vi	-12.1935
km	-12.1938
▁���̾�����	-12.194
ous	-12.1957
ease	-12.2017
▁tot	-12.2024
�޴	-12.203
鿴�	-12.2031
▁���	-12.2032
id	-12.2054
̾	-12.2077
󿡰	-12.2092
arly	-12.2107
▁ͅ��	-12.2115
ȿȭ	-12.2117
ǸŴ	-12.2127
▁���޹���	-12.2129
▁���̱	-12.2145
ick	-12.2146
▁di	-12.2155
Ǭ	-12.2188
Ĩ	-12.2189
▁centr	-12.2202
¡	-12.2208
▁dai	-12.2229
▁���°�����	-12.2238
▁�̼�����	-12.227
▁kill	-12.2273
▁���׼��	-12.2304
▁���̼�	-12.232
��⿡��	-12.2322
▁�����߾�����	-12.2339
󸶿�	-12.2344
▁million	-12.2347
▁�	-12.238
▁¦��	-12.2382
▁���	-12.2391
▁�������࿡	-12.2398
▁power	-12.2399
ݲ	-12.2413
ḻ	-12.2413
▁record	-12.2413
巳	-12.2413
繰	-12.2413
绡	-12.2413
踻	-12.2413
꺸	-12.2413
󰣴	-12.2413
▁iucn	-12.2413
帯	-12.2413
翹	-12.2413
耒	-12.2413
긴	-12.2413
▁alliance	-12.2413
▁hyun	-12.2413
▁joint	-12.2413
▁dax	-12.2413
▁peta	-12.2413
▁federal	-12.2414
▁georg	-12.2415
▁meeting	-12.2415
▁today	-12.2417
▁order	-12.2418
▁įǪ	-12.2418
󽺿�	-12.242
▁xp	-12.2424
▁just	-12.2426
▁¡���	-12.2435
▁cac	-12.244
▁cur	-12.2443
▁bid	-12.2446
▁girls	-12.2448
▁come	-12.2461
▁politic	-12.2466
▁money	-12.2473
ol	-12.2481
���̽	-12.249
▁uk	-12.2498
▁christ	-12.25
▁�˼���	-12.2517
▁give	-12.2521
▁protest	-12.2522
▁buy	-12.2528
▁�ʼ	-12.2539
▁line	-12.2541
󸶸�	-12.2542
▁act	-12.2549
▁���׷�	-12.255
▁cas	-12.2554
���̵���	-12.2578
�̺�	-12.2581
̿��	-12.2596
▁set	-12.2609
▁�󸶸�	-12.2613
▁�ʻ�����	-12.2653
▁�˻�����	-12.2667
󺸴�	-12.2676
▁���	-12.2691
�	-12.2709
˻�	-12.2718
▁�׼��	-12.272
▁pre	-12.2754
▁õü	-12.2755
▁���޴�	-12.2759
޹	-12.2807
▁na	-12.2808
nois	-12.2821
▁vote	-12.2847
鿩��	-12.2851
cent	-12.287
��̱⵵	-12.2894
▁�1����	-12.2907
▁�±	-12.294
�̴	-12.2948
▁india	-12.2952
▁�󸶵���	-12.2987
▁�޸𸮾�	-12.3015
▁ŰƮ	-12.303
tive	-12.3038
ical	-12.3046
��޴	-12.3048
▁���←	-12.3051
▁�˸��	-12.3057
ẹ	-12.3127
コ	-12.3127
콼	-12.3127
æ	-12.3127
ه	-12.3127
Ἶ	-12.3127
▁campaign	-12.3127
▁council	-12.3127
▁crisis	-12.3127
▁envoy	-12.3127
▁europe	-12.3127
▁john	-12.3127
▁kkk	-12.3127
▁microsoft	-12.3127
▁prevent	-12.3127
▁sncf	-12.3127
▁�̽��󿤷	-12.3127
▁�𽽸�	-12.3127
崺	-12.3127
汳	-12.3127
缭	-12.3127
갣	-12.3127
굵	-12.3127
񿡸	-12.3127
▁etc	-12.3127
▁safe	-12.3127
▁illegal	-12.3127
▁rbs	-12.3128
▁wta	-12.3128
▁usb	-12.3129
▁�𰡵𽴿���	-12.3129
▁�鿩��	-12.3131
▁constitutional	-12.3141
▁number	-12.3143
▁west	-12.3147
▁atp	-12.3153
▁cl	-12.3153
▁omx	-12.3157
▁auto	-12.3158
▁ͅ��̽�	-12.3159
�˻	-12.3164
▁lead	-12.3176
▁night	-12.3176
̾ߵ	-12.3181
▁nations	-12.3182
▁�ʽ	-12.3188
ble	-12.3198
3�	-12.3208
▁refugee	-12.3242
son	-12.3252
▁che	-12.3255
▁mp	-12.3256
�̼���	-12.3269
▁�3	-12.3293
dom	-12.3303
ŵƴ	-12.3303
▁ta	-12.3336
go	-12.3356
net	-12.3373
▁major	-12.3377
߻�	-12.3406
�	-12.3406
ian	-12.3406
��̴	-12.341
▁���߻�	-12.3412
▁�߻��߾��	-12.3421
▁�޺�	-12.343
▁�����	-12.3438
▁���߾	-12.3443
���̵	-12.3467
▁���׵�	-12.3476
▁tru	-12.3492
▁tam	-12.3501
׺���	-12.3504
𸮼�	-12.3511
▁del	-12.3525
▁�����	-12.3528
▁�÷��̿���	-12.3537
��׿�	-12.3555
▁°	-12.3563
ness	-12.3566
ning	-12.3569
��߾�	-12.3577
▁���͹�	-12.3577
▁pe	-12.358
�߾��	-12.3584
���⵵	-12.3598
bar	-12.3599
▁�÷��̾	-12.3607
▁�����޶󸮰�	-12.3617
���̶�	-12.3618
▁bo	-12.3627
▁ha	-12.3636
���󹫱�	-12.3638
Ȩ	-12.3645
▁lo	-12.3648
▁jo	-12.366
employ	-12.3668
▁�󿡼�	-12.3725
��࿡	-12.3749
▁wi	-12.3778
▁�޸��	-12.379
▁�̷����	-12.3809
�ʽ���	-12.3817
▁����¡�	-12.3819
▁bomb	-12.3839
�̺���	-12.3843
▁thre	-12.3859
▁en	-12.386
▁return	-12.3883
▁price	-12.3884
˻	-12.3893
ween	-12.3896
Ӷ	-12.3896
ఢ	-12.3896
▁children	-12.3896
▁french	-12.3896
▁radio	-12.3896
ثن	-12.3896
▁ucla	-12.3896
▁investigation	-12.3896
▁road	-12.3896
▁snl	-12.3896
▁nhk	-12.3896
▁internet	-12.3896
▁org	-12.3896
▁billion	-12.3897
▁foundation	-12.3897
▁need	-12.3898
▁sars	-12.3898
▁intelligen	-12.3898
▁mls	-12.3905
▁credit	-12.3906
▁flu	-12.3907
ȵƴ	-12.3915
▁marine	-12.3917
▁elect	-12.3918
▁push	-12.392
▁board	-12.3929
▁�����÷���	-12.3935
▁industr	-12.3938
▁grand	-12.3943
▁jon	-12.3955
▁he	-12.396
̱	-12.3962
▁israel	-12.397
▁toward	-12.3975
had	-12.3975
▁̧Դ	-12.3976
z	-12.3983
▁si	-12.399
▁���ʹ	-12.4018
Ƽī	-12.4025
▁�䷹����	-12.4028
�׿�	-12.4032
un	-12.4034
���̿���	-12.4038
▁�˼��	-12.404
▁�ʺ�	-12.4054
�ʹ���	-12.4067
▁¥����	-12.4082
�̸	-12.4084
▁led	-12.4103
ll	-12.4109
ague	-12.411
▁rall	-12.4134
▁mi	-12.4142
▁�˾���	-12.4147
mas	-12.4168
▁book	-12.4194
��鿡�	-12.42
▁���׽���	-12.4212
▁�����¿�	-12.4213
▁����	-12.4219
▁���󿡼���	-12.4225
ent	-12.4266
▁���⸸	-12.4279
ncy	-12.428
▁dur	-12.429
▁democra	-12.4303
▁san	-12.4309
▁�޺	-12.4309
▁���̾	-12.4315
▁�����̿��	-12.4316
▁���⹰	-12.4323
ino	-12.4344
▁low	-12.4348
Ÿī	-12.4349
▁�������⿡	-12.4387
▁cross	-12.4398
����	-12.4399
▁rock	-12.4402
▁Dz	-12.4408
▁Ŵ	-12.4417
���°�	-12.4429
is	-12.4436
▁great	-12.4446
▁con	-12.4449
▁�����̱�	-12.4451
illi	-12.4454
�����̸�	-12.446
▁late	-12.4475
▁near	-12.4479
IJ	-12.4486
ȩ	-12.4502
nel	-12.451
▁���	-12.4514
̵	-12.4554
▁�����̿	-12.4559
���⿡��	-12.4588
���͸���	-12.4611
▁inc	-12.4631
▁sup	-12.469
ism	-12.4695
▁fr	-12.4703
▁attack	-12.4717
reme	-12.4718
▁ambassador	-12.4729
▁clinton	-12.4729
▁dispute	-12.4729
▁kcna	-12.4729
▁little	-12.4729
▁ipcc	-12.4729
▁congress	-12.4729
▁tgv	-12.4729
▁half	-12.4729
▁women	-12.4729
▁memorial	-12.4729
▁hotel	-12.4729
▁prison	-12.473
▁beach	-12.473
▁drm	-12.473
▁hong	-12.473
▁burma	-12.473
▁nld	-12.473
▁arrested	-12.473
▁cell	-12.4745
pga	-12.4752
▁concern	-12.4752
▁sky	-12.4753
▁play	-12.4753
▁island	-12.4757
▁jung	-12.4759
▁gb	-12.4759
▁�̽��͸�	-12.4778
▁sola	-12.479
▁release	-12.479
▁gold	-12.4792
▁let	-12.4795
ñⱸ	-12.4796
▁���߼�	-12.4803
ra	-12.4805
▁�}���	-12.4807
▁mc	-12.482
���߾���	-12.4829
▁���׼�	-12.4829
�3�	-12.4834
oil	-12.4854
Ƿo	-12.4859
▁her	-12.4866
▁rise	-12.487
����鿡��	-12.4881
▁���׼����	-12.4883
▁expresse	-12.4883
▁�׽��	-12.4892
▁���±�	-12.4895
�̹	-12.4901
ǵǰ	-12.4902
�˻�	-12.4911
߻���	-12.492
κε	-12.4943
▁jun	-12.4949
ta	-12.4959
�̰	-12.4982
�	-12.4998
̴Σ	-12.5005
▁�׻���	-12.5013
▁Ǭ	-12.502
▁�����°�	-12.5037
ling	-12.506
ٲٴ	-12.5064
▁atm	-12.5074
▁sh	-12.5103
gle	-12.5108
͸���	-12.5132
▁el	-12.5137
▁���ʾ	-12.5164
Ϻκ	-12.5167
▁�¿��	-12.5169
▁�°��	-12.517
less	-12.5189
�̿	-12.5195
▁�����	-12.5201
�¥��	-12.5208
ū	-12.5212
▁ice	-12.5214
▁���⿭	-12.5227
▁hel	-12.5233
▁ch	-12.5242
▁���׻	-12.5261
▁ga	-12.5274
▁�����߾�	-12.5274
▁��¿	-12.5282
▁���񿡼�	-12.5283
te	-12.5284
▁te	-12.5286
▁run	-12.5305
ition	-12.5337
dle	-12.5339
wood	-12.5367
����������	-12.5375
▁�󽺹�����	-12.5382
▁�񼭰���	-12.5389
dai	-12.5398
į	-12.5402
ors	-12.541
▁���׹	-12.5412
▁�	-12.5417
��󱹵���	-12.5447
me	-12.5458
߼���	-12.5463
▁���3�	-12.5471
ȭȭ	-12.5482
▁���׿	-12.5506
▁islam	-12.5513
ber	-12.5519
▁goo	-12.5524
�̽	-12.5534
ant	-12.5547
▁���׵	-12.5547
▁rul	-12.5548
޷	-12.5554
▁�̾����	-12.5571
▁end	-12.5571
��𽺿���	-12.5574
ough	-12.5592
▁problem	-12.5625
�԰�	-12.5626
▁depart	-12.563
▁resign	-12.5637
▁unveil	-12.5637
ض	-12.5639
▁consider	-12.5639
▁drug	-12.5639
▁jaxa	-12.5639
▁olpc	-12.5639
▁rescue	-12.5639
▁taliban	-12.5639
▁transport	-12.5639
▁video	-12.5639
▁information	-12.5639
▁mvp	-12.5639
▁reject	-12.5639
▁klm	-12.5639
▁ntsb	-12.5639
▁pledge	-12.5639
▁�̳׾�������	-12.5639
▁asean	-12.5639
▁kurdis	-12.5639
▁gaza	-12.5639
▁holly	-12.5639
federation	-12.5639
▁student	-12.5639
▁common	-12.5639
▁some	-12.5639
▁mri	-12.5639
▁idf	-12.564
▁sag	-12.564
▁weapons	-12.564
▁fao	-12.5641
▁sanctions	-12.5642
▁hill	-12.5642
▁god	-12.5643
▁dhs	-12.5643
▁af	-12.5644
harry	-12.5646
▁�̷1⁄4�	-12.5651
▁dream	-12.5654
▁stock	-12.5656
▁�˸��̴	-12.5659
ready	-12.5669
ʿ���	-12.5678
▁�����߾�������	-12.5683
how	-12.5684
▁town	-12.5685
۱ݵ	-12.5691
̰ܳ	-12.5692
▁hold	-12.5692
▁ex	-12.5696
▁march	-12.5699
▁asia	-12.5701
▁�˽�	-12.5715
▁���̾��	-12.572
▁spa	-12.5722
▁se	-12.5728
se	-12.5741
▁aft	-12.5746
▁heav	-12.5753
▁relations	-12.576
�����̾���	-12.5762
▁�������׿���	-12.5763
▁po	-12.5764
▁increase	-12.5768
▁ne	-12.5781
▁���޹	-12.5784
��޿�	-12.5792
ns	-12.5793
߼�	-12.5793
▁���󰡵�	-12.5795
󵵳�	-12.5797
▁�޶��̶󸶿�	-12.58
▁ko	-12.5803
ȣȭ	-12.5812
▁�󹫺�	-12.5814
▁�ʻ�	-12.5821
���̱	-12.5837
▁�˹߽�	-12.5877
Ƽũ	-12.5881
ǽõȴ	-12.5884
▁ȩ	-12.589
ology	-12.589
▁���߻�����	-12.5901
fc	-12.5902
ΘϾ	-12.5907
▁product	-12.591
�׿���	-12.5933
޽�����	-12.5943
▁mos	-12.5948
ore	-12.596
▁butt	-12.5966
▁rule	-12.5969
▁dae	-12.5984
▁�����̱⵵	-12.5995
om	-12.6008
▁bc	-12.6013
min	-12.6018
sa	-12.6027
¡����	-12.6046
ood	-12.6063
▁�׻�����	-12.6067
׺�	-12.6069
ma	-12.6096
rry	-12.6117
▁�˶�	-12.6122
▁sen	-12.6141
▁fi	-12.6143
▁ver	-12.6162
▁���׺�	-12.6168
ŸƮ	-12.6171
▁ii	-12.6174
ze	-12.6184
▁jer	-12.6185
�׸��	-12.6212
▁ministr	-12.6227
▁�޼�����	-12.623
▁���𿡵�	-12.6232
õȴ	-12.6234
▁�£	-12.6237
׽��	-12.6258
▁�˼�����	-12.6293
▁ĸ	-12.6296
▁�๰�˻	-12.6307
��̻�	-12.6324
▁ke	-12.6328
�	-12.6338
▁�	-12.6389
▁leaders	-12.6396
▁���1	-12.6423
life	-12.6434
▁wh	-12.6437
▁�˶��	-12.6448
�׷��	-12.645
ûȸ	-12.6465
ship	-12.6477
▁�˳�	-12.6479
▁�䷯��	-12.6499
ii	-12.6502
▁use	-12.6505
���󹫱	-12.651
�⸸��	-12.6542
▁ben	-12.655
ny	-12.6557
▁�⸧	-12.6558
▁anti	-12.6603
▁�̼����	-12.6615
▁direct	-12.6619
▁boa	-12.6631
▁intel	-12.6636
media	-12.6636
▁arrest	-12.6638
ى	-12.6639
▁insurgent	-12.6639
▁peninsula	-12.6639
▁suicide	-12.6639
▁confidence	-12.6639
▁dollar	-12.6639
▁question	-12.6639
▁usfk	-12.6639
▁paul	-12.6639
▁delay	-12.6639
▁technology	-12.6639
▁rdr	-12.6639
▁royal	-12.6639
▁boj	-12.6639
▁spending	-12.6639
▁animal	-12.6639
▁ansa	-12.6639
▁would	-12.6639
▁missing	-12.6639
▁online	-12.6639
▁film	-12.6639
▁ser	-12.664
▁snow	-12.664
▁aha	-12.6641
▁republican	-12.6642
▁aey	-12.6642
▁begin	-12.6642
nsc	-12.6645
▁motor	-12.6649
▁barack	-12.6656
▁special	-12.6656
▁protests	-12.6656
▁aaa	-12.6657
▁dj	-12.6657
▁mother	-12.6658
▁ground	-12.6659
▁real	-12.6664
▁negotiation	-12.6664
▁stage	-12.6679
�߾�	-12.6681
▁angel	-12.6681
▁�̹�����	-12.6681
��̼���	-12.6689
ǪƮ	-12.6706
yang	-12.6709
Ǹŵȴ	-12.6709
��̰	-12.6723
▁young	-12.6724
▁���	-12.6733
��÷	-12.6736
ti	-12.6737
▁�󸶰�	-12.6746
﷯	-12.6748
co	-12.6759
̻翡	-12.6765
▁legal	-12.6767
▁�˷��̴�	-12.6776
▁los	-12.6776
▁���̺�����	-12.678
▁islami	-12.6782
▁bad	-12.6787
����̳�	-12.6792
▁name	-12.681
▁�׶��̺�	-12.6841
▁sea	-12.6846
ef	-12.685
▁���;�	-12.6857
▁resume	-12.6858
���࿡	-12.6859
▁÷	-12.6861
▁ro	-12.6862
̺�	-12.6866
̷Ӵ	-12.6874
ird	-12.6879
▁���߿	-12.6885
ŸŰ	-12.6888
ȣȸ	-12.6889
rs	-12.6889
▁water	-12.689
▁action	-12.689
dict	-12.6892
der	-12.6902
μζ	-12.6903
el	-12.6919
▁�׶	-12.692
▁�1⁄2��	-12.6941
▁dome	-12.6944
޽���	-12.6949
𽺸��׿���	-12.6953
▁�����޵�	-12.6955
ap	-12.6956
▁love	-12.697
▁�󽺹���	-12.6973
��򿡼�	-12.6978
▁region	-12.6978
den	-12.6982
▁z	-12.6991
▁we	-12.6993
�̳	-12.6999
�޴�	-12.6999
�̾	-12.7002
▁���˼�����	-12.7041
ays	-12.7047
̳���	-12.7067
▁job	-12.708
▁�����𿡼�	-12.7085
�𸣴�	-12.7086
▁�����ʿ�	-12.7098
̸���	-12.7105
▁sunda	-12.7133
1⁄2��	-12.7167
���󵧰�	-12.7169
▁���	-12.7169
ȸâ	-12.7174
▁democrat	-12.7181
▁�𰡵���	-12.7196
▁cance	-12.7205
̸ӵ	-12.7224
▁�1	-12.7224
▁�̺��	-12.7227
were	-12.7239
▁hand	-12.7246
▁�	-12.7246
▁sp	-12.7246
▁�����鿴��	-12.7248
▁warn	-12.7251
kyo	-12.7253
▁���򰡿�	-12.7256
�˸�	-12.727
ne	-12.7274
▁���1���	-12.7289
̰���	-12.7297
ck	-12.73
dp	-12.7354
▁�󸶴�	-12.7361
򰡴�	-12.7365
��̱�	-12.7367
	-12.7371
▁clu	-12.7387
󰡰	-12.7394
▁sa	-12.7398
▁�������׿�	-12.74
uss	-12.7407
▁���	-12.7409
▁�˾�	-12.7412
▁ŸŸ	-12.7414
̵��	-12.7414
𽺸�	-12.743
޳�	-12.7436
ga	-12.7442
▁pd	-12.7456
▁�󸻶	-12.7475
▁���޻���	-12.749
▁ten	-12.7516
▁���𿡰�	-12.7538
▁���	-12.7567
Ʒü	-12.7589
▁¢��	-12.7592
▁hi	-12.7597
ard	-12.7598
▁sale	-12.7615
��¿���	-12.7618
�̾�����	-12.7623
▁gu	-12.763
▁anc	-12.7637
▁denie	-12.766
▁ad	-12.7668
stic	-12.7673
▁mu	-12.7676
▁��	-12.7683
az	-12.7687
▁fight	-12.7719
ġŲ	-12.7723
▁leak	-12.7734
▁missile	-12.7736
���̸	-12.7737
▁invest	-12.7742
▁�˰��	-12.7742
▁constitution	-12.7749
▁afghanistan	-12.775
▁project	-12.775
▁chairman	-12.775
▁education	-12.775
▁management	-12.775
▁murder	-12.775
▁policy	-12.775
▁target	-12.775
▁tibet	-12.775
▁tmz	-12.775
▁bailout	-12.775
▁cctv	-12.775
▁countries	-12.775
▁future	-12.775
▁rspb	-12.775
▁minute	-12.775
▁damage	-12.775
▁german	-12.775
▁twc	-12.775
▁cpsc	-12.775
▁ccd	-12.775
▁flds	-12.775
▁msnbc	-12.775
▁fila	-12.775
▁labor	-12.775
▁unep	-12.775
▁become	-12.775
▁honor	-12.775
▁osce	-12.775
▁ubs	-12.775
▁mich	-12.775
▁likely	-12.775
▁history	-12.775
▁emerge	-12.7751
▁pbs	-12.7751
ast	-12.7751
▁crash	-12.7751
▁militant	-12.7751
▁ngo	-12.7751
▁governor	-12.7752
▁help	-12.7752
▁study	-12.7754
▁girl	-12.7757
▁hour	-12.7758
▁nhs	-12.7759
▁never	-12.7763
▁blue	-12.7766
ca	-12.7766
▁boy	-12.7767
▁prices	-12.7769
▁room	-12.7769
▁potter	-12.777
▁tele	-12.7772
ago	-12.7779
▁long	-12.7785
▁�׷����	-12.7788
▁front	-12.7789
▁mg	-12.7792
▁mobil	-12.7797
▁communi	-12.78
▁stay	-12.78
▁vip	-12.7801
▁hav	-12.7803
▁cost	-12.7812
▁bi	-12.7813
▁pay	-12.7822
▁care	-12.7825
craft	-12.7838
▁���⵵����	-12.784
▁�����׽���	-12.7842
▁sadda	-12.7845
ler	-12.7847
▁hot	-12.785
�����ٰ�	-12.7878
̳ɻ	-12.7901
�ʾ	-12.7906
bai	-12.7907
▁conservati	-12.7933
▁sho	-12.7937
▁fail	-12.795
̾��	-12.7953
here	-12.7976
▁rain	-12.7976
�¿���	-12.7987
▁�����߾	-12.7989
▁�¿	-12.7993
▁�¿�����	-12.7997
▁ka	-12.8013
޸	-12.8021
▁�̲����	-12.8023
▁medic	-12.8033
ologic	-12.8037
round	-12.8038
��̷	-12.805
▁�÷��̾���	-12.806
▁roll	-12.8064
ana	-12.8072
▁nie	-12.808
Σ̾	-12.8094
��̸	-12.8113
▁card	-12.8117
tor	-12.8123
ٹ̾	-12.8126
▁ris	-12.8128
▁send	-12.8129
▁critic	-12.814
𿴴	-12.8147
▁üũ	-12.817
���̾	-12.8173
▁arrive	-12.818
▁if	-12.8206
▁�׷��̻�	-12.8212
▁�͹�	-12.8219
����׾�	-12.8223
▁mar	-12.8233
▁dar	-12.8251
abe	-12.8258
߻��	-12.8284
▁�	-12.8301
▁il	-12.8306
�׵���	-12.8319
▁�﷯	-12.8335
▁���͸	-12.8347
޽�	-12.8362
▁�����̶��	-12.8372
▁mit	-12.8373
roll	-12.8407
▁od	-12.8409
߽�	-12.842
▁mari	-12.8436
la	-12.8452
¡�	-12.846
▁cast	-12.8471
▁́����̼���	-12.848
▁cp	-12.849
▁authorit	-12.8495
ark	-12.8527
▁bar	-12.8539
▁�̹��	-12.8543
▁fe	-12.8553
▁�鿩�	-12.8554
▁����	-12.8556
▁�����	-12.8574
▁class	-12.8575
▁�3⁄4�	-12.8577
ral	-12.8592
Ʒõ	-12.8594
▁tri	-12.8614
et	-12.8615
▁knu	-12.8618
well	-12.8626
▁refuse	-12.8634
�޾�	-12.8636
̴Ͻ	-12.8643
▁�׾���������	-12.8645
▁da	-12.8656
ted	-12.8658
cow	-12.8681
�ʾ�	-12.8681
▁̄	-12.8701
▁tf	-12.8706
to	-12.8715
▁ȣȯ	-12.8722
ama	-12.8728
ss	-12.8732
phone	-12.875
▁orc	-12.8755
�๰��	-12.8764
▁flor	-12.8766
�޽�	-12.8766
▁express	-12.8768
̺���	-12.8771
���׽�	-12.8774
ray	-12.8775
ior	-12.8782
▁�޻�	-12.8794
ũƼ	-12.8811
▁�����	-12.8819
ite	-12.8844
▁�⿬����	-12.8844
coming	-12.8853
▁���̸���	-12.8905
▁���1�����	-12.891
▁�����޵���	-12.8914
��󸮿�	-12.8918
▁seek	-12.8941
1⁄4���	-12.8959
line	-12.8977
▁ji	-12.8984
▁palestinian	-12.8985
▁negotiat	-12.8991
▁withdraw	-12.8999
▁secret	-12.9
▁burm	-12.9
▁develop	-12.9
▁effort	-12.9
▁icann	-12.9
▁indonesia	-12.9
▁madrid	-12.9
▁nsidc	-12.9
▁thousand	-12.9
▁xbox	-12.9
▁blood	-12.9
▁electric	-12.9
▁jfk	-12.9
▁lcd	-12.9
▁marriage	-12.9
▁accept	-12.9
▁dokdo	-12.9
▁relocation	-12.9
▁cjd	-12.9
▁sadc	-12.9
▁sudan	-12.9
▁shrine	-12.9
▁fema	-12.9
▁resignation	-12.9
▁truth	-12.9
▁mexic	-12.9
▁ktx	-12.9
▁protection	-12.9
▁univers	-12.9
▁gang	-12.9
▁medicine	-12.9
▁wrc	-12.9
▁mgm	-12.9
▁request	-12.9
▁planned	-12.9
▁nine	-12.9
▁charged	-12.9
صم	-12.9001
▁boe	-12.9001
▁things	-12.9001
▁save	-12.9001
▁nsa	-12.9001
▁wef	-12.9001
▁spy	-12.9004
▁���̼	-12.9006
▁sur	-12.9006
▁mph	-12.9007
▁hbo	-12.9007
▁ballot	-12.9009
▁�𿩵�	-12.9009
self	-12.9009
▁boat	-12.901
▁flood	-12.901
▁kiss	-12.9012
▁enter	-12.9013
ƸḮ	-12.9016
▁promise	-12.9018
▁strong	-12.9019
▁expected	-12.9019
▁mba	-12.902
▁sexual	-12.902
▁awards	-12.9025
▁export	-12.903
▁monk	-12.903
▁transf	-12.9031
▁point	-12.9032
▁hard	-12.9032
▁shoot	-12.9035
ɽĻ	-12.9037
▁find	-12.9042
▁elections	-12.9047
▁�񼭽�	-12.9049
▁same	-12.9058
gone	-12.9068
▁super	-12.907
▁�����̺	-12.9073
▁�1⁄4��	-12.9076
ǽõDZ	-12.9079
�1�����	-12.9081
▁even	-12.9082
▁kong	-12.9084
���󿡼�	-12.9096
▁́����̼�	-12.9104
�	-12.9111
▁���׷��̵	-12.9114
made	-12.9129
δϾ	-12.9133
▁�޶�����	-12.9136
▁famil	-12.9143
�̺	-12.915
ah	-12.9153
▁�๰����	-12.9157
▁�̰�������	-12.9159
▁detain	-12.916
▁cru	-12.9171
▁through	-12.918
▁bab	-12.9184
▁�����÷�	-12.9185
▁���׻���	-12.9217
̴ϼ	-12.9223
▁esp	-12.9232
▁��	-12.9244
����	-12.9247
󿡼���	-12.9249
▁���ʺ	-12.925
▁build	-12.9252
�޷	-12.9252
��׿���	-12.926
▁óĥ	-12.9269
▁�׾�����	-12.927
▁���⿴��	-12.9284
▁����°	-12.9293
▁äȭ	-12.931
��̽���	-12.9315
▁ship	-12.932
▁far	-12.9324
▁sign	-12.9332
end	-12.9333
▁indian	-12.9338
▁�°��鿡�	-12.9349
▁ev	-12.9367
▁�͹	-12.9371
▁���߼���	-12.9371
ٹ̰	-12.9376
▁�޶��̶���	-12.9398
�޸�	-12.9406
▁���̻	-12.9414
side	-12.9417
till	-12.9422
▁toy	-12.9424
▁�������̾��	-12.944
ner	-12.9451
np	-12.9453
▁net	-12.9454
▁ca	-12.9456
ham	-12.9464
ts	-12.9501
▁���߾��	-12.9512
▁they	-12.9513
▁joe	-12.9517
ists	-12.9534
�߾	-12.9535
▁���»���	-12.9548
��ٰ	-12.9551
ld	-12.9552
�𽺴�	-12.9575
dition	-12.9577
▁que	-12.9609
dy	-12.9623
▁ho	-12.9637
�1⁄4���	-12.9637
▁�޸�������	-12.9655
;�	-12.9657
lb	-12.9658
gc	-12.9667
▁�򰡵	-12.9668
þƳ	-12.9668
���׸�	-12.9671
▁�̱����	-12.9672
̺꿡	-12.9674
▁ir	-12.9708
▁pad	-12.9721
�߻�	-12.9743
̴	-12.9748
▁���͹���	-12.976
▁per	-12.9766
action	-12.9766
▁assistan	-12.9788
▁�£��	-12.9834
▁op	-12.9854
▁���ʿ	-12.986
�߻���	-12.9863
▁���̷��	-12.9873
1⁄4�	-12.9889
▁bus	-12.9905
▁scr	-12.9918
▁�׹���	-12.9927
▁ŰƼ	-12.9932
▁��	-12.9933
�����̻�	-12.9934
▁��	-12.994
▁�򰡿�	-12.9954
׽�����	-12.9974
𽺴�	-12.9997
ʾ	-12.9999
ʽ�	-13.0012
▁br	-13.0021
�̷�����	-13.0026
�߿	-13.0037
▁¦����	-13.0044
gy	-13.0045
��	-13.0049
▁�̽��󿤿���	-13.0066
▁�����޿�	-13.0071
ȣŰ	-13.0081
ȭå	-13.0097
���̷�	-13.0111
da	-13.0111
eather	-13.0121
�̳���	-13.0126
▁�޶	-13.0137
▁���󿡵�	-13.0147
wang	-13.0169
▁�����	-13.0171
̷ش	-13.0176
·÷�	-13.0178
▁legislat	-13.0199
down	-13.0201
▁im	-13.0202
▁�����	-13.0212
�׽	-13.0231
▁�������̸	-13.0234
eon	-13.0241
▁die	-13.0253
⸸��	-13.0262
▁�޹	-13.0262
llow	-13.0263
▁�;�����	-13.0298
˶���	-13.0301
▁stimul	-13.0304
▁�̽����̾	-13.0308
rgin	-13.0322
back	-13.0329
▁�����޿���	-13.0332
fire	-13.0338
���̾��	-13.0363
▁but	-13.037
▁�����޾�	-13.0396
▁ph	-13.0397
��°���	-13.0401
£��	-13.0411
▁talk	-13.0414
▁flight	-13.0415
▁month	-13.0415
▁threat	-13.0417
▁like	-13.0419
▁environment	-13.0427
عجم	-13.0428
▁benefit	-13.0428
▁confirm	-13.0428
▁contract	-13.0428
▁ebay	-13.0428
▁embezzlement	-13.0428
▁gartner	-13.0428
▁hussein	-13.0428
▁initiative	-13.0428
▁ltd	-13.0428
▁malaysia	-13.0428
▁overseas	-13.0428
▁picture	-13.0428
▁pwc	-13.0428
▁treasur	-13.0428
▁turkey	-13.0428
▁unicef	-13.0428
ل	-13.0428
▁battle	-13.0428
▁bureau	-13.0428
▁rfid	-13.0428
▁together	-13.0428
▁ymca	-13.0428
▁border	-13.0428
▁defeat	-13.0428
▁discuss	-13.0428
▁opposition	-13.0428
▁companies	-13.0428
▁gfp	-13.0428
▁kyi	-13.0428
▁ppk	-13.0428
▁quant	-13.0428
▁premi	-13.0428
▁crp	-13.0428
▁lebanon	-13.0428
▁television	-13.0428
▁plc	-13.0428
▁what	-13.0428
▁ibn	-13.0428
▁began	-13.0428
▁victory	-13.0428
▁limit	-13.0428
▁interest	-13.0428
▁highway	-13.0429
▁fox	-13.0429
▁apple	-13.0429
▁treatment	-13.0429
▁adt	-13.0429
▁network	-13.0429
▁fcc	-13.0429
▁civilian	-13.043
▁dbs	-13.043
▁immigra	-13.043
▁fata	-13.043
·﷯	-13.043
▁�޴��	-13.043
▁zoe	-13.0431
▁commerc	-13.0431
▁provinc	-13.0431
▁survey	-13.0432
▁believe	-13.0432
▁���׼����󿡼�	-13.0433
▁appeal	-13.0433
▁files	-13.0434
▁square	-13.0434
▁electronics	-13.0435
▁trip	-13.0436
brain	-13.0437
▁therap	-13.0439
1�����	-13.044
▁agreement	-13.044
▁seat	-13.044
▁event	-13.0441
▁leave	-13.0445
stem	-13.0449
▁fix	-13.0451
▁responsib	-13.0452
▁akp	-13.0453
▁sing	-13.0453
▁bay	-13.0453
▁eia	-13.0455
▁baa	-13.0455
▁���1⁄4�	-13.0456
▁station	-13.046
▁father	-13.0462
▁nuke	-13.0463
��𽺿�	-13.0463
body	-13.0467
cial	-13.0467
▁found	-13.047
▁indict	-13.0472
▁fuel	-13.0475
▁pacifi	-13.0478
▁ǻó	-13.048
▁�̹߼	-13.0483
▁charge	-13.0485
▁�鿴��	-13.0489
▁rim	-13.0493
▁walk	-13.0493
▁old	-13.0494
▁�����̵	-13.0498
▁�⸸	-13.0507
▁bang	-13.0516
▁���ʹ޶�	-13.052
tan	-13.052
▁voter	-13.0522
▁unifi	-13.0525
�߿��	-13.0541
�̶	-13.0541
▁tech	-13.0552
▁oj	-13.0553
�޶��	-13.0555
▁ȩŲ	-13.0563
▁terror	-13.0565
▁keep	-13.0565
▁nh	-13.0576
▁celebrit	-13.0577
͹�	-13.0577
▁�͹̳���	-13.058
▁person	-13.0582
salem	-13.0587
ingle	-13.0588
ener	-13.0593
▁accuse	-13.0598
burg	-13.0598
ahoo	-13.0599
replace	-13.0602
▁kid	-13.0611
�׵�	-13.0623
޺���	-13.0628
ai	-13.0628
�±�	-13.0636
▁�׷��̼�	-13.064
�����̵�	-13.0641
▁���׽	-13.0647
▁operation	-13.0656
▁�˳	-13.0666
▁decisi	-13.0678
▁men	-13.068
	-13.0685
▁swee	-13.0691
▁clon	-13.0694
▁mum	-13.0699
▁sy	-13.0716
nese	-13.073
▁trans	-13.0737
▁ethic	-13.0742
▁def	-13.0746
nt	-13.0751
ƽô	-13.0755
▁aide	-13.0772
ko	-13.0773
̽ÿ	-13.0777
▁don	-13.0778
▁���˴	-13.0783
lo	-13.079
▁sch	-13.0795
▁adh	-13.0804
▁�׷��ٰ�	-13.0807
Ʈī	-13.0811
▁guilt	-13.0822
lago	-13.0829
�̼	-13.0847
il	-13.0855
▁���̽�����	-13.087
be	-13.0877
▁ct	-13.0882
��	-13.0916
▁mr	-13.0918
ots	-13.093
̽��	-13.0934
▁conven	-13.0945
ro	-13.0976
▁���ʺ�������	-13.0982
޹�	-13.1017
▁���±���	-13.103
���̺���	-13.1037
ility	-13.105
▁close	-13.1053
▁val	-13.1063
▁�3⁄4�����	-13.1086
	-13.1092
suk	-13.11
pher	-13.11
�ʽ�	-13.1113
▁gra	-13.1119
�����̳�	-13.1121
ska	-13.1123
▁appear	-13.1128
▁�׽	-13.1129
þƾ	-13.1146
▁qui	-13.1163
am	-13.1163
▁launch	-13.1164
oman	-13.1173
▁�޻����	-13.1175
����°�	-13.1176
▁�⿩	-13.1178
▁���׷��̵�	-13.1191
▁�����̵鿡	-13.12
▁ah	-13.121
▁���޿���	-13.1215
��÷�	-13.1228
▁trade	-13.1257
▁�˸�����	-13.1268
▁�	-13.1272
▁plane	-13.1285
▁launche	-13.1291
ida	-13.1296
▁�޹���	-13.1303
▁���ٰ	-13.1309
▁possib	-13.1311
ong	-13.1326
▁���񿡰	-13.1331
1���	-13.1344
▁���׷��̵���	-13.1349
nn	-13.1351
▁���←�	-13.1369
��̽	-13.1375
water	-13.1379
▁���鿡��	-13.1387
����̾�	-13.1392
�ʿ�����	-13.1403
·������	-13.1406
▁�������̾�	-13.141
▁�÷��̵�	-13.1416
ust	-13.1416
▁�ʽ�	-13.1422
▁cho	-13.1444
▁capab	-13.1445
▁citizens	-13.1448
▁digit	-13.1462
▁���˶�	-13.1472
ril	-13.1483
▁she	-13.1485
▁����	-13.1492
▁infl	-13.1495
bc	-13.1508
���̱⵵	-13.1514
ũž	-13.1522
̿	-13.1543
▁���޽���	-13.1543
▁bur	-13.1555
▁age	-13.1563
access	-13.157
▁���⸶	-13.1582
▁je	-13.1584
▁pri	-13.1584
▁�������·�	-13.1596
▁works	-13.1618
񽺰�	-13.1622
▁isi	-13.1634
▁runn	-13.1643
▁�˹߽��	-13.1666
▁shar	-13.1673
����̾��	-13.1674
▁�����˵���	-13.169
▁�˰���	-13.1691
�󿡰	-13.1691
pain	-13.1693
ge	-13.1704
ey	-13.1704
▁�»�	-13.1708
�޿�	-13.1713
▁�������̵�	-13.1726
date	-13.1727
¿	-13.1728
▁kidnapp	-13.1729
▁ml	-13.1733
▁���޳�	-13.1744
▁pie	-13.1749
ex	-13.1751
�׼	-13.1752
ger	-13.1812
▁�����߽	-13.1815
▁sit	-13.1816
▁���̼�����	-13.1817
▁hs	-13.1832
through	-13.1855
▁arc	-13.1856
▁bri	-13.1868
cr	-13.187
׾���	-13.1874
▁�޻���	-13.1879
▁relation	-13.188
cain	-13.1891
ٴٰ	-13.1891
▁mon	-13.1893
ying	-13.19
▁ball	-13.1912
��԰�	-13.1918
ied	-13.1919
pt	-13.1923
׶�����	-13.1937
ms	-13.1949
▁min	-13.1953
uk	-13.1955
▁terroris	-13.1962
▁term	-13.197
▁���1⁄4	-13.1974
ƮǪ	-13.1985
▁asian	-13.1987
▁���񽺷	-13.1991
▁hop	-13.1997
▁share	-13.2002
east	-13.2015
▁�	-13.2035
▁sin	-13.2036
▁�޻�����	-13.2037
▁proce	-13.2044
ks	-13.2046
▁base	-13.2047
�����̶���	-13.2053
▁�����࿡	-13.2056
����⿡	-13.2077
uation	-13.2079
▁tour	-13.2079
▁soldier	-13.2082
▁expect	-13.2085
▁���޽�	-13.2087
▁wel	-13.2091
▁announce	-13.2094
▁short	-13.2095
▁multi	-13.2095
▁acqui	-13.2095
▁advance	-13.2095
▁aipac	-13.2095
▁buddh	-13.2095
▁correspondent	-13.2095
▁diplomat	-13.2095
▁earthquake	-13.2095
▁exchange	-13.2095
▁measure	-13.2095
▁spirit	-13.2095
▁traffic	-13.2095
▁company	-13.2095
▁condemn	-13.2095
▁deploy	-13.2095
▁lawmaker	-13.2095
▁louis	-13.2095
▁retire	-13.2095
▁revolution	-13.2095
▁samsung	-13.2095
▁speech	-13.2095
▁affair	-13.2095
▁icrc	-13.2095
▁declaration	-13.2095
▁ilfc	-13.2095
▁screen	-13.2095
▁inaugura	-13.2095
▁noaa	-13.2095
▁java	-13.2095
▁mrsa	-13.2095
▁failure	-13.2095
▁lone	-13.2095
▁twitter	-13.2095
▁impeachment	-13.2095
▁chung	-13.2095
▁thunder	-13.2095
▁insurance	-13.2095
▁timor	-13.2095
▁ginger	-13.2095
▁keb	-13.2095
▁child	-13.2095
estimate	-13.2095
▁protect	-13.2095
▁knight	-13.2095
▁pressure	-13.2095
▁probe	-13.2095
▁standard	-13.2095
▁ucc	-13.2095
▁recovery	-13.2095
▁chap	-13.2095
▁prince	-13.2095
▁could	-13.2095
▁usada	-13.2096
▁gsm	-13.2096
▁drill	-13.2096
▁muslim	-13.2096
▁announced	-13.2096
▁proposal	-13.2096
▁lse	-13.2096
▁withdrawal	-13.2096
▁mean	-13.2096
▁pil	-13.2096
▁csa	-13.2096
▁y	-13.2096
▁gao	-13.2096
▁blast	-13.2096
▁���޹޴	-13.2096
▁gap	-13.2097
▁river	-13.2097
▁bird	-13.2097
▁philippines	-13.2099
▁riot	-13.2099
▁story	-13.2099
▁suspend	-13.21
▁scand	-13.21
▁abba	-13.2101
▁insist	-13.2102
▁stand	-13.2103
▁���̿÷�	-13.2104
▁bott	-13.2109
׽����׿�	-13.211
opin	-13.2111
▁���׼��°�	-13.2111
▁stations	-13.2111
▁liv	-13.2111
▁level	-13.2112
▁flights	-13.2112
ƼƩƮ	-13.2113
▁put	-13.2113
▁reli	-13.2114
▁attempt	-13.2115
▁writer	-13.2116
▁decided	-13.2119
▁happy	-13.2123
▁buck	-13.2124
▁investigate	-13.2125
▁�̲���	-13.2125
▁palm	-13.2125
▁zone	-13.2126
▁cup	-13.2127
store	-13.2127
▁smok	-13.2133
ations	-13.2135
rice	-13.2136
▁know	-13.2136
▁dark	-13.2137
▁rank	-13.2139
▁eight	-13.214
▁hur	-13.2147
Ʒú	-13.215
▁declare	-13.2152
vision	-13.2154
▁resident	-13.2156
▁ip	-13.2156
▁foot	-13.2156
Ҽӻ	-13.2157
▁�������1�	-13.2162
▁door	-13.218
▁�����׿�	-13.2185
alia	-13.2186
▁eye	-13.2186
īź	-13.2189
▁score	-13.219
▁freed	-13.2191
▁ever	-13.2193
▁ford	-13.2194
▁lower	-13.2196
ar	-13.2196
▁jet	-13.2198
▁nigeria	-13.2198
▁other	-13.2201
▁źâ	-13.2202
▁stone	-13.2203
▁civi	-13.2211
▁wtc	-13.2211
▁look	-13.2214
▁hp	-13.2217
▁dies	-13.222
▁bru	-13.2222
ped	-13.2224
▁nav	-13.2227
▁protester	-13.2228
▁field	-13.2234
▁���3⁄4�	-13.2235
▁improve	-13.2237
▁hope	-13.2244
▁�̾��	-13.2244
ball	-13.2248
▁sac	-13.225
▁���°��	-13.2253
ox	-13.2254
▁Ĺ	-13.2257
▁���޹޾	-13.2265
▁counter	-13.2267
����⿡��	-13.2271
▁�̻��̾���	-13.2278
▁officer	-13.2279
▁syn	-13.2291
▁chan	-13.2292
key	-13.2292
▁�}	-13.2295
ƽþƷ	-13.2296
lin	-13.2305
�̻	-13.231
▁���¿��	-13.2313
▁�;	-13.2315
▁�ʻ���	-13.2316
��߾��	-13.2324
▁���̵��̶���	-13.2324
▁oppose	-13.2328
▁�����޶󸮰���	-13.2332
▁�󰡵�	-13.2351
ain	-13.2353
▁�����󽺿͹	-13.2355
▁mosqu	-13.2362
▁sw	-13.238
ile	-13.2383
ιε	-13.2385
▁ital	-13.2387
▁�����̳��̼�	-13.2395
▁�÷��̿�������	-13.2414
�߼���	-13.2414
▁fed	-13.2417
▁swin	-13.2423
��ʽ	-13.2423
▁revise	-13.2428
̷	-13.2429
÷��	-13.2436
ight	-13.244
̸	-13.244
ie	-13.2441
▁natur	-13.2451
jami	-13.2452
▁phone	-13.2456
▁stra	-13.2481
▁icd	-13.2483
▁coming	-13.2489
����鿡	-13.2489
▁well	-13.2497
mb	-13.2499
▁mira	-13.2506
our	-13.2517
ives	-13.252
▁wa	-13.252
�󿡼���	-13.2527
sh	-13.2529
rate	-13.253
ier	-13.2541
▁mac	-13.2543
▁�̽������	-13.2552
Ÿƾ	-13.2566
▁port	-13.2569
mp	-13.2573
tory	-13.2598
▁�׸�������	-13.2606
▁bell	-13.2623
pice	-13.2624
▁�1�	-13.2625
⹰��	-13.2628
▁���˺	-13.2635
ves	-13.2658
▁asse	-13.2661
޳�����	-13.2665
�˴	-13.2669
▁ab	-13.2669
onic	-13.2674
▁guil	-13.2677
▁flo	-13.2688
��̾�����	-13.2689
▁�ʺ��	-13.2691
nts	-13.2699
▁bon	-13.2699
▁typ	-13.2701
▁�����̾�׿���	-13.271
▁pi	-13.2712
▁�׺�	-13.2722
cession	-13.2734
now	-13.2735
▁gen	-13.274
▁þ	-13.2744
▁came	-13.2752
▁�÷��̺���	-13.2786
ek	-13.2797
are	-13.2799
aba	-13.2802
▁��̴�	-13.2812
sci	-13.2818
▁�߼�������	-13.282
̷�����	-13.2822
ire	-13.2824
�𿡼�	-13.2832
▁�������鿡	-13.2833
���	-13.2841
▁�޻	-13.2861
�̿��	-13.2872
ost	-13.2912
�̶��	-13.2915
▁���޺�	-13.292
���̴	-13.2923
▁�������̵	-13.2924
atur	-13.2928
▁leg	-13.2938
,	-13.2953
�͸	-13.2957
����ʹ�	-13.2965
񿡰	-13.297
����̿�	-13.2971
▁ki	-13.2979
▁wb	-13.2982
inter	-13.2984
▁�����	-13.3001
Ǿƴ	-13.3001
▁���󿡵���	-13.3003
versi	-13.3017
▁�����߽�	-13.3024
▁qu	-13.3033
gas	-13.3034
▁���±	-13.3042
▁fec	-13.3045
tune	-13.3059
▁���	-13.3068
▁�󸶵�	-13.3068
tt	-13.3081
▁���𿡵���	-13.3081
▁sim	-13.3098
񽺷�	-13.3105
�÷���	-13.3109
▁���󸶰�	-13.3116
kin	-13.312
dule	-13.3128
ression	-13.3159
ٲيٴ	-13.3164
▁raid	-13.3168
ee	-13.3168
tox	-13.317
lash	-13.3179
men	-13.3196
īŸ	-13.3202
▁�˿	-13.3217
▁�׻�������	-13.3277
istic	-13.3281
▁���˵�	-13.3287
we	-13.329
�3⁄4���	-13.3303
md	-13.3307
lation	-13.3334
���	-13.3335
▁�߽����	-13.3336
̷ε	-13.3348
▁���޿	-13.3353
▁�󽺺���������	-13.3362
▁coll	-13.3362
񽺿�	-13.3369
ize	-13.3369
▁bl	-13.3373
�÷��̸�	-13.338
�̸���	-13.3382
�����鿡��	-13.3386
amen	-13.3388
▁lea	-13.3396
▁danc	-13.3398
▁er	-13.3406
̹	-13.3407
▁��1⁄2	-13.3428
uit	-13.3429
ther	-13.3431
��	-13.3444
▁uc	-13.3474
ha	-13.3484
sm	-13.3489
���׿���	-13.3503
ada	-13.3505
air	-13.3526
and	-13.3532
as	-13.3539
▁rod	-13.354
▁�����	-13.3556
▁underwa	-13.3562
mar	-13.3565
��̺���	-13.3574
▁passe	-13.3589
��׸���	-13.359
ose	-13.3592
▁���׻�	-13.3617
▁���޸�	-13.3619
ȣũ	-13.3624
▁pet	-13.3629
▁ya	-13.363
����¿�	-13.3647
aire	-13.3677
▁oh	-13.3685
▁gar	-13.369
▁���׾	-13.37
evic	-13.3701
▁ze	-13.3701
▁ala	-13.3708
�̹���	-13.3711
▁�򰡿���	-13.3717
over	-13.372
▁parliament	-13.3721
▁���ʺ�	-13.3738
�	-13.3749
up	-13.3752
▁rap	-13.3767
▁�˵	-13.3769
▁���߼�����	-13.378
Ʈȣ	-13.3793
shine	-13.3801
▁�����򰡴	-13.3802
mer	-13.3804
▁���3⁄4���	-13.3805
▁�𽺴�	-13.3805
ʹ	-13.3812
ities	-13.3813
▁���˵	-13.382
▁sn	-13.3825
▁ve	-13.3827
world	-13.3828
▁eat	-13.3835
▁���𰡵	-13.3835
˻�����	-13.3838
▁mad	-13.3842
rican	-13.3847
caa	-13.3855
▁÷���	-13.3858
▁dia	-13.3858
gue	-13.3861
▁�׷��̻	-13.3861
����࿡	-13.3863
bow	-13.3863
▁gene	-13.3868
±�	-13.3872
▁���̱���	-13.3872
illion	-13.3872
▁sam	-13.3872
rum	-13.3881
߿��	-13.3884
˸�	-13.3884
range	-13.3886
▁�������	-13.389
fore	-13.3909
▁����	-13.3921
uni	-13.3923
▁ear	-13.3926
▁���⿡�	-13.3929
ds	-13.3931
▁���͹	-13.3933
tech	-13.3949
▁���	-13.3963
▁niger	-13.397
▁mor	-13.3971
▁att	-13.3974
ute	-13.3988
▁�๰�	-13.4003
▁nam	-13.4009
����̵�	-13.401
mission	-13.403
yd	-13.4037
׼	-13.4038
lbar	-13.4041
�߽�	-13.4041
fta	-13.4042
ting	-13.4042
cation	-13.4044
ties	-13.4048
▁condition	-13.4054
uck	-13.4057
the	-13.4058
itar	-13.4067
rupt	-13.4077
ʽ���	-13.4082
▁account	-13.4082
▁Ÿī	-13.4086
▁�𰡵𽴿�	-13.4089
▁govern	-13.4091
migrant	-13.4093
owa	-13.4093
▁success	-13.4094
▁bargain	-13.4095
▁budget	-13.4095
▁collapse	-13.4095
▁current	-13.4095
▁evidence	-13.4095
▁explosive	-13.4095
▁focus	-13.4095
▁hospital	-13.4095
▁jeopardy	-13.4095
▁kennedy	-13.4095
▁olympic	-13.4095
▁opportunit	-13.4095
▁seattle	-13.4095
▁victim	-13.4095
▁violence	-13.4095
ن	-13.4095
▁angry	-13.4095
▁francisco	-13.4095
▁judicia	-13.4095
▁remove	-13.4095
▁rwb	-13.4095
▁something	-13.4095
▁suffer	-13.4095
▁tighar	-13.4095
▁underground	-13.4095
▁debate	-13.4095
▁amendment	-13.4095
▁apologize	-13.4095
▁dmz	-13.4095
▁carolin	-13.4095
▁scheme	-13.4095
▁unwto	-13.4095
▁hrw	-13.4095
▁reform	-13.4095
▁quarter	-13.4095
▁airline	-13.4095
▁shortage	-13.4095
▁voice	-13.4095
▁defici	-13.4095
▁parties	-13.4095
▁cites	-13.4095
▁fsc	-13.4095
▁gather	-13.4095
▁large	-13.4095
▁pursu	-13.4095
▁krg	-13.4095
▁slump	-13.4095
▁view	-13.4095
▁primary	-13.4095
▁approach	-13.4095
▁cci	-13.4095
▁kfor	-13.4096
▁kpho	-13.4096
▁engage	-13.4096
▁touch	-13.4096
resort	-13.4096
▁extend	-13.4096
▁deep	-13.4096
▁scot	-13.4096
▁cbc	-13.4096
▁sweet	-13.4096
▁casa	-13.4096
▁check	-13.4096
ael	-13.4096
▁wwe	-13.4097
▁might	-13.4097
▁lift	-13.4097
▁mpc	-13.4097
▁cold	-13.4097
▁hero	-13.4097
▁text	-13.4098
▁higher	-13.4098
▁lama	-13.4098
▁sold	-13.4098
▁activist	-13.4099
▁abolish	-13.4099
▁usaid	-13.4099
▁divers	-13.41
▁every	-13.41
▁journ	-13.4102
▁conclude	-13.4103
▁ipod	-13.4104
▁computer	-13.4104
uffle	-13.4104
▁guard	-13.4104
▁���׸��̽�	-13.4104
▁resolv	-13.4105
▁link	-13.4105
▁fif	-13.4106
▁reactor	-13.4107
ress	-13.4107
▁escape	-13.4108
▁epo	-13.4109
▁bases	-13.4111
▁merc	-13.4112
▁estate	-13.4112
arian	-13.4113
▁tours	-13.4113
▁sic	-13.4115
house	-13.4115
▁treat	-13.4117
▁dsl	-13.4118
▁jobs	-13.4118
▁missiles	-13.412
san	-13.4124
▁pick	-13.4125
ians	-13.4125
▁ye	-13.4129
▁advisor	-13.4131
▁perform	-13.4131
▁contro	-13.4131
▁nfc	-13.4132
▁returns	-13.4132
lands	-13.4133
ٲ۴	-13.4134
fell	-13.4134
rating	-13.4134
▁�̴޵	-13.4135
▁soft	-13.4138
▁observ	-13.4139
▁loan	-13.4139
isle	-13.4139
▁being	-13.414
tter	-13.414
▁blacks	-13.4141
▁���1⁄2��	-13.4147
lum	-13.4151
▁�̱�������	-13.4152
▁goods	-13.4153
▁fighter	-13.4154
▁rocket	-13.4156
▁box	-13.4157
▁communications	-13.4164
▁automo	-13.4166
▁feel	-13.4169
ue	-13.4172
▁lau	-13.4172
▁full	-13.4176
▁tell	-13.4176
▁��÷�	-13.418
▁�䷹�̶�	-13.4181
▁dmb	-13.4183
���̱�	-13.4188
fi	-13.4192
▁revive	-13.42
▁aviat	-13.4201
▁glo	-13.4204
▁dec	-13.4206
ǽɵȴ	-13.4206
ater	-13.4208
▁�����	-13.4212
▁�޻��߼�����	-13.4213
▁mount	-13.4217
▁csi	-13.4219
dd	-13.4219
▁inspect	-13.4223
▁eri	-13.4229
hund	-13.423
▁bas	-13.4234
▁����	-13.4234
߿	-13.4239
ding	-13.4245
mbass	-13.4248
▁parad	-13.4255
▁cuba	-13.4256
ries	-13.4256
fa	-13.4256
ǸŵǸ	-13.4259
▁cry	-13.4265
▁gul	-13.4271
▁laws	-13.4277
▁hol	-13.4278
▁anger	-13.4278
▁shut	-13.4284
▁surge	-13.4292
▁quali	-13.4295
¦	-13.4295
��̷���	-13.4296
�޺���	-13.43
▁����	-13.4332
gger	-13.4335
▁�˱���	-13.4337
▁mission	-13.4343
▁�������	-13.4359
▁sara	-13.4362
▁�˸��׷	-13.4371
▁burn	-13.4375
▁defi	-13.4388
▁emp	-13.4395
�÷��	-13.4395
▁�̺��̿�	-13.44
▁yes	-13.4403
▁��¥�	-13.4416
▁roman	-13.4419
�̰���	-13.4433
̷Ӱ	-13.4436
eft	-13.4436
come	-13.4456
▁�𸮾�	-13.4461
��¥��	-13.4464
▁�������⿡��	-13.4477
⿴��	-13.4478
▁fish	-13.4485
�¿	-13.4485
▁doub	-13.4488
idc	-13.4491
�	-13.4496
▁pen	-13.45
	-13.4504
by	-13.4507
▁canad	-13.4514
�׼�	-13.453
1����	-13.4556
▁shel	-13.4556
󿡵�	-13.4559
rty	-13.4587
▁mb	-13.4588
▁�������	-13.4602
����̿���	-13.4602
▁kdi	-13.4603
▁�����޶󸮰�����	-13.4605
ional	-13.4609
▁̄��	-13.4612
���	-13.4613
ٹٱ	-13.4617
ʻ�	-13.4619
▁���	-13.462
▁�󸻶�	-13.4633
▁ku	-13.4651
nix	-13.4657
�1⁄2��	-13.4658
	-13.4668
ver	-13.468
try	-13.4682
˶�	-13.4682
▁ordinar	-13.4683
tude	-13.4684
▁�̾����	-13.4687
▁sol	-13.4714
󵧰�	-13.4725
▁pho	-13.4732
▁wal	-13.4739
�޸�����	-13.4746
▁jew	-13.4748
▁circu	-13.4753
ell	-13.4771
▁�̸鿡	-13.4774
no	-13.4794
▁prosecut	-13.4804
ould	-13.4804
𿡰	-13.4813
▁li	-13.4815
zim	-13.4824
thod	-13.4826
▁atten	-13.4829
▁�	-13.486
��󱹿�����	-13.4861
vil	-13.4863
�˿�	-13.4863
󵵳	-13.4884
nd	-13.4909
▁öå	-13.4913
ye	-13.4921
▁mus	-13.4923
��̺�	-13.4926
▁tea	-13.4928
▁�˺�	-13.4935
▁���̷����	-13.4936
��	-13.4936
▁stake	-13.4942
▁citizen	-13.4946
▁�����޴	-13.4949
ok	-13.4963
tu	-13.4971
׶��	-13.4972
bab	-13.4995
rance	-13.5
▁nis	-13.5001
ʿ	-13.5005
rrow	-13.5006
▁�ʿ�����	-13.5007
eral	-13.5011
▁hat	-13.5012
ami	-13.5041
▁hal	-13.5041
▁survive	-13.5043
▁�﷯��	-13.5049
▁produc	-13.5051
▁bil	-13.5056
▁�����ٰ	-13.5061
�޶	-13.5066
▁���׽��	-13.5068
▁���𿡼���	-13.5077
๰��	-13.5096
�͸���	-13.5107
ill	-13.5127
�̽��	-13.5133
rt	-13.5146
��ʿ�����	-13.5152
▁���	-13.5156
̽ĵ	-13.5169
▁�๰�˻�	-13.5176
▁explore	-13.5191
�޸���	-13.5198
����̵	-13.5198
▁design	-13.5201
̰	-13.5201
▁�ʼ�����	-13.5203
▁main	-13.5204
▁kh	-13.521
▁jul	-13.5214
▁site	-13.522
▁�������̰	-13.5222
▁�𰡵	-13.5228
▁fro	-13.5229
▁fri	-13.523
▁rape	-13.5238
ord	-13.5239
llege	-13.5245
▁�˼	-13.5252
õǸ	-13.5275
īũ	-13.528
̱⵵	-13.528
ĵǸ	-13.5283
ales	-13.5283
׹�	-13.529
ѾҴ	-13.5291
itter	-13.5292
▁ġŲ	-13.5297
ated	-13.53
׹��	-13.5301
▁pass	-13.5303
�1����	-13.5311
eding	-13.5317
��߾	-13.5321
▁sl	-13.5321
hre	-13.5326
▁lie	-13.5333
pe	-13.5339
▁�͹̳�	-13.5342
ag	-13.5354
▁���	-13.5362
▁���̼���	-13.5368
▁���󰡰	-13.5404
�̾	-13.541
�1⁄4�	-13.5419
ǽɹ	-13.5427
ka	-13.5428
▁sport	-13.5433
state	-13.5436
▁colle	-13.5447
last	-13.546
iz	-13.5461
rning	-13.5486
▁�͸��	-13.5492
io	-13.5493
▁kar	-13.5494
▁���ʹ���	-13.5496
▁ans	-13.5498
▁land	-13.55
▁propose	-13.5501
▁bot	-13.5523
rd	-13.5539
�߻��	-13.5561
▁closes	-13.5578
ten	-13.5578
▁yo	-13.5605
▁coo	-13.5608
▁�򰡵�	-13.5608
���𿡼�	-13.561
��	-13.5622
▁���𰡵�	-13.5627
▁nt	-13.5643
▁���̹��	-13.565
war	-13.5658
os	-13.566
�ʽ	-13.5661
	-13.5671
rus	-13.5695
own	-13.5699
sed	-13.5703
yo	-13.5714
̽	-13.5721
▁�̽����̾�	-13.5727
▁fac	-13.5732
▁mort	-13.5736
hip	-13.5743
signed	-13.575
even	-13.5761
ps	-13.5778
▁sd	-13.578
��	-13.5787
�߽	-13.5788
̳	-13.5793
rific	-13.5801
▁�鿡	-13.5803
▁approve	-13.5822
�׷�����	-13.5851
��°��	-13.5865
���̰	-13.5873
▁par	-13.5875
▁���̾����	-13.5886
�׽�	-13.589
��ʿ���	-13.5895
׻�	-13.5898
߾�	-13.5899
▁���࿡����	-13.5903
��̳�����	-13.5918
ump	-13.5921
▁�����˻	-13.5924
��߿�	-13.5942
place	-13.5948
▁�⸣�	-13.595
pal	-13.5962
let	-13.5968
▁lose	-13.5981
���׸��	-13.5996
▁ger	-13.6006
▁worse	-13.6015
▁�񼭽��	-13.6016
▁turn	-13.6033
▁afl	-13.6035
���̼�	-13.6045
sion	-13.6053
▁ni	-13.6069
lly	-13.6071
޸��	-13.6075
▁�˽���	-13.6092
▁kit	-13.6096
mala	-13.6098
1⁄4��	-13.6104
▁���޺	-13.6118
�׾�	-13.6119
sk	-13.6119
▁commit	-13.613
▁uni	-13.6136
▁equ	-13.6139
▁rom	-13.6144
▁hu	-13.6153
of	-13.6162
ani	-13.6166
ision	-13.6167
▁cha	-13.6172
eam	-13.6173
▁���޶�	-13.6176
▁small	-13.6185
ŰƼ	-13.6203
po	-13.6203
person	-13.6206
▁abus	-13.6206
ʿ�����	-13.6207
▁liber	-13.6218
niversa	-13.6222
ci	-13.6224
aud	-13.6234
ension	-13.624
▁som	-13.6244
�򿡼�	-13.6249
▁auc	-13.6252
▁ar	-13.6261
▁host	-13.6274
▁part	-13.6283
▁���˻��	-13.6286
ess	-13.6288
̼ų	-13.6294
��̱	-13.6302
friend	-13.6303
kw	-13.6304
ls	-13.6304
dog	-13.6319
▁���	-13.6322
bes	-13.6323
point	-13.6339
▁add	-13.6341
�鿡�	-13.6347
keep	-13.6349
money	-13.6352
ros	-13.636
ȩŲ	-13.6361
�򰡴�	-13.6364
▁clim	-13.6367
▁�����̾�	-13.6377
▁���޺���	-13.6386
▁ƾ	-13.6397
ative	-13.6398
hp	-13.6412
cross	-13.6428
dm	-13.6431
▁ind	-13.6438
�׼���	-13.6441
▁���̵��̾���	-13.6444
▁industri	-13.6449
mur	-13.6449
���޷���	-13.645
▁�̺����	-13.645
dam	-13.6462
ho	-13.6463
▁plea	-13.6464
field	-13.6466
▁ran	-13.6476
▁strip	-13.6478
eum	-13.6484
▁��	-13.6492
▁vir	-13.6509
▁�̺��̿���	-13.6516
▁tg	-13.6522
atch	-13.6522
op	-13.6523
yong	-13.6537
ine	-13.6539
ental	-13.6541
߽	-13.6546
▁ama	-13.6552
nds	-13.6556
▁aut	-13.6557
ify	-13.6569
▁cer	-13.6573
▁executive	-13.6579
▁reduction	-13.6579
▁inmate	-13.658
▁spring	-13.6581
▁step	-13.6581
▁continue	-13.6581
▁electronic	-13.6582
▁join	-13.6583
▁restrict	-13.6586
▁republic	-13.6586
▁pos	-13.6588
Ẹ	-13.6589
▁�–��	-13.6589
م	-13.6593
rtl	-13.6593
▁independen	-13.6595
▁kph	-13.6595
▁robbery	-13.6595
ncrea	-13.6595
▁abandon	-13.6595
▁acknowledge	-13.6595
▁affect	-13.6595
▁afghan	-13.6595
▁agricultur	-13.6595
▁authorization	-13.6595
▁bishops	-13.6595
▁catholic	-13.6595
▁chronicle	-13.6595
▁conduct	-13.6595
▁convict	-13.6595
▁dataplay	-13.6595
▁falluja	-13.6595
▁gecf	-13.6595
▁hydro	-13.6595
▁iaaf	-13.6595
▁mirror	-13.6595
▁nypd	-13.6595
▁prospect	-13.6595
▁quadruple	-13.6595
▁reaffirm	-13.6595
▁regret	-13.6595
▁satellite	-13.6595
▁softbank	-13.6595
▁strengthen	-13.6595
▁suspicion	-13.6595
▁vwp	-13.6595
▁zarqawi	-13.6595
▁ceasefire	-13.6595
▁crowd	-13.6595
▁custody	-13.6595
▁cwff	-13.6595
▁effect	-13.6595
▁fundamental	-13.6595
▁kospi	-13.6595
▁obtain	-13.6595
▁odyssey	-13.6595
▁patrol	-13.6595
▁previous	-13.6595
▁suggest	-13.6595
▁tsunami	-13.6595
venue	-13.6595
▁balance	-13.6595
▁championship	-13.6595
▁complete	-13.6595
▁crackdown	-13.6595
▁dispatch	-13.6595
▁ibex	-13.6595
▁private	-13.6595
▁wtm	-13.6595
▁corruption	-13.6595
▁cruise	-13.6595
▁enron	-13.6595
▁extra	-13.6595
▁remark	-13.6595
▁which	-13.6595
▁�󸶵𿡼�	-13.6595
harto	-13.6595
▁bullet	-13.6595
▁ocean	-13.6595
▁atlant	-13.6595
▁efp	-13.6595
▁engineer	-13.6595
▁massacre	-13.6595
▁criticize	-13.6595
▁percent	-13.6595
▁somebody	-13.6595
▁ufj	-13.6595
▁jihad	-13.6595
▁accident	-13.6595
▁hugh	-13.6595
▁seiz	-13.6595
▁hgh	-13.6595
▁shift	-13.6595
▁cfo	-13.6595
▁difc	-13.6595
▁rebel	-13.6595
▁jtac	-13.6595
▁abduction	-13.6595
▁device	-13.6595
▁icc	-13.6595
▁ibama	-13.6595
▁newborn	-13.6595
▁eccc	-13.6595
▁nyc	-13.6595
▁macho	-13.6595
▁sharp	-13.6595
▁cloud	-13.6595
▁steel	-13.6595
▁img	-13.6595
▁getting	-13.6595
▁ybm	-13.6595
▁stresse	-13.6595
▁gov	-13.6595
▁ndc	-13.6595
▁alleged	-13.6595
▁hub	-13.6595
▁beaut	-13.6596
search	-13.6596
▁oas	-13.6596
▁forever	-13.6596
▁monte	-13.6596
▁summer	-13.6596
oprah	-13.6596
▁jailed	-13.6596
▁pack	-13.6596
▁slow	-13.6596
▁pdp	-13.6596
▁carry	-13.6596
▁nso	-13.6596
▁along	-13.6596
▁drink	-13.6596
▁alive	-13.6596
▁representative	-13.6596
▁���̳ʽ�	-13.6596
▁kath	-13.6597
▁tnt	-13.6597
▁neg	-13.6597
▁competiti	-13.6597
▁moment	-13.6597
ought	-13.6597
▁vessels	-13.6597
▁county	-13.6597
▁ambitions	-13.6597
▁soon	-13.6597
▁tonight	-13.6598
▁conflict	-13.6598
▁suspect	-13.6598
▁sff	-13.6598
ution	-13.6598
▁esa	-13.6598
▁wls	-13.6598
▁accusation	-13.6598
▁soul	-13.6598
▁bear	-13.6599
▁todd	-13.6599
▁defendant	-13.6599
▁bull	-13.6599
▁mines	-13.6599
▁nll	-13.6599
▁uta	-13.6599
▁prope	-13.6599
▁letter	-13.6599
▁reserv	-13.66
▁fto	-13.66
▁iu	-13.66
▁itv	-13.66
▁commando	-13.6601
iness	-13.6601
▁wolf	-13.6601
▁hearing	-13.6601
▁customer	-13.6601
ȯī	-13.6602
▁cbo	-13.6602
▁sentence	-13.6603
▁��̺���	-13.6604
▁aol	-13.6604
▁owner	-13.6604
▁kgl	-13.6604
▁airport	-13.6605
▁lawyer	-13.6605
▁winds	-13.6606
▁band	-13.6606
▁associates	-13.6607
▁libya	-13.6607
▁defend	-13.6607
▁sbs	-13.6607
▁jt	-13.6608
▁unc	-13.6608
▁steps	-13.6609
▁springs	-13.6609
▁vat	-13.6609
▁�˷��׸��	-13.6611
▁�˹��˻�	-13.6612
▁kenyan	-13.6615
adb	-13.6617
▁discover	-13.6617
▁plead	-13.662
����̻�	-13.662
▁yb	-13.6621
▁whole	-13.6621
▁minne	-13.6622
▁drive	-13.6623
▁nomination	-13.6626
▁bribe	-13.6627
▁identifi	-13.6627
▁fan	-13.6628
▁unite	-13.6631
▁prostitut	-13.6633
partment	-13.6636
ppr	-13.6636
▁problems	-13.6636
▁contemp	-13.6637
anda	-13.6637
▁trop	-13.6638
͹	-13.6638
▁reporter	-13.6639
▁moon	-13.6639
pper	-13.6639
▁iara	-13.664
▁td	-13.664
▁factor	-13.6642
▁birth	-13.6642
̺꽺	-13.6643
▁rai	-13.6648
▁director	-13.6649
▁prepare	-13.6652
▁powers	-13.6652
▁concer	-13.6655
helm	-13.6656
abul	-13.6656
▁cio	-13.6659
▁bmi	-13.666
xic	-13.666
vice	-13.6667
��	-13.6673
ince	-13.6676
▁para	-13.6679
▁tries	-13.6682
▁za	-13.6683
ring	-13.6684
▁stars	-13.6688
▁forward	-13.6696
▁flee	-13.6697
van	-13.67
▁philli	-13.6702
▁proces	-13.6702
▁severe	-13.6706
▁�̰����	-13.6708
�1⁄2	-13.671
▁���׺	-13.6713
▁danger	-13.6713
�̴��̺�	-13.6721
▁bb	-13.6721
▁clinic	-13.6721
kept	-13.6726
▁�޾��	-13.6727
nda	-13.6736
▁arabia	-13.6738
▁impose	-13.6739
▁yt	-13.674
▁fear	-13.674
▁sf	-13.6742
▁hair	-13.6743
▁yong	-13.6744
▁retail	-13.6744
�޽���	-13.6748
dge	-13.6753
▁rc	-13.6755
▁solid	-13.6755
▁egypt	-13.6763
ot	-13.6766
▁�÷��̷�	-13.6767
▁�����̳ʿ�	-13.677
▁str	-13.6777
esco	-13.6782
▁�̹߻	-13.6782
▁lock	-13.6783
̾�����	-13.6788
▁allow	-13.6795
tions	-13.6795
▁depress	-13.6803
▁identi	-13.6804
ise	-13.6808
▁establish	-13.681
▁́ڶ	-13.6813
look	-13.6814
▁ra	-13.6816
ella	-13.6816
▁magi	-13.6822
����⵵	-13.6825
role	-13.6826
eer	-13.6829
pfa	-13.6829
▁jack	-13.6832
ulation	-13.6844
▁wide	-13.6846
mbl	-13.6848
▁wear	-13.6852
▁cause	-13.6854
▁registr	-13.6862
▁�˶	-13.6863
enger	-13.6868
tomo	-13.6869
act	-13.6878
▁sm	-13.6878
era	-13.688
di	-13.6884
ŰŸ	-13.6886
very	-13.6887
˶	-13.6887
▁�󿵵�	-13.6887
▁soc	-13.6896
��޾	-13.6897
worth	-13.6897
ions	-13.69
▁fly	-13.6915
▁�����	-13.6917
▁dh	-13.6918
▁plant	-13.6918
▁plum	-13.6918
sony	-13.6919
▁antiqu	-13.6922
▁own	-13.6923
ba	-13.6928
prise	-13.6932
▁tact	-13.6935
▁encourage	-13.6938
▁mall	-13.6945
dale	-13.6962
▁�׸����׿�	-13.6966
▁���̵�����	-13.6975
▁dr	-13.6979
uz	-13.6987
���̻���	-13.699
▁sub	-13.6991
▁cal	-13.7001
▁gree	-13.7009
▁astron	-13.7011
▁��÷	-13.7027
troi	-13.7032
aw	-13.7033
1⁄2	-13.704
▁sche	-13.7059
▁���䷹	-13.7061
޶��	-13.7061
▁mur	-13.7062
hi	-13.7066
ur	-13.7067
rage	-13.7078
▁area	-13.7082
que	-13.7085
▁parliamentar	-13.7096
fest	-13.7097
▁�䷯	-13.7098
̰͵	-13.7098
óġ	-13.7106
ut	-13.7108
▁tas	-13.7111
▁tear	-13.7118
߾��	-13.712
▁�׸����	-13.7121
▁�⸶����	-13.7126
·÷	-13.7134
▁mark	-13.7138
▁����¢�	-13.7142
▁gi	-13.7151
▁���	-13.7161
▁twit	-13.7175
▁introduce	-13.7176
�⿬��	-13.7178
nivers	-13.7182
▁exce	-13.7184
witz	-13.7193
�ʿ��	-13.7194
wine	-13.7195
▁ûȥ	-13.7201
resh	-13.7208
▁liberal	-13.7239
ican	-13.7244
umb	-13.7249
׵	-13.7255
tro	-13.7256
▁garde	-13.7268
ƺô	-13.7274
▁�޳�	-13.7285
ans	-13.7291
ency	-13.7294
▁bin	-13.7296
ide	-13.7301
▁�޺��	-13.7307
een	-13.7314
wake	-13.7323
1	-13.7324
▁�⸸�	-13.734
▁�޳	-13.734
ʾ�	-13.7344
▁�����޸�	-13.7345
����׷	-13.7351
�;���	-13.7352
�÷��̾�	-13.7357
▁seri	-13.7362
▁gaz	-13.7373
pa	-13.7375
ony	-13.7392
iwan	-13.7399
▁�ʾ��	-13.7399
▁�⵶	-13.7402
▁ja	-13.7403
▁quit	-13.7407
�޸𸮾�	-13.7412
scop	-13.7413
ix	-13.7414
޹���	-13.7414
mne	-13.7428
▁approv	-13.7433
stant	-13.7433
▁IJ	-13.7434
▁activit	-13.744
ient	-13.7445
ement	-13.7457
▁�̼�������	-13.7464
▁���鿴��	-13.7464
▁wood	-13.7466
▁sink	-13.7471
▁�����͹��	-13.7472
׿	-13.7477
ippi	-13.7487
▁�1������	-13.7491
▁�–�	-13.7494
߼�����	-13.7499
▁�����÷	-13.7503
all	-13.7511
��̶	-13.7524
̼	-13.7538
les	-13.7542
鿴����	-13.7545
tall	-13.7549
▁read	-13.755
at	-13.7554
ash	-13.7558
▁try	-13.7559
▁stor	-13.7561
iff	-13.7566
▁fit	-13.7568
og	-13.7577
ience	-13.7579
▁ei	-13.7581
oll	-13.76
▁reache	-13.7601
operation	-13.7602
ϼ̴	-13.763
▁appoint	-13.7631
���̾�����	-13.7632
▁�׷��̺�	-13.7636
▁bh	-13.7637
▁miss	-13.7646
ʻ���	-13.7652
▁cor	-13.7665
rida	-13.7665
ating	-13.7669
ke	-13.7682
▁downsi	-13.7682
▁gun	-13.7684
ung	-13.7685
oo	-13.7698
▁ft	-13.7715
▁ys	-13.7741
cm	-13.7746
▁endur	-13.775
▁yu	-13.7753
eaker	-13.7761
▁hunt	-13.7772
▁�����̻���	-13.7773
▁terri	-13.7778
▁�������̾	-13.7779
▁import	-13.7785
▁mart	-13.7788
king	-13.779
▁sv	-13.7793
▁trib	-13.7802
▁���޴���	-13.7808
ton	-13.7811
õDZ	-13.782
▁propos	-13.7821
▁file	-13.7854
�����鿡	-13.7866
▁�����׶��	-13.7876
��	-13.7885
▁aero	-13.7895
imes	-13.7895
▁�޽����	-13.7905
▁daw	-13.7906
▁sent	-13.7914
���°	-13.7918
▁�����	-13.792
▁���⿭�	-13.7931
޼���	-13.7938
ri	-13.7948
▁gate	-13.7953
▁map	-13.796
▁�����;�	-13.7964
cer	-13.7982
▁�׷����鿡	-13.7984
▁�߻����	-13.7986
▁¥�	-13.7988
▁�޻��	-13.7989
▁suppl	-13.7994
�����̿�	-13.7999
▁conf	-13.8008
▁members	-13.8014
vid	-13.8029
▁han	-13.803
▁alta	-13.8042
▁stu	-13.8043
cal	-13.8045
▁papa	-13.806
	-13.8067
▁�ʾ����	-13.8081
▁sav	-13.8082
1�������	-13.8084
pass	-13.8091
si	-13.8097
▁kare	-13.8114
▁vot	-13.8116
bel	-13.8124
̼�����	-13.8129
÷���	-13.8129
�����⿡	-13.814
▁dra	-13.8147
▁�߾����	-13.8148
͹���	-13.8157
▁���⸶��	-13.8166
▁violat	-13.8171
hran	-13.8173
��߽�	-13.818
�°�����	-13.8181
▁colon	-13.8186
�̱⿡	-13.8225
▁jem	-13.8231
▁�𸮽���	-13.8233
���׿�	-13.8239
bi	-13.825
▁harm	-13.8253
▁sha	-13.827
°�����	-13.8289
▁�̺�������	-13.8298
▁goal	-13.8311
▁jam	-13.8314
▁son	-13.832
▁�׶��̺	-13.8356
ano	-13.8358
���˿�	-13.836
▁�˾�����	-13.8362
�	-13.8368
�̺��̿�	-13.837
▁mile	-13.8382
one	-13.8396
˿�	-13.8408
▁whal	-13.8414
▁�˿��	-13.8417
��󿡼���	-13.8419
▁cooperati	-13.8421
sick	-13.8426
▁spi	-13.8427
▁wif	-13.843
etic	-13.843
▁ds	-13.8431
▁surviv	-13.8431
eda	-13.844
▁homes	-13.8446
ǵȴ	-13.8448
▁corn	-13.8449
▁�����߻	-13.8487
nos	-13.8492
▁bee	-13.8494
▁īǪ	-13.8504
▁���˼���	-13.8526
til	-13.8532
▁���̵����	-13.8534
▁spar	-13.8565
ith	-13.8567
ǵǸ	-13.8577
▁���׷���	-13.8583
▁gr	-13.8596
ni	-13.8606
▁shi	-13.8613
▁���䷹�	-13.8618
▁ele	-13.8629
▁ax	-13.863
oj	-13.8631
▁�����߿�	-13.8631
eld	-13.8632
▁��°�	-13.8633
▁speci	-13.8635
▁���1�	-13.8637
ǥġ	-13.8642
▁idea	-13.865
asy	-13.8654
▁fts	-13.8656
�£��	-13.8657
�	-13.8671
��˴	-13.8674
bs	-13.8678
wa	-13.868
▁ǻ	-13.8689
õȣ	-13.87
▁spe	-13.8703
��	-13.871
▁dismantl	-13.8726
���	-13.8727
3���	-13.8729
▁�����׶���	-13.8731
▁�⸧����	-13.8744
▁bod	-13.8751
▁missi	-13.8752
▁isd	-13.8782
lai	-13.88
mo	-13.8801
▁�⻵��	-13.8802
ory	-13.8804
▁���޷��	-13.8806
▁administrat	-13.8812
▁sab	-13.8817
üȭ	-13.882
▁xm	-13.8821
�⸶��	-13.8824
▁fra	-13.8843
�⸸	-13.8845
eling	-13.8856
▁�̸��̾��	-13.8863
▁tempo	-13.8872
▁qa	-13.8874
▁ce	-13.8876
▁�÷����	-13.8883
olve	-13.8889
�߻	-13.89
▁���޼��	-13.8902
tional	-13.8903
▁robe	-13.8908
▁���1⁄2���	-13.8915
▁hy	-13.8922
±���	-13.8923
▁plann	-13.8923
thy	-13.8934
tmo	-13.8939
iller	-13.8948
��׸�	-13.895
▁gol	-13.8958
▁bn	-13.8967
▁���;	-13.8976
▁bu	-13.8984
eith	-13.8995
��๰	-13.9007
rine	-13.9015
nas	-13.9043
▁���	-13.9044
▁too	-13.9047
⸶��	-13.9051
fic	-13.9053
tors	-13.9061
inconven	-13.9062
steve	-13.9067
���˻	-13.9077
���3�	-13.9087
rol	-13.9091
audi	-13.9096
��߼����	-13.9099
ates	-13.912
޿���	-13.9121
▁sole	-13.9135
▁comp	-13.9154
ker	-13.9167
▁���˿���	-13.9194
▁pg	-13.9196
▁employ	-13.9202
▁ri	-13.9206
׺��	-13.9214
̿�����	-13.922
▁pou	-13.9226
▁�����鿴�	-13.9227
߿�����	-13.9234
ju	-13.9236
ath	-13.9238
�¶���	-13.9242
ual	-13.9256
lies	-13.9262
׹���	-13.9263
▁wins	-13.9268
ara	-13.9283
▁�޶��̶󸶿	-13.9285
uch	-13.929
via	-13.9301
com	-13.9304
▁jan	-13.9311
˵���	-13.9317
map	-13.9322
˵�	-13.933
hae	-13.9332
▁sca	-13.9337
ax	-13.9346
▁sec	-13.9346
▁neo	-13.9347
derman	-13.9352
���¿���	-13.9362
▁ed	-13.9363
▁fu	-13.9369
▁span	-13.9378
▁dan	-13.9383
󽺿͹	-13.9383
▁trad	-13.9403
▁unit	-13.9404
��˷�	-13.9405
chon	-13.9413
sive	-13.9424
������	-13.9434
▁rd	-13.9435
▁abu	-13.9435
▁soci	-13.9436
▁�⹰	-13.944
va	-13.9448
aki	-13.9452
Ÿġ	-13.9463
1�	-13.947
��ʽ���	-13.9497
pc	-13.9501
▁�������÷	-13.9507
▁inte	-13.9508
▁�������̼�	-13.9527
tent	-13.953
▁cre	-13.9536
teen	-13.9537
����̸	-13.954
elle	-13.9553
▁sue	-13.9567
▁accus	-13.9583
pray	-13.9595
▁waters	-13.9595
▁highe	-13.9597
▁paper	-13.9605
hol	-13.9608
�̵��	-13.9618
▁libera	-13.9623
��̶��	-13.9628
̺	-13.9642
▁���޼���	-13.9644
▁bae	-13.9653
bridge	-13.9661
roy	-13.9661
other	-13.9661
night	-13.9668
wide	-13.9669
�̾����	-13.9674
ald	-13.9676
watch	-13.9679
▁ultimat	-13.9683
kong	-13.9684
work	-13.9684
▁�̽��󿤱	-13.9684
care	-13.9686
rome	-13.9687
▁shin	-13.969
anta	-13.969
▁���ʺ���	-13.9698
ebra	-13.9698
▁gran	-13.9701
broken	-13.9706
ges	-13.9711
▁nec	-13.9721
rm	-13.9723
���̽��	-13.973
sche	-13.9732
▁arab	-13.9733
mount	-13.9738
ky	-13.9739
mond	-13.9743
ran	-13.9761
▁fort	-13.9775
▁�������̿�	-13.9785
▁�÷��̿�	-13.9791
ʿ��	-13.9793
▁�»��	-13.9794
ame	-13.9795
▁�������̷�	-13.9797
▁pac	-13.9797
user	-13.9798
ƼƮ	-13.9806
▁command	-13.9812
▁�����׷�	-13.9817
▁����	-13.9817
▁drop	-13.9823
trial	-13.9824
▁apolog	-13.9837
▁�˺���	-13.985
̱��	-13.9856
▁toe	-13.9857
ali	-13.9872
jn	-13.9872
▁loc	-13.9873
▁camp	-13.9874
▁nev	-13.9884
▁inn	-13.9886
▁ur	-13.9888
▁�������	-13.9888
bse	-13.9889
▁see	-13.9893
▁fact	-13.9902
▁rel	-13.9903
maker	-13.9903
erate	-13.9903
▁sanction	-13.9916
▁ȱ	-13.9916
havi	-13.9918
hab	-13.9919
▁differen	-13.992
▁woo	-13.992
�׵	-13.992
▁coup	-13.9921
▁rep	-13.9922
▁prop	-13.9924
▁wind	-13.9926
▁continu	-13.9927
▁decide	-13.9927
utto	-13.9928
ridge	-13.9928
ج	-13.9928
▁anonym	-13.9928
▁pilgrim	-13.9928
▁themselves	-13.9928
cadill	-13.9928
·�̼�	-13.9928
▁aaib	-13.9928
▁abroad	-13.9928
▁adopt	-13.9928
▁analyst	-13.9928
▁assassinat	-13.9928
▁bernanke	-13.9928
▁brigade	-13.9928
▁cabinet	-13.9928
▁cambodia	-13.9928
▁dakota	-13.9928
▁december	-13.9928
▁deterren	-13.9928
▁dfff	-13.9928
▁difficult	-13.9928
▁govsec	-13.9928
▁headquarter	-13.9928
▁iapv	-13.9928
▁islets	-13.9928
▁lancet	-13.9928
▁mahmudiya	-13.9928
▁manchester	-13.9928
▁naupa	-13.9928
▁ndrc	-13.9928
▁nominee	-13.9928
▁octo	-13.9928
▁oqo	-13.9928
▁overturn	-13.9928
▁patient	-13.9928
▁physic	-13.9928
▁policies	-13.9928
▁profess	-13.9928
▁provider	-13.9928
▁purchase	-13.9928
▁quikscat	-13.9928
▁rampage	-13.9928
▁redeploy	-13.9928
▁remittance	-13.9928
▁seiu	-13.9928
▁silver	-13.9928
▁sovereign	-13.9928
▁sturmgeist	-13.9928
▁suburb	-13.9928
جمى	-13.9928
▁assault	-13.9928
▁encounter	-13.9928
▁endorse	-13.9928
▁eurostat	-13.9928
▁explosion	-13.9928
▁ipsos	-13.9928
▁lifg	-13.9928
▁pregnanc	-13.9928
▁prohibiti	-13.9928
▁prudent	-13.9928
▁tepozt	-13.9928
▁unhce	-13.9928
▁zdf	-13.9928
▁cnrt	-13.9928
▁crunch	-13.9928
▁demonstrat	-13.9928
▁describe	-13.9928
▁icmp	-13.9928
▁meteorologi	-13.9928
▁satisf	-13.9928
▁trouble	-13.9928
▁enterprise	-13.9928
▁entertain	-13.9928
▁fertil	-13.9928
▁icbm	-13.9928
▁pyeong	-13.9928
▁reduce	-13.9928
▁currency	-13.9928
▁devastati	-13.9928
▁freak	-13.9928
▁plunge	-13.9928
▁receive	-13.9928
▁reopen	-13.9928
▁resistan	-13.9928
▁syria	-13.9928
▁staff	-13.9928
▁desp	-13.9928
▁advoca	-13.9928
▁infantry	-13.9928
▁partners	-13.9928
▁amazon	-13.9928
▁debut	-13.9928
▁favo	-13.9928
▁ptwc	-13.9928
▁think	-13.9928
▁cftc	-13.9928
▁cedar	-13.9928
▁resolution	-13.9928
▁ditch	-13.9928
▁debt	-13.9928
▁gfk	-13.9928
▁moab	-13.9928
▁bfm	-13.9928
▁lotus	-13.9928
▁melan	-13.9928
▁institution	-13.9928
▁rival	-13.9928
▁carrie	-13.9928
▁riaa	-13.9928
uence	-13.9928
▁executed	-13.9928
▁blog	-13.9928
▁independence	-13.9928
▁hilar	-13.9929
▁infra	-13.9929
��󸮿¿���	-13.9929
▁veter	-13.9929
▁asem	-13.9929
▁sister	-13.9929
▁wheel	-13.9929
▁already	-13.9929
▁chpa	-13.9929
▁involv	-13.9929
▁draft	-13.9929
▁koda	-13.9929
▁finger	-13.9929
▁pull	-13.9929
▁chun	-13.9929
▁broke	-13.9929
▁pnc	-13.9929
▁stumbl	-13.9929
▁fisher	-13.9929
▁nsf	-13.9929
▁alco	-13.9929
ertain	-13.9929
▁psv	-13.9929
▁stole	-13.9929
▁wcbs	-13.9929
▁incb	-13.9929
▁dpp	-13.9929
▁mention	-13.9929
▁broadcasting	-13.9929
▁recalled	-13.9929
▁cnbc	-13.9929
▁drc	-13.9929
essential	-13.9929
▁lbc	-13.9929
honest	-13.9929
▁anxi	-13.9929
▁detainee	-13.9929
▁longer	-13.993
▁generation	-13.993
▁warner	-13.993
▁gsk	-13.993
▁wmap	-13.993
gage	-13.993
▁tension	-13.993
▁ppa	-13.993
▁explode	-13.993
▁ceremony	-13.993
▁coni	-13.993
▁data	-13.9931
sphere	-13.9931
▁environmental	-13.9931
▁jail	-13.9931
▁hous	-13.9931
▁heu	-13.9931
▁hpa	-13.9931
▁unsc	-13.9931
▁guide	-13.9931
▁psi	-13.9931
▁vacan	-13.9931
▁knowing	-13.9931
▁application	-13.9931
▁wrongdoings	-13.9931
▁notice	-13.9932
▁imd	-13.9932
he	-13.9932
▁pda	-13.9932
▁wbo	-13.9932
▁blair	-13.9932
resent	-13.9932
▁coach	-13.9932
▁sailor	-13.9932
▁unveiled	-13.9933
▁bna	-13.9933
▁spying	-13.9933
▁lot	-13.9933
▁preparation	-13.9933
▁resigned	-13.9933
▁trt	-13.9933
▁�̰͸���	-13.9934
׹̿����	-13.9934
▁treaty	-13.9934
▁patric	-13.9935
▁admit	-13.9935
▁basic	-13.9935
▁snp	-13.9935
▁sell	-13.9935
dhc	-13.9935
▁cox	-13.9936
▁scene	-13.9936
flag	-13.9937
▁metal	-13.9937
▁teach	-13.9937
▁rings	-13.9937
▁couple	-13.9937
▁scientists	-13.9937
▁mca	-13.9937
oval	-13.9937
▁died	-13.9939
▁mom	-13.9939
▁sud	-13.9939
▁doctor	-13.994
▁andro	-13.9942
▁song	-13.9942
▁present	-13.9942
▁jump	-13.9942
▁ranking	-13.9943
acute	-13.9943
▁gru	-13.9943
▁barbar	-13.9943
▁expectation	-13.9945
phant	-13.9945
▁vega	-13.9948
▁nominations	-13.9948
▁mre	-13.9949
▁continues	-13.9949
▁mercur	-13.9949
▁pic	-13.9951
▁slam	-13.9951
▁manufacturer	-13.9951
regular	-13.9952
▁seed	-13.9952
corporat	-13.9954
▁���ʹ��׿�	-13.9955
▁itune	-13.9958
▁sms	-13.9958
ustr	-13.9959
▁bul	-13.9959
▁fig	-13.9959
rak	-13.9961
▁duch	-13.9961
▁grace	-13.9962
▁arrow	-13.9963
▁vow	-13.9963
�޷鿡��	-13.9963
laws	-13.9964
▁salva	-13.9965
▁months	-13.9966
sition	-13.9966
▁mary	-13.9966
▁tortur	-13.9967
du	-13.9967
▁cps	-13.9968
melt	-13.9969
▁grenad	-13.997
▁spot	-13.9971
visa	-13.9972
▁palestinians	-13.9972
hens	-13.9972
▁statement	-13.9973
▁extrem	-13.9975
▁pr	-13.9982
▁count	-13.9983
▁brad	-13.9985
pay	-13.9986
▁rose	-13.9986
imple	-13.9987
▁protein	-13.9988
▁course	-13.9988
▁stocks	-13.9989
▁opposite	-13.9989
▁ste	-13.9991
▁tlc	-13.9992
▁info	-13.9993
▁license	-13.9993
▁struck	-13.9993
▁stick	-13.9994
▁web	-13.9994
▁sce	-13.9995
▁acp	-13.9996
iron	-13.9996
▁mars	-13.9998
structur	-13.9999
▁dest	-13.9999
▁cultur	-14
do	-14.0002
▁eco	-14.0002
▁aek	-14.0002
▁euro	-14.0003
▁afa	-14.0004
▁ana	-14.0006
sey	-14.0009
▁complaint	-14.001
▁guy	-14.0015
▁investor	-14.0017
▁connect	-14.0022
hua	-14.0023
ȣū	-14.0025
▁wiki	-14.0027
sv	-14.0027
▁iba	-14.0028
cape	-14.0029
▁denounce	-14.003
▁scale	-14.0035
▁systems	-14.0035
▁celebrate	-14.0036
gers	-14.0038
dis	-14.0038
hamp	-14.0039
��	-14.004
▁color	-14.004
reck	-14.004
▁schools	-14.0041
urs	-14.0041
holi	-14.0043
�ٰ	-14.0045
▁kos	-14.0046
▁dip	-14.0049
▁dv	-14.005
cs	-14.0052
such	-14.0053
▁sth	-14.0054
��̿	-14.0054
hess	-14.0054
▁campus	-14.0055
▁sb	-14.0055
▁theatre	-14.0056
��󿡰	-14.0067
▁tvn	-14.0068
usia	-14.0078
finer	-14.0079
▁abuse	-14.0081
▁�󽺺��	-14.0086
▁aea	-14.0091
▁�÷��׿�	-14.0095
�;�	-14.0095
▁ram	-14.0097
▁block	-14.0097
▁tower	-14.0105
▁dogs	-14.011
޳���	-14.012
tma	-14.0127
under	-14.0128
▁silen	-14.0129
▁petrole	-14.0129
ability	-14.0139
▁���̵��߿�	-14.0139
▁mot	-14.0146
▁���̿1⁄2�	-14.0146
eigh	-14.0148
pus	-14.0149
▁mw	-14.0152
̼ǽ	-14.0153
som	-14.0155
▁broken	-14.0156
��̱⿡	-14.0162
▁�˸��̴�	-14.0165
▁natural	-14.0168
▁embr	-14.0178
�̼�����	-14.0178
����	-14.0179
uge	-14.0182
▁ug	-14.0183
▁reco	-14.0191
table	-14.0194
▁�޳�����	-14.0195
��߼��	-14.0195
▁bridge	-14.0204
pmt	-14.0205
▁cr	-14.0206
▁�������̵���	-14.021
valen	-14.021
ptop	-14.0212
▁bomber	-14.0214
berg	-14.0214
▁�����⿴��	-14.0215
▁tu	-14.0221
▁hall	-14.0222
vin	-14.0233
▁hang	-14.0237
▁rein	-14.0239
enni	-14.0244
mend	-14.0245
cip	-14.0255
sen	-14.0258
��̳��	-14.0259
▁depend	-14.027
bron	-14.0286
▁gla	-14.0289
▁mem	-14.0295
ڰݽ	-14.0317
▁millionai	-14.032
orn	-14.0321
ʽ	-14.0322
called	-14.0325
▁spur	-14.0329
▁�����̻�	-14.033
▁porn	-14.0338
Ʒñ	-14.0344
▁cong	-14.0347
▁charl	-14.0347
inger	-14.0364
ӾҴ	-14.0366
▁tb	-14.0367
ival	-14.0368
▁sever	-14.037
▁mis	-14.0374
ged	-14.0374
off	-14.0398
fur	-14.04
▁cook	-14.0409
pon	-14.0411
arje	-14.0413
ĵDZ	-14.0417
���̺	-14.042
▁hosti	-14.042
£	-14.0425
ecess	-14.0427
form	-14.0427
▁fine	-14.0431
▁char	-14.0436
▁penalt	-14.044
▁place	-14.044
ston	-14.0444
nick	-14.0447
▁specifi	-14.047
ank	-14.0475
▁wy	-14.0485
▁lip	-14.0496
fir	-14.05
iatric	-14.0505
corn	-14.0511
▁�̷������	-14.0514
▁hum	-14.0516
▁sta	-14.0516
pr	-14.0522
gress	-14.0523
▁�·�	-14.0524
aq	-14.0531
ographic	-14.0537
▁spider	-14.0539
ature	-14.054
▁�鿡��	-14.0541
▁legislati	-14.0543
▁�߼���������	-14.0544
empti	-14.0557
stry	-14.0569
once	-14.0578
stone	-14.0578
gen	-14.0581
����̶�	-14.0592
spira	-14.0597
▁oxf	-14.0597
ade	-14.0599
�ʼ���	-14.0599
cident	-14.0603
▁inde	-14.0605
�������	-14.0607
ja	-14.0609
ac	-14.061
▁moo	-14.0623
▁committe	-14.064
erg	-14.0657
▁ŰƲ	-14.0666
▁den	-14.0676
▁hwan	-14.0685
far	-14.0685
▁ham	-14.0689
▁les	-14.0693
▁object	-14.0693
ɹɷ	-14.0697
reate	-14.071
���̷�����	-14.0718
·�̼	-14.0718
▁rti	-14.0728
�	-14.0732
▁fle	-14.0738
��𿡼�	-14.0744
▁scar	-14.0751
hm	-14.0755
öȸ	-14.0757
ѹ̾	-14.0764
xx	-14.0767
▁ti	-14.0781
▁�������׽�	-14.0784
▁nts	-14.0785
�׸�����	-14.0787
timate	-14.0791
▁ass	-14.0792
▁���˼��	-14.0794
▁���鿩	-14.0794
�˻���	-14.0803
▁ill	-14.081
▁spec	-14.0815
ving	-14.0817
▁imp	-14.0818
hail	-14.0821
uelt	-14.0831
dda	-14.0846
▁nabi	-14.0847
hall	-14.085
orch	-14.0854
▁era	-14.0859
▁���׿�����	-14.086
▁killer	-14.0863
▁gs	-14.0865
ota	-14.0868
▁burk	-14.087
ƼƩ	-14.0871
hio	-14.0871
▁����̵	-14.0901
���̱⿡	-14.0902
ics	-14.0907
▁�޹�����	-14.0913
▁shak	-14.0923
̹���	-14.093
��󱹿���	-14.0935
▁rattle	-14.094
▁�̸����	-14.0944
�߼�	-14.0949
▁�������	-14.0952
▁regula	-14.0955
▁verb	-14.0957
▁please	-14.097
▁marc	-14.0977
▁pal	-14.0994
▁barr	-14.0999
▁�3⁄4��	-14.1003
rity	-14.1008
▁crest	-14.1013
▁confess	-14.1021
ina	-14.1022
ct	-14.1023
▁dress	-14.1025
huse	-14.1027
▁fare	-14.1034
▁�̽��׸�	-14.1036
˹���	-14.1041
win	-14.1061
׷��̾���	-14.1064
▁uf	-14.1073
shi	-14.1073
▁liver	-14.1077
ailed	-14.1096
▁�����������°�	-14.1102
▁ny	-14.1103
miss	-14.1111
rk	-14.1114
▁���	-14.1117
yle	-14.1123
�������̻�	-14.1127
▁represent	-14.1133
ette	-14.1137
▁gy	-14.1157
▁defect	-14.1167
▁�޻�������	-14.1168
bert	-14.117
��	-14.1173
▁cont	-14.1177
▁final	-14.1179
�	-14.1183
�¢��	-14.12
▁swi	-14.1206
▁chase	-14.1209
▁transp	-14.1211
ife	-14.1216
su	-14.1219
fu	-14.122
▁���¶�	-14.1221
▁���󸶿���	-14.1239
̰�����	-14.1244
▁las	-14.1251
���̻	-14.1251
▁pola	-14.1262
▁pk	-14.1266
׼���	-14.1267
lan	-14.1274
hs	-14.1283
▁fur	-14.1288
▁dismantle	-14.1293
▁����¢��	-14.1306
nant	-14.1308
equenc	-14.1309
pens	-14.1311
▁���󸶵	-14.1314
illin	-14.1316
inal	-14.1326
▁pyon	-14.1329
pelin	-14.1332
uma	-14.1335
׸�����	-14.1352
▁farm	-14.1353
▁�׷��̽���	-14.1365
nativ	-14.1374
▁mali	-14.1387
dison	-14.1389
▁cap	-14.1394
ization	-14.1396
¶���	-14.1401
ela	-14.1403
▁��÷����	-14.1421
▁tor	-14.1427
anned	-14.1432
๰	-14.1438
��񿡰	-14.1445
��󱹿�	-14.1453
▁napol	-14.1454
߻�����	-14.1459
gan	-14.146
�1⁄4��	-14.1466
�䷹	-14.1467
▁side	-14.1468
▁���3	-14.1471
▁cardio	-14.1474
town	-14.1479
▁�̳׶�	-14.1479
▁cent	-14.1482
rop	-14.1484
ozen	-14.1487
▁element	-14.1487
inner	-14.149
proach	-14.1498
poe	-14.15
▁brita	-14.1507
ree	-14.1508
mistic	-14.1525
▁bel	-14.1535
3	-14.1541
oca	-14.1554
nhe	-14.1561
̱�����	-14.1567
▁ju	-14.1571
wi	-14.1572
ram	-14.1573
yy	-14.1591
▁hung	-14.1591
led	-14.1597
��߼�	-14.1601
q	-14.1605
▁���⿡����	-14.1618
clos	-14.1632
ote	-14.1636
▁pres	-14.1639
����	-14.164
▁�������׼	-14.1641
▁rail	-14.1656
1⁄2�	-14.1658
rbon	-14.1664
uate	-14.1672
˻��	-14.1672
use	-14.1677
▁argue	-14.1686
eep	-14.1694
▁���̵��	-14.1695
▁�䷹�	-14.17
ǽô	-14.1708
als	-14.1713
anna	-14.174
tank	-14.1743
▁�·��鿡	-14.176
▁ȦŸ	-14.1761
▁�󱹿�	-14.1766
▁whale	-14.1772
�߻�����	-14.1779
▁har	-14.1779
�̾߿�	-14.1786
▁assist	-14.1789
ron	-14.1794
▁õȲ	-14.1795
�	-14.1803
rog	-14.1807
▁���׼������	-14.1809
⿴�	-14.1811
dicate	-14.1818
▁humanit	-14.1853
sing	-14.1867
▁��	-14.1873
edo	-14.1878
ei	-14.1881
etna	-14.1885
▁fee	-14.189
����߽��	-14.1895
xt	-14.1897
��󸮿��	-14.1897
erci	-14.1938
amma	-14.195
▁�˷�������	-14.1955
lace	-14.1958
��	-14.196
gni	-14.1964
tation	-14.1976
��3�	-14.1977
rack	-14.1979
�׶��	-14.1983
�	-14.1991
tar	-14.1995
liance	-14.1999
�����ʹ�	-14.2001
▁solv	-14.2012
bat	-14.2013
mine	-14.2017
▁£�	-14.2017
je	-14.2029
▁coc	-14.2036
̶��	-14.204
▁���󿡰	-14.2043
itation	-14.2044
▁app	-14.2048
▁als	-14.2051
▁employe	-14.2053
▁���������̼	-14.2069
▁chang	-14.2074
▁���̰���	-14.2079
𸮼	-14.2082
abc	-14.2092
▁transit	-14.2093
▁fran	-14.2096
▁���޼	-14.2098
ff	-14.2108
����3�	-14.2112
race	-14.2115
▁���𿡰�����	-14.212
�׸	-14.2124
▁sla	-14.213
amp	-14.2134
shing	-14.2137
rison	-14.215
right	-14.2165
mg	-14.2172
▁nab	-14.218
�๰	-14.2199
�׾���	-14.2208
▁cu	-14.2214
▁�������̶�	-14.2215
▁non	-14.2242
ʾ���	-14.2243
ings	-14.2245
▁bow	-14.2257
▁mal	-14.2263
bf	-14.2283
car	-14.2299
▁aps	-14.2312
rdon	-14.2313
▁���󸶿�	-14.2315
mus	-14.2356
�1⁄2�	-14.2366
▁whe	-14.237
▁�࿡	-14.2379
▁�����̹	-14.2389
mes	-14.2399
sts	-14.2409
▁conse	-14.2424
▁hear	-14.2427
▁choi	-14.2427
▁ktn	-14.2432
�󸶸�	-14.2447
▁���⿴�	-14.2449
▁unmi	-14.2459
▁bra	-14.2468
▁aeros	-14.2476
nc	-14.2476
ents	-14.2489
��߾�����	-14.249
ption	-14.2491
����̾	-14.2492
bia	-14.2505
ƼŸ	-14.2506
▁jane	-14.2512
long	-14.2535
bless	-14.2558
׸	-14.2586
rner	-14.2596
▁gest	-14.2608
▁author	-14.2631
▁�޼����	-14.2654
imon	-14.2655
con	-14.2665
▁�����߾����	-14.2666
▁bio	-14.2682
�ʿ	-14.2699
▁���޶��	-14.271
ae	-14.2718
▁expo	-14.2729
▁bol	-14.273
ever	-14.2735
fe	-14.274
▁��¡���	-14.2748
wan	-14.2771
▁ann	-14.2771
enti	-14.2771
ind	-14.2776
▁���޵���	-14.279
dn	-14.2791
ail	-14.2791
▁dism	-14.2795
rys	-14.28
����̵���	-14.2806
nic	-14.2815
▁�󸶳	-14.2818
tine	-14.2822
pp	-14.2823
▁lu	-14.2828
ig	-14.2828
▁pali	-14.2837
rike	-14.2841
▁arriv	-14.2845
̻	-14.2848
▁ent	-14.2849
▁�̾	-14.2867
omi	-14.2867
ٴټ	-14.287
	-14.2875
▁strategi	-14.2884
▁����	-14.2893
▁sense	-14.2895
▁appointe	-14.2908
▁mod	-14.291
��¿	-14.2914
▁harv	-14.2917
ids	-14.2922
▁�̸�������	-14.2925
▁smi	-14.2927
▁vis	-14.2929
ibal	-14.2933
▁óġ	-14.2934
mentary	-14.2957
▁bue	-14.2959
▁�����̺�	-14.296
▁reach	-14.2962
�	-14.2965
ello	-14.2985
nal	-14.2988
mi	-14.2988
lla	-14.2989
▁���׶	-14.2995
�׶�	-14.2996
▁�̳��	-14.2998
lled	-14.3007
▁posit	-14.301
uld	-14.3014
▁temp	-14.3025
sfe	-14.3035
bra	-14.3043
�׸��̾�	-14.3045
▁��̴�����	-14.3048
▁ted	-14.3054
ears	-14.3055
orm	-14.3066
hop	-14.309
ab	-14.31
ator	-14.3111
▁comed	-14.3113
▁newsw	-14.3125
▁trig	-14.3129
��󱹵�	-14.3147
�׹���	-14.3171
▁prosecute	-14.3173
▁�����׸�	-14.3205
fare	-14.3216
▁twi	-14.3223
▁pav	-14.3232
▁opera	-14.3243
▁�̽���������	-14.3246
▁ide	-14.3248
test	-14.3266
aid	-14.3267
▁belg	-14.328
▁tun	-14.3287
𽺿���	-14.3288
�1���	-14.3289
▁�޽�������	-14.3294
aut	-14.3301
li	-14.3303
▁circ	-14.3308
▁ign	-14.331
awk	-14.3321
̵�����	-14.3324
▁injure	-14.3327
▁bat	-14.3329
not	-14.3344
�±���	-14.3371
ang	-14.3377
�	-14.3385
ments	-14.3385
▁secur	-14.3385
��̾����	-14.3404
▁mail	-14.3411
▁fina	-14.3411
��鿩	-14.3412
ace	-14.3412
una	-14.3418
▁¡��������	-14.3433
▁���޴	-14.3453
wl	-14.3458
pose	-14.346
▁dem	-14.3464
ay	-14.3467
heli	-14.3479
��󸮿	-14.3487
޽	-14.3505
awa	-14.3514
▁���̳��	-14.352
▁�����̾����	-14.3535
▁���˹���	-14.3538
▁mont	-14.3541
▁�����ʼ	-14.3543
▁��¡�̾���	-14.3548
▁�����޺�	-14.3549
bb	-14.3556
▁sensi	-14.3559
napoli	-14.3565
ift	-14.3576
��	-14.3601
unch	-14.362
eph	-14.3629
ayton	-14.3636
zu	-14.3647
�׶���	-14.367
▁deser	-14.3673
wt	-14.3681
▁�����׿���	-14.3689
޾�����	-14.3697
3⁄4	-14.3698
pet	-14.3713
ys	-14.3717
▁cra	-14.3717
׶��̺�	-14.3719
▁���׷��	-14.3724
�����	-14.3726
̶	-14.373
azi	-14.3733
▁�̱��鿡	-14.3734
▁�׹�	-14.3735
itzer	-14.3736
rg	-14.3736
▁bosto	-14.3738
adh	-14.3743
danger	-14.3748
▁carma	-14.3755
hann	-14.3756
▁wm	-14.3768
stra	-14.3773
▁ref	-14.3775
iment	-14.3781
▁resum	-14.3784
▁objecti	-14.379
▁cons	-14.3793
▁���˻�	-14.3796
▁leas	-14.3798
pion	-14.3799
▁eth	-14.3799
;���	-14.3807
▁tap	-14.382
▁�÷��̿�����	-14.3824
▁����	-14.3842
iser	-14.3848
�⿴��	-14.385
graph	-14.3854
▁bla	-14.3866
▁veni	-14.3868
teur	-14.3876
wed	-14.3879
▁anp	-14.3887
▁disc	-14.3903
nction	-14.391
pin	-14.3912
inch	-14.3914
kes	-14.3915
źƾ	-14.3921
ea	-14.3924
▁�3⁄4���	-14.3925
bor	-14.3929
���󽺿�	-14.393
▁�����̽���	-14.3931
���͸	-14.3934
▁dub	-14.3941
▁�޵�����	-14.3944
▁orl	-14.3953
▁�ʼ��	-14.3953
▁yas	-14.3958
▁jin	-14.3963
▁���޷�����	-14.3968
▁refuge	-14.3974
▁���󵧰�	-14.3977
▁marti	-14.3993
urge	-14.4001
���鿡�	-14.4006
▁offe	-14.4037
dr	-14.4041
▁�÷��̵	-14.4052
pedia	-14.4052
wing	-14.4062
alo	-14.4064
�޿���	-14.4067
▁ƼƼ	-14.4077
▁zi	-14.4082
mm	-14.41
cket	-14.4102
▁Ÿȣ	-14.4105
arms	-14.4111
▁���̳����	-14.4127
�	-14.4129
▁av	-14.4131
amas	-14.4138
liv	-14.4138
▁awa	-14.4146
llo	-14.4152
▁hole	-14.4166
nice	-14.4175
▁encourag	-14.4189
▁dl	-14.4193
▁�÷��̽	-14.4193
��£	-14.4198
ki	-14.4213
▁una	-14.4221
▁unpre	-14.4224
ces	-14.4226
▁�����޾�����	-14.4232
▁�񼭽	-14.4236
tha	-14.4237
���	-14.4242
tting	-14.4247
▁cma	-14.4264
otte	-14.4277
▁pn	-14.4281
nami	-14.4282
▁laho	-14.4295
▁�����޵	-14.4295
ound	-14.43
ȣȲ	-14.433
�	-14.4333
▁kb	-14.4344
÷��̸�	-14.4347
inia	-14.4349
▁�׷����߿�	-14.4352
▁israe	-14.4354
emi	-14.4368
rprise	-14.4373
ille	-14.4379
ov	-14.4386
�°��鿡	-14.4399
▁ib	-14.44
anti	-14.44
▁forc	-14.4408
jacks	-14.4411
▁nci	-14.4419
hen	-14.442
dali	-14.442
dard	-14.442
sted	-14.4423
▁tok	-14.4424
lock	-14.4429
und	-14.4431
fair	-14.4443
▁subs	-14.4443
▁hm	-14.4445
𿡵�	-14.4448
ŰƮ	-14.4452
԰	-14.4462
flow	-14.4464
kar	-14.448
hold	-14.4483
tely	-14.4484
▁sad	-14.4486
▁them	-14.4496
ores	-14.45
▁marin	-14.45
onaut	-14.4508
▁mag	-14.4519
mobil	-14.452
▁cres	-14.4533
government	-14.4535
▁mov	-14.4547
▁squ	-14.4549
▁airw	-14.455
▁pu	-14.4562
▁ox	-14.4562
▁gain	-14.4563
▁hypo	-14.4564
prom	-14.4564
▁anni	-14.4565
▁intensif	-14.4568
bour	-14.457
spector	-14.457
ngko	-14.4572
obama	-14.4581
▁wba	-14.4587
�񿡼�	-14.4594
mbc	-14.4602
ito	-14.4609
▁chip	-14.4618
▁�ٰ����	-14.4621
▁lev	-14.4626
apoli	-14.4627
nce	-14.4627
itt	-14.4628
others	-14.4629
eek	-14.4632
group	-14.4632
face	-14.4635
wealth	-14.4636
▁opp	-14.4638
nation	-14.4639
gra	-14.4647
▁mou	-14.4647
tun	-14.4648
official	-14.465
nbc	-14.465
bru	-14.4656
▁conver	-14.4657
block	-14.466
▁geo	-14.4665
wall	-14.4666
▁buil	-14.4667
board	-14.467
girls	-14.4672
ull	-14.4673
omx	-14.4673
ando	-14.4674
pro	-14.4675
pad	-14.4677
▁ali	-14.4678
cac	-14.4679
impose	-14.468
foot	-14.468
dmb	-14.468
break	-14.4682
arco	-14.4685
hiba	-14.4689
▁phil	-14.469
charge	-14.469
alem	-14.469
��	-14.4695
iation	-14.4698
alan	-14.4698
▁�±��	-14.47
dress	-14.47
▁capit	-14.4702
works	-14.4706
vote	-14.4708
chan	-14.471
▁stre	-14.471
cause	-14.4711
walk	-14.4711
front	-14.4716
iya	-14.4724
arf	-14.4726
epp	-14.4732
▁lan	-14.4738
nes	-14.4738
pul	-14.4741
nder	-14.4749
▁celebrat	-14.4759
▁�����͹̳	-14.476
���޷�	-14.4773
chang	-14.4774
▁crus	-14.4775
▁prepar	-14.4792
olme	-14.4793
��̺	-14.4794
stoppa	-14.4795
▁lega	-14.4796
lls	-14.4807
porter	-14.4808
lit	-14.4809
phi	-14.4813
ses	-14.4819
▁���̾��	-14.482
any	-14.4826
nies	-14.4827
▁fin	-14.4827
̽����	-14.4828
▁pers	-14.4832
defini	-14.4833
ffin	-14.4842
communications	-14.4848
rocket	-14.4859
hopp	-14.4863
▁�𸮽	-14.4868
rac	-14.4882
▁challenge	-14.4887
▁village	-14.4888
▁esca	-14.4891
lia	-14.4898
aria	-14.4899
art	-14.49
▁pit	-14.49
▁happ	-14.4903
▁complain	-14.4905
servat	-14.4906
▁ipo	-14.4908
igan	-14.4908
▁numb	-14.4909
���÷	-14.491
rwa	-14.4911
erra	-14.4913
ork	-14.4913
▁scientist	-14.4914
▁surve	-14.4915
oud	-14.4915
▁philippine	-14.4915
▁weapon	-14.4916
▁diver	-14.4917
▁maj	-14.4917
▁award	-14.4917
wart	-14.4922
▁milit	-14.4922
ldl	-14.4922
▁meta	-14.4923
▁civil	-14.4923
▁organiz	-14.4924
▁ceremon	-14.4924
▁broadcast	-14.4927
▁migra	-14.4927
▁economi	-14.4927
vax	-14.4927
▁alleg	-14.4927
▁histor	-14.4927
▁ambitio	-14.4927
omon	-14.4928
indus	-14.4928
▁lpg	-14.4928
▁televis	-14.4928
▁environ	-14.4928
▁relocat	-14.4928
▁impeach	-14.4928
▁stabiliz	-14.4928
kistan	-14.4928
▁happen	-14.4928
▁palestin	-14.4928
trastevere	-14.4928
▁dramatic	-14.4928
▁scrutin	-14.4928
ssels	-14.4928
▁astrophysic	-14.4928
▁bloom	-14.4928
▁cremations	-14.4928
▁delegat	-14.4928
▁embarrass	-14.4928
▁fundrais	-14.4928
▁gynecolog	-14.4928
▁recruit	-14.4928
▁volunt	-14.4928
▁���˳�	-14.4928
biscione	-14.4928
inguish	-14.4928
madeleine	-14.4928
roads	-14.4928
▁accelerate	-14.4928
▁advantage	-14.4928
▁affiliate	-14.4928
▁aggravate	-14.4928
▁alexeyev	-14.4928
▁anzack	-14.4928
▁blonde	-14.4928
▁capitulate	-14.4928
▁caucus	-14.4928
▁cbpd	-14.4928
▁chugai	-14.4928
▁collaborat	-14.4928
▁commemorate	-14.4928
▁condole	-14.4928
▁consequence	-14.4928
▁crocker	-14.4928
▁culminate	-14.4928
▁degree	-14.4928
▁dignity	-14.4928
▁discouraging	-14.4928
▁disorder	-14.4928
▁docomo	-14.4928
▁dungeon	-14.4928
▁educator	-14.4928
▁epidemi	-14.4928
▁forecast	-14.4928
▁forgery	-14.4928
▁fujitsu	-14.4928
▁gladiator	-14.4928
▁greenspan	-14.4928
▁hybrid	-14.4928
▁iaato	-14.4928
▁inquir	-14.4928
▁irregularit	-14.4928
▁krug	-14.4928
▁lapd	-14.4928
▁magistrate	-14.4928
▁manpower	-14.4928
▁martyr	-14.4928
▁material	-14.4928
▁monitor	-14.4928
▁newspaper	-14.4928
▁nicb	-14.4928
▁northrup	-14.4928
▁period	-14.4928
▁permanent	-14.4928
▁purpose	-14.4928
▁reinforcement	-14.4928
▁reminisce	-14.4928
▁ridicul	-14.4928
▁sponsor	-14.4928
▁spread	-14.4928
▁submit	-14.4928
▁sussex	-14.4928
▁tepco	-14.4928
▁turtle	-14.4928
▁tweet	-14.4928
▁website	-14.4928
▁wxyz	-14.4928
▁fomc	-14.4928
▁ifpri	-14.4928
▁maintain	-14.4928
▁simpson	-14.4928
▁adventure	-14.4928
▁banknote	-14.4928
▁bipartisan	-14.4928
▁criminal	-14.4928
▁daughter	-14.4928
▁disarm	-14.4928
▁endeav	-14.4928
▁execution	-14.4928
▁himself	-14.4928
▁infring	-14.4928
▁netherworld	-14.4928
▁november	-14.4928
▁ostrac	-14.4928
▁photograph	-14.4928
▁railroads	-14.4928
▁removal	-14.4928
▁snub	-14.4928
▁source	-14.4928
▁spokes	-14.4928
▁standoff	-14.4928
▁summon	-14.4928
▁superiority	-14.4928
▁tarzan	-14.4928
▁ticket	-14.4928
▁william	-14.4928
▁adobe	-14.4928
▁annual	-14.4928
▁broad	-14.4928
▁compaq	-14.4928
▁gspc	-14.4928
▁maoist	-14.4928
▁mofat	-14.4928
▁nyclu	-14.4928
▁prefer	-14.4928
▁princip	-14.4928
▁redefin	-14.4928
ثم	-14.4928
▁exxon	-14.4928
▁hanaro	-14.4928
▁luke	-14.4928
▁mpaa	-14.4928
▁offensive	-14.4928
doctrin	-14.4928
▁downplay	-14.4928
▁drdo	-14.4928
▁examine	-14.4928
▁manipulat	-14.4928
▁poison	-14.4928
▁richard	-14.4928
▁sarft	-14.4928
▁stuff	-14.4928
oratori	-14.4928
▁barnard	-14.4928
▁bccs	-14.4928
▁default	-14.4928
▁horses	-14.4928
▁kosten	-14.4928
▁leban	-14.4928
▁punish	-14.4928
▁follow	-14.4928
▁presidency	-14.4928
▁alert	-14.4928
▁reptil	-14.4928
eopard	-14.4928
▁ecj	-14.4928
▁message	-14.4928
▁paleo	-14.4928
▁hagg	-14.4928
▁distribute	-14.4928
▁engl	-14.4928
▁nyse	-14.4928
▁dutch	-14.4928
▁stabilization	-14.4928
▁harsh	-14.4928
▁mahm	-14.4928
▁serving	-14.4928
▁album	-14.4928
▁tdap	-14.4928
bahn	-14.4928
▁boul	-14.4928
▁dominan	-14.4928
▁falcon	-14.4928
▁plague	-14.4928
▁royalties	-14.4928
▁upgrade	-14.4928
▁hezb	-14.4928
▁laborator	-14.4928
▁brief	-14.4928
▁macbook	-14.4928
▁marri	-14.4928
▁titan	-14.4928
▁assess	-14.4928
▁milf	-14.4928
▁napm	-14.4928
▁comfort	-14.4928
▁division	-14.4928
▁normal	-14.4928
▁timo	-14.4928
▁islamiah	-14.4928
▁kunst	-14.4928
▁photos	-14.4928
▁ryan	-14.4928
▁��¦�	-14.4928
clude	-14.4928
▁selen	-14.4928
▁contain	-14.4928
▁surgery	-14.4928
▁tpg	-14.4928
▁haunt	-14.4929
▁monkey	-14.4929
▁unconditional	-14.4929
▁enac	-14.4929
▁deadline	-14.4929
▁flex	-14.4929
▁thwart	-14.4929
▁rnc	-14.4929
▁prize	-14.4929
pleasure	-14.4929
▁enroll	-14.4929
▁image	-14.4929
▁increasing	-14.4929
▁rich	-14.4929
▁vari	-14.4929
▁advertised	-14.4929
▁wonder	-14.4929
▁aircraft	-14.4929
▁destin	-14.4929
▁lanka	-14.4929
▁insulting	-14.4929
▁partial	-14.4929
▁�׿»��	-14.4929
▁inhala	-14.4929
bama	-14.4929
▁cruel	-14.4929
▁arson	-14.4929
▁smart	-14.4929
▁rpr	-14.4929
▁frank	-14.4929
▁ntc	-14.4929
▁tapes	-14.4929
▁merit	-14.4929
▁dhl	-14.4929
sult	-14.4929
▁amro	-14.4929
donald	-14.4929
▁champ	-14.4929
▁desi	-14.4929
▁revision	-14.4929
▁wrap	-14.4929
▁revenue	-14.4929
▁sapa	-14.4929
▁hillary	-14.4929
popular	-14.4929
▁aec	-14.4929
▁kari	-14.4929
rsat	-14.4929
▁paki	-14.4929
▁npi	-14.4929
tribute	-14.4929
▁succession	-14.4929
▁ispr	-14.4929
ovo	-14.493
▁legi	-14.493
▁territory	-14.493
▁dram	-14.493
▁lonely	-14.493
▁mrl	-14.493
▁muscle	-14.493
evo	-14.493
▁generate	-14.493
▁hhs	-14.493
aliph	-14.493
▁infant	-14.493
lom	-14.493
▁amia	-14.493
▁lobbyi	-14.493
▁rude	-14.493
▁trism	-14.493
jewel	-14.493
▁ibo	-14.493
▁excel	-14.493
▁heighten	-14.4931
▁saint	-14.4931
▁chp	-14.4931
plug	-14.4931
▁wound	-14.4931
▁bail	-14.4931
mistak	-14.4931
▁nominat	-14.4931
▁career	-14.4931
▁craz	-14.4931
▁prc	-14.4931
▁athletic	-14.4931
▁cosm	-14.4931
▁ambi	-14.4931
▁formal	-14.4931
▁�׶׺�	-14.4931
▁crack	-14.4931
▁deport	-14.4931
▁kpa	-14.4931
▁trap	-14.4931
vt	-14.4931
iper	-14.4931
▁���޳���	-14.4932
solution	-14.4932
▁zew	-14.4932
productiv	-14.4932
▁expert	-14.4932
▁purd	-14.4932
▁restore	-14.4932
▁jpm	-14.4932
▁eliminate	-14.4933
▁nuj	-14.4933
��󸮿°�	-14.4933
▁patent	-14.4933
ential	-14.4933
▁personal	-14.4933
▁npa	-14.4933
▁mill	-14.4933
icus	-14.4933
▁pmp	-14.4934
▁gere	-14.4934
▁usda	-14.4934
▁session	-14.4934
▁oic	-14.4934
▁intensifies	-14.4934
▁apdm	-14.4934
▁merv	-14.4934
▁handle	-14.4934
▁medal	-14.4935
▁talking	-14.4935
▁epa	-14.4935
linha	-14.4935
buff	-14.4935
▁cease	-14.4935
▁�޸𿡼�	-14.4935
▁trend	-14.4936
entative	-14.4936
▁boeing	-14.4936
lender	-14.4936
cher	-14.4936
▁dealers	-14.4936
▁pot	-14.4937
▁behead	-14.4937
▁fall	-14.4937
▁rss	-14.4937
▁hate	-14.4937
henan	-14.4938
▁����	-14.4938
kirk	-14.4938
▁slum	-14.4938
▁mess	-14.4938
▁mnd	-14.4939
▁profit	-14.4939
▁atf	-14.4939
▁dust	-14.494
▁giant	-14.494
▁bring	-14.4941
▁apartment	-14.4941
▁mmr	-14.4941
▁doom	-14.4941
▁myster	-14.4941
nile	-14.4941
▁shoe	-14.4941
·�˽�	-14.4941
޳��̿�	-14.4941
metric	-14.4942
▁anth	-14.4942
▁difference	-14.4942
▁investigator	-14.4943
▁afi	-14.4943
raft	-14.4944
dml	-14.4944
▁teenager	-14.4944
▁recall	-14.4944
▁temple	-14.4945
�	-14.4945
augu	-14.4945
▁fence	-14.4946
▁barc	-14.4946
loud	-14.4947
breck	-14.4947
▁inma	-14.4948
▁ktv	-14.4949
▁restriction	-14.4949
▁tbs	-14.4949
▁payment	-14.495
▁abdu	-14.495
▁happens	-14.495
▁giga	-14.4951
nces	-14.4951
rush	-14.4951
▁duck	-14.4952
laugh	-14.4953
▁abduct	-14.4953
connect	-14.4953
▁psycholog	-14.4953
▁�˸޸��	-14.4954
osal	-14.4954
ruf	-14.4955
▁�̴޷�	-14.4956
estra	-14.4956
▁misuse	-14.4957
mman	-14.4957
▁pred	-14.4958
▁dad	-14.4959
emy	-14.4961
psy	-14.4961
▁footing	-14.4962
▁���..�	-14.4963
born	-14.4964
putin	-14.4964
jet	-14.4964
▁executives	-14.4965
▁inmates	-14.4965
▁reductions	-14.4965
▁review	-14.4967
▁detect	-14.4968
▁slash	-14.4968
▁glen	-14.4969
▁challenger	-14.4969
���̶��	-14.4969
tifi	-14.4969
▁lam	-14.497
▁muni	-14.497
▁mole	-14.4971
▁villager	-14.4971
zene	-14.4973
▁missions	-14.4973
rok	-14.4973
▁billy	-14.4974
▁alg	-14.4974
▁hoc	-14.4974
▁haras	-14.4974
▁tourist	-14.4975
▁claus	-14.4975
▁rang	-14.4975
▁ignor	-14.4976
vacc	-14.4978
stical	-14.4981
▁transformer	-14.4982
�񼭰���	-14.4982
▁�����̽��ʿ�	-14.4985
▁drya	-14.4986
acea	-14.4987
▁ec	-14.4988
▁���𰡵���	-14.4988
▁raf	-14.4989
reas	-14.4989
▁ema	-14.4989
ety	-14.499
▁fp	-14.4991
▁plat	-14.4991
▁�����̷��̵	-14.4993
rnal	-14.4993
hoo	-14.4995
▁mn	-14.4997
▁candid	-14.5
▁dow	-14.5
▁cancel	-14.5001
▁expand	-14.5002
▁accord	-14.5002
▁���̽̾���	-14.5002
squat	-14.5003
��޷�	-14.5005
odc	-14.5007
▁construct	-14.5009
▁nur	-14.5009
▁rb	-14.5012
▁bound	-14.5012
▁���ʽ��	-14.5012
▁leaks	-14.5017
▁�˾߿���	-14.5019
▁sting	-14.5021
▁hanuk	-14.5022
▁���⶧	-14.5023
uggle	-14.5023
▁massac	-14.5024
▁contin	-14.5025
im	-14.5025
▁stir	-14.5026
▁exit	-14.5026
wait	-14.5028
▁meal	-14.5028
�ʺ���	-14.503
▁kgw	-14.5034
▁faction	-14.5038
tight	-14.5039
▁sum	-14.5041
▁words	-14.5043
▁master	-14.5045
alac	-14.5046
separa	-14.5046
▁curve	-14.5047
▁facilit	-14.5048
׾	-14.5051
eric	-14.5051
▁skt	-14.5051
▁fool	-14.5053
▁consulta	-14.5055
kfa	-14.5056
agen	-14.5059
▁ata	-14.5059
▁loom	-14.5059
▁ls	-14.5061
lke	-14.5062
ban	-14.5064
▁�����ʿ���	-14.5065
▁tex	-14.5067
ington	-14.5073
▁publication	-14.5073
▁��¥�⿡	-14.5076
▁pirate	-14.5077
nzo	-14.5077
riority	-14.5077
▁mortal	-14.5077
sies	-14.5078
▁kitch	-14.508
▁jr	-14.508
▁epi	-14.5081
▁���׷��̿�	-14.509
gains	-14.5094
▁relate	-14.5095
organ	-14.5096
▁tho	-14.5102
▁tira	-14.5104
▁palma	-14.5107
▁commander	-14.5108
▁tests	-14.5109
▁usw	-14.5113
▁tak	-14.5114
▁strict	-14.5116
׷��̺�	-14.5117
▁qualif	-14.5117
▁persu	-14.5118
erve	-14.512
▁alarm	-14.512
▁�̽����͸��	-14.5121
▁weight	-14.5123
iman	-14.5125
▁yamm	-14.5127
▁poor	-14.5129
urt	-14.5131
▁ru	-14.5134
▁addict	-14.5138
▁blame	-14.5139
tooth	-14.514
▁loya	-14.5143
▁regain	-14.5144
ests	-14.5145
▁eve	-14.5146
▁ramb	-14.5147
plex	-14.5148
iq	-14.5152
▁stat	-14.5155
�°��鿡�	-14.5158
ember	-14.5159
▁widen	-14.5161
▁volc	-14.5161
▁sos	-14.5166
▁arl	-14.5166
▁machine	-14.5171
rough	-14.5171
▁suppress	-14.5172
▁alo	-14.5174
▁rest	-14.5178
▁predict	-14.5184
rls	-14.5188
▁luna	-14.5189
▁lk	-14.5196
hang	-14.5196
▁moderat	-14.5197
��¡	-14.5199
▁lang	-14.5202
ua	-14.5205
rant	-14.5207
▁�˵�����	-14.5208
▁�޿�����	-14.5211
▁converg	-14.5212
▁interven	-14.5213
����°���	-14.5213
▁apa	-14.5219
ean	-14.5221
▁dropp	-14.5222
▁ward	-14.5223
▁wealth	-14.5229
�����¿�	-14.523
▁suspens	-14.5238
ourne	-14.524
avail	-14.524
▁others	-14.5245
hopper	-14.5245
fan	-14.5246
row	-14.5249
hearted	-14.5249
▁dash	-14.525
��	-14.5251
hot	-14.5254
▁used	-14.5256
▁fo	-14.5259
▁�����̽����̾	-14.526
▁supplie	-14.526
▁chips	-14.5262
▁kyu	-14.5264
af	-14.5264
nest	-14.5265
pace	-14.5267
▁�����	-14.527
▁���׻��	-14.5271
arot	-14.5273
▁�·���	-14.5279
�·�	-14.5281
▁dog	-14.5282
riff	-14.5286
▁pol	-14.5286
tia	-14.5287
iom	-14.5288
▁�����޼�	-14.5288
mug	-14.5291
actors	-14.5291
plication	-14.5294
▁terr	-14.5296
▁mate	-14.5298
wham	-14.53
bit	-14.5301
���	-14.5305
▁hypoth	-14.5306
oz	-14.5312
�⸧����	-14.5313
▁edm	-14.5314
bout	-14.5317
▁̧����	-14.5318
▁settle	-14.5323
▁wis	-14.5327
▁ria	-14.5327
▁form	-14.5335
▁���̿1⁄2���	-14.5341
▁ultimate	-14.5342
▁exile	-14.5348
zion	-14.535
page	-14.5351
▁�⸧�	-14.5358
▁edit	-14.536
bur	-14.5361
wca	-14.5362
��÷��̼�	-14.537
▁swe	-14.5376
▁arms	-14.5378
▁boom	-14.5379
▁rid	-14.538
▁seeker	-14.5384
chak	-14.5385
tpa	-14.5386
valu	-14.5395
▁fore	-14.5401
trage	-14.5404
hoe	-14.5411
���̷���	-14.5412
predict	-14.5416
▁tip	-14.5416
�����⿡��	-14.5421
rought	-14.5421
fpa	-14.5423
▁libr	-14.5444
̵鸮	-14.5446
usc	-14.5446
▁disco	-14.5453
▁seo	-14.5456
▁puni	-14.546
��׽�	-14.5467
v	-14.5467
ncis	-14.5468
hagi	-14.5477
▁roug	-14.5477
���䷹	-14.5477
▁rub	-14.5479
▁rememb	-14.5481
▁�鿪��	-14.549
ǵDZ	-14.5493
yeth	-14.5497
▁paperin	-14.5497
▁strippe	-14.5498
▁table	-14.5501
��˸�	-14.5508
▁�޴�������	-14.5511
▁�←����	-14.5514
uffin	-14.5519
߻	-14.5527
dish	-14.5531
▁fair	-14.5538
▁pray	-14.5543
▁bolt	-14.5548
▁���޸���	-14.5555
�̿�����	-14.5563
�߾�����	-14.5564
▁Ȳȥ	-14.5568
cean	-14.5578
obby	-14.5579
▁root	-14.5586
vene	-14.5598
▁wo	-14.56
▁�}������	-14.5603
▁�1⁄2�����	-14.5605
▁mina	-14.5605
߽���	-14.5607
fl	-14.562
▁nik	-14.5625
▁friend	-14.5626
plane	-14.5627
�����	-14.5636
ashi	-14.5642
���	-14.5647
▁appea	-14.5652
▁uh	-14.5658
▁termina	-14.5659
▁dm	-14.566
strict	-14.5663
tain	-14.5666
ݼ۵	-14.5671
��	-14.5674
elod	-14.5677
▁���̵��̾��	-14.5684
tual	-14.5687
▁teen	-14.5691
▁caa	-14.5693
▁cb	-14.5695
dation	-14.5697
▁disagree	-14.5709
stal	-14.5715
����̼	-14.5717
▁kw	-14.5717
▁beate	-14.5733
aine	-14.5736
▁cabo	-14.5736
llion	-14.5737
ounge	-14.5751
▁powe	-14.5757
ntana	-14.5766
surge	-14.5767
ponent	-14.5768
gu	-14.5771
▁rec	-14.5772
▁pine	-14.5784
▁obst	-14.5796
�⿬�	-14.581
▁nas	-14.5816
yama	-14.5823
veh	-14.5827
quent	-14.5831
�¦	-14.5832
▁haj	-14.5833
鿩���	-14.5836
▁spare	-14.5836
▁symp	-14.5852
1��	-14.5862
⿬��	-14.5865
fre	-14.5881
tops	-14.5891
imate	-14.5892
▁���󱹿�����	-14.5898
▁hote	-14.5904
opa	-14.5904
▁lake	-14.5915
▁parent	-14.5922
̾	-14.5927
uman	-14.5934
bo	-14.5941
▁dav	-14.5952
fri	-14.5956
▁quot	-14.5956
��͹�	-14.5965
▁shri	-14.598
▁�׼�����	-14.5985
⵵��	-14.5987
޵��	-14.6002
ncil	-14.6004
lapto	-14.6011
hk	-14.6013
lp	-14.6019
▁ok	-14.6035
�˽�	-14.604
▁deni	-14.6051
����̼�	-14.6051
▁copy	-14.6057
doing	-14.6062
���	-14.6066
Ʒù	-14.6073
aint	-14.6081
od	-14.609
▁�󽺺�����	-14.6094
׾�	-14.6096
▁kn	-14.61
▁yus	-14.6107
ȵư	-14.6111
▁�����˻�	-14.6113
▁pron	-14.6119
ograph	-14.612
ado	-14.6125
▁�鿪�	-14.6135
esus	-14.6139
aunt	-14.6142
▁va	-14.6146
▁�޸𸮾	-14.615
�˻�����	-14.6156
�̽�������	-14.6176
▁bai	-14.6178
▁gear	-14.6191
dic	-14.6191
▁���˹��	-14.6197
erland	-14.6204
▁ire	-14.6212
▁���䷹��	-14.6221
▁�������׽��	-14.6244
asser	-14.6256
path	-14.6266
⿡�	-14.6272
▁�������࿡��	-14.6274
void	-14.6275
iji	-14.6289
▁÷����	-14.6295
dies	-14.6295
▁���ʺ�����	-14.6301
��˰�	-14.6304
▁zar	-14.6304
ak	-14.6306
maid	-14.6307
▁beli	-14.6317
ann	-14.6319
its	-14.6323
▁�׿�����	-14.6325
▁kam	-14.6334
��	-14.6335
▁fred	-14.6337
�¡	-14.6339
▁pala	-14.6351
▁entr	-14.6363
▁amo	-14.6364
erial	-14.6373
▁worsen	-14.6385
anger	-14.6389
aa	-14.639
▁kidnappe	-14.6394
bj	-14.6406
▁unin	-14.6409
��̿��	-14.6411
tra	-14.6417
̻�����	-14.6419
nity	-14.6421
ois	-14.6434
▁�̵��	-14.6436
▁sal	-14.6437
carly	-14.644
̷縶	-14.6441
han	-14.6444
forth	-14.6447
�����̱⵵	-14.6447
mf	-14.6456
▁jw	-14.6465
copo	-14.6481
▁mil	-14.6487
▁�˷��׷���	-14.6488
���	-14.6488
�»��	-14.6489
rming	-14.6497
allow	-14.651
▁���÷���	-14.6513
aster	-14.6519
▁�鿴�	-14.6524
emical	-14.6526
ajin	-14.6531
▁boo	-14.6569
des	-14.657
ffici	-14.6574
▁���ʿ��	-14.6585
▁mandat	-14.6587
𸮾���	-14.6589
uarant	-14.6592
▁leav	-14.6595
▁��¡�̾����	-14.6597
▁studi	-14.6597
vocat	-14.6598
tical	-14.6599
▁div	-14.6602
ڱص	-14.6602
rnard	-14.6629
�޵	-14.6637
acco	-14.6642
▁̧��߾	-14.6648
loses	-14.666
߾	-14.6663
▁shine	-14.6672
kia	-14.6685
▁źȯ	-14.6692
▁phar	-14.6693
▁lah	-14.6703
▁strai	-14.6711
▁ring	-14.6717
res	-14.6725
��ʽ�	-14.6728
������	-14.6731
inta	-14.6733
▁treet	-14.6737
˰	-14.6739
sque	-14.6753
▁nat	-14.6765
▁ilo	-14.6769
▁et	-14.6786
eu	-14.6797
3⁄4���	-14.6811
apil	-14.6833
▁gua	-14.6834
▁���˻���	-14.6835
��·�	-14.6841
▁rig	-14.6849
ific	-14.6853
��׸��	-14.6859
▁twic	-14.6864
so	-14.6868
�£	-14.6907
▁fol	-14.6911
rks	-14.6932
mon	-14.6945
atan	-14.6954
�޵���	-14.6959
▁refus	-14.6971
▁quar	-14.6976
hive	-14.6977
indicate	-14.6981
▁wor	-14.6984
shop	-14.6989
jar	-14.7022
▁res	-14.7024
Ӹӽ	-14.7026
▁�޸���������	-14.7041
▁alter	-14.7057
▁administrati	-14.7061
▁epic	-14.7075
ural	-14.7078
sf	-14.7079
uro	-14.708
▁knut	-14.7086
▁���ʻ�	-14.7087
acho	-14.7088
▁�÷��̽���	-14.7093
̻��	-14.7098
▁kin	-14.7102
▁����1⁄4��	-14.7102
���̶	-14.7116
my	-14.7124
uses	-14.7124
aper	-14.7164
mash	-14.7165
⹰	-14.7168
▁sand	-14.7182
▁���˹	-14.7184
▁senat	-14.7185
▁�˿�����	-14.7194
▁ber	-14.7201
▁�����˽�	-14.7203
▁vie	-14.7207
▁sure	-14.7208
ew	-14.7212
live	-14.7216
▁digg	-14.7221
tch	-14.7226
cas	-14.7228
▁�˰�����	-14.7234
▁�¶�����	-14.7236
˹	-14.7237
▁raise	-14.7243
ep	-14.7258
▁�÷��̴�	-14.7261
faw	-14.7267
▁conta	-14.7274
▁classic	-14.7276
▁greate	-14.7321
▁�÷��̸	-14.7323
sl	-14.7326
�̺��̿���	-14.7327
����	-14.7332
▁ace	-14.7341
���÷�	-14.7343
law	-14.7349
�߼	-14.7356
logist	-14.7361
▁equi	-14.7362
ieve	-14.7367
ave	-14.7368
aris	-14.7413
▁́����̼	-14.7416
grade	-14.7416
▁harve	-14.7431
▁�����	-14.7431
dq	-14.7441
׷����	-14.7445
kette	-14.7471
��̿�����	-14.7477
▁strateg	-14.7481
lator	-14.7482
pri	-14.7488
▁hun	-14.7492
▁¢���	-14.7499
ewe	-14.7505
▁rea	-14.7508
▁demi	-14.7509
▁bok	-14.7511
޼	-14.7512
▁vers	-14.7521
��	-14.7525
�˹	-14.7547
late	-14.7553
dk	-14.7558
▁digi	-14.7562
���̳�����	-14.7566
▁thr	-14.7574
▁transform	-14.758
noc	-14.7592
��˿�	-14.7611
▁sant	-14.7618
���߿�	-14.7628
▁amy	-14.7628
▁relat	-14.7633
عٴ	-14.7637
▁�̳׶	-14.764
chae	-14.7645
▁bann	-14.7646
dora	-14.7661
em	-14.7662
׿��	-14.7685
���ʿ�	-14.7694
3⁄4�	-14.7702
imp	-14.7708
���󿡼���	-14.7708
�⿩	-14.7712
˱��	-14.7718
llar	-14.7734
▁invite	-14.7737
▁kofi	-14.774
angar	-14.7741
ens	-14.7756
xon	-14.778
ȷȰ	-14.7784
▁����	-14.7784
▁���˶	-14.7788
odeo	-14.7836
▁���˺�	-14.784
▁corre	-14.7844
ordin	-14.7844
eta	-14.7848
nggye	-14.7852
▁reg	-14.7852
china	-14.7866
▁ln	-14.7878
mand	-14.7899
▁poo	-14.7909
▁micro	-14.791
▁�񼭰�	-14.7911
̰��	-14.7922
quet	-14.7937
cop	-14.7947
▁rockn	-14.7961
ud	-14.7964
ushi	-14.7966
▁�����̵��	-14.7979
�¡��	-14.7986
bene	-14.7995
ask	-14.8014
ulate	-14.8044
▁urg	-14.8056
▁bac	-14.8062
stock	-14.8062
����࿡��	-14.8063
̽�������	-14.8066
pho	-14.8081
▁�����๰	-14.8083
dor	-14.8084
itud	-14.8084
��¡��	-14.8086
rik	-14.8092
thing	-14.8095
ul	-14.8099
nv	-14.8099
nam	-14.8109
▁�������	-14.8118
▁cool	-14.812
▁�̲�������	-14.8127
���£	-14.8132
▁���ʹ��	-14.8136
▁cand	-14.8139
lip	-14.8139
��1⁄4���	-14.8141
eve	-14.8154
˹�	-14.8154
▁cro	-14.8156
tail	-14.8165
▁scient	-14.8169
hica	-14.8173
▁���˻	-14.8174
̽Ĺ	-14.8176
▁pelo	-14.8177
nis	-14.8178
▁shr	-14.8185
�޵�	-14.8196
aws	-14.8207
޻�	-14.8211
uca	-14.8226
rime	-14.8226
ened	-14.8233
▁�����׽�	-14.8241
����̼���	-14.8247
�̵鿡	-14.8258
�𵨷	-14.8265
▁cau	-14.8275
olic	-14.8282
▁archi	-14.8287
▁petro	-14.8291
�˾���	-14.8292
▁�����͹̳�	-14.8304
▁conscien	-14.8319
���԰�	-14.8323
޳	-14.8324
▁wit	-14.8333
gib	-14.8334
bn	-14.8336
ٹٽ	-14.8338
▁lowe	-14.8355
nk	-14.8361
⿬�	-14.8361
▁nak	-14.8377
vert	-14.8382
▁reuni	-14.8385
bras	-14.839
▁mak	-14.8391
ʺ�	-14.8395
ria	-14.8415
▁hea	-14.8424
nor	-14.8428
���̵��	-14.8431
▁����	-14.8479
������̴�	-14.8486
▁�˺	-14.849
▁ard	-14.8498
shet	-14.85
▁conten	-14.8502
wire	-14.8507
▁flow	-14.8512
atter	-14.8515
agenc	-14.8518
▁�����԰	-14.8524
̱׸���	-14.8538
titu	-14.8551
alin	-14.8551
▁bide	-14.8555
ilton	-14.8574
����	-14.8581
igor	-14.8585
�����̵���	-14.8585
▁�׹����	-14.8595
sco	-14.8611
▁�����̼	-14.8628
rio	-14.8634
��࿡��	-14.8638
matic	-14.8642
▁�޲�	-14.8642
����	-14.8644
lumb	-14.8645
het	-14.8649
nut	-14.8652
nz	-14.8662
rove	-14.8664
�����̵	-14.8665
▁�����	-14.8666
pi	-14.8667
▁���̻���	-14.868
�˺���	-14.8683
▁���⸸�	-14.8688
�3⁄4�	-14.8696
ence	-14.87
𽺸��	-14.8719
etro	-14.8725
▁koo	-14.8726
޽��	-14.8728
struct	-14.874
ned	-14.8741
▁�°����	-14.8745
▁garr	-14.8746
cule	-14.8751
aj	-14.8755
rah	-14.8757
�򰡿���	-14.8773
chines	-14.8773
▁���׾���	-14.8779
eserve	-14.878
▁possi	-14.8781
�󵧰�	-14.8788
ether	-14.8788
����޿�	-14.8801
���	-14.8804
����̽�	-14.8806
volv	-14.8807
nja	-14.8817
▁�񼭽�������	-14.8867
alie	-14.8875
▁alca	-14.8877
▁tal	-14.8918
�߼�����	-14.8919
󿡼	-14.8921
▁fre	-14.8927
val	-14.8966
tance	-14.8967
▁spre	-14.8997
���񽺿�	-14.9001
▁cover	-14.9005
޶	-14.901
toni	-14.9014
޸�����	-14.9033
▁ƪ	-14.9055
���̳��	-14.9058
▁���߻���	-14.9059
▁���׷�����	-14.9059
▁���򰡵��	-14.9074
ins	-14.9091
resume	-14.9102
▁hau	-14.9107
mc	-14.9133
bility	-14.9142
per	-14.9156
▁member	-14.9159
tte	-14.9159
station	-14.9163
▁mous	-14.9163
ief	-14.918
▁�÷��̿��	-14.919
clu	-14.9206
▁tric	-14.9216
rash	-14.9225
▁vol	-14.923
�͹���	-14.9233
��̳��̼�	-14.9246
rst	-14.9259
▁shop	-14.9259
▁�̴���	-14.9274
▁�̾�	-14.9276
if	-14.9277
elimina	-14.9277
aggress	-14.9295
harmon	-14.9297
▁conte	-14.9311
▁petroch	-14.9315
▁dn	-14.9336
▁������	-14.9337
▁injur	-14.9343
��񽺿�	-14.9352
inqu	-14.9359
aek	-14.9377
yad	-14.9379
▁fram	-14.9391
▁witn	-14.9402
apt	-14.9402
ad	-14.9404
▁scienti	-14.9452
za	-14.9454
crip	-14.946
hell	-14.9498
terra	-14.9503
itive	-14.9503
eem	-14.9506
▁���˷	-14.9512
elf	-14.9516
arp	-14.9517
rave	-14.9529
�޽�����	-14.9531
��̹	-14.9537
inten	-14.9579
▁explor	-14.9582
˻���������	-14.9592
���˻�����	-14.9608
tti	-14.9608
▁quo	-14.9639
˹��	-14.9648
eo	-14.9664
▁�̴�����	-14.9668
kham	-14.9676
▁argu	-14.9683
omic	-14.969
▁�׾����	-14.969
ris	-14.9692
▁�޿��	-14.9693
tag	-14.9696
�������	-14.9698
oma	-14.9701
▁enforce	-14.9725
lds	-14.9733
▁bec	-14.9751
▁micr	-14.9754
𸮾�	-14.9767
goli	-14.9771
posit	-14.9771
raz	-14.9775
rmed	-14.9777
loo	-14.9781
▁chengg	-14.9822
▁mir	-14.9827
▁�̽��󿤱��	-14.9827
ration	-14.9831
clusi	-14.9832
▁detai	-14.9843
▁importan	-14.9849
iv	-14.9872
drome	-14.988
ongo	-14.9881
zen	-14.9888
˿���	-14.989
ept	-14.9907
ession	-14.9912
⸮�	-14.9925
▁���׵��	-14.993
emper	-14.993
▁invit	-14.9963
�޼�	-14.9972
▁bs	-14.9991
nger	-14.9993
▁���̽����̽�����	-14.9994
rell	-14.9999
▁morta	-15.002
��̾	-15.0023
▁violate	-15.0037
▁trai	-15.0049
▁���޹��	-15.0064
▁�������̱�	-15.0072
��	-15.0079
鿴	-15.0095
▁repro	-15.0098
▁cann	-15.0104
orial	-15.0105
▁consul	-15.0107
▁stak	-15.0117
▁eld	-15.012
ǾƷ	-15.0125
�׹	-15.0142
erge	-15.0145
flat	-15.0155
ear	-15.0165
eur	-15.0167
▁fat	-15.0199
cio	-15.0202
�����������	-15.0207
���̿	-15.0215
▁clo	-15.0221
▁mau	-15.0228
▁pea	-15.0228
▁bro	-15.0228
uar	-15.0229
▁�̲��	-15.0233
▁�˺��	-15.0236
���߾��	-15.0241
�׼�����	-15.0244
▁�߼����	-15.0247
shin	-15.0249
▁loo	-15.0276
▁uniq	-15.0289
▁¥���	-15.031
��޷���	-15.0346
·��鿡��	-15.0349
▁������	-15.0355
ache	-15.0359
▁�⵵����	-15.0383
▁mada	-15.0384
▁rand	-15.0407
▁���̹�����	-15.0422
ero	-15.0439
��̺��̰	-15.0445
ome	-15.0449
aze	-15.0449
▁miz	-15.0461
▁majori	-15.0495
ntent	-15.0498
amil	-15.0519
oph	-15.052
▁vit	-15.0526
dent	-15.0527
▁�����̾�׿�	-15.0527
ication	-15.0531
▁doug	-15.0533
xperi	-15.0534
ike	-15.0539
̾	-15.0555
gaz	-15.0558
ssi	-15.0566
mate	-15.0567
▁depos	-15.0581
��;�	-15.0584
cc	-15.0586
�¡����	-15.0599
▁ren	-15.0616
��๰��	-15.0617
▁aa	-15.0622
▁memor	-15.0625
▁�޸����	-15.064
emb	-15.0651
▁tre	-15.0669
▁whi	-15.0669
▁interst	-15.0684
▁pow	-15.0688
mona	-15.0711
achi	-15.0711
▁eldo	-15.0712
▁����¡���	-15.0747
ock	-15.0767
�׺���	-15.0767
����߾���	-15.0783
���̾߿�	-15.0787
ming	-15.0788
̴�����	-15.0797
dh	-15.0801
▁�����	-15.0822
mma	-15.0827
▁sul	-15.0857
▁wom	-15.0857
▁compa	-15.0867
񼭰�	-15.0913
𽺸��׿�	-15.0923
▁���ʻ	-15.0926
▁swa	-15.0939
˷�����	-15.0945
׷�������	-15.0983
tars	-15.0995
�����⵵	-15.0998
jury	-15.1004
˺�	-15.1005
▁�񳭿��	-15.102
estic	-15.1025
etti	-15.1034
▁tet	-15.1043
����	-15.1043
▁ups	-15.1048
uction	-15.1052
▁�⵶������	-15.106
joy	-15.1081
▁mia	-15.1083
˷���	-15.1086
޼��	-15.1087
leased	-15.1115
▁tai	-15.113
nmen	-15.1134
�����̾��	-15.1153
izz	-15.1163
▁���°��鿡	-15.1167
ou	-15.1183
rare	-15.1189
ular	-15.1215
��󱹵	-15.1222
▁�����⿴�	-15.1223
top	-15.1226
▁����¥��	-15.1232
▁kai	-15.124
▁���޾��	-15.1244
lbo	-15.1273
񽺷	-15.1285
nia	-15.1293
rilla	-15.1298
▁upb	-15.1305
▁spo	-15.1308
▁confesse	-15.1316
׷��̶�	-15.1326
▁wee	-15.1337
▁ll	-15.1344
▁nd	-15.1351
eti	-15.1363
▁alt	-15.1372
▁���̱⿡	-15.139
�̽����	-15.1403
׵鿡	-15.1409
޼�	-15.1418
▁ordina	-15.1425
▁regulat	-15.1426
hur	-15.1451
��޵�	-15.1451
���˻���	-15.1453
�߼��	-15.1467
▁tha	-15.1492
wer	-15.1493
▁���	-15.1507
▁�����׼	-15.1513
▁berna	-15.1517
sett	-15.1519
ib	-15.1529
jin	-15.153
�޾���	-15.1532
ending	-15.1547
▁nar	-15.1568
▁ski	-15.1578
▁gaze	-15.1605
▁gri	-15.1614
▁���ʼ�	-15.1624
df	-15.163
�󽺿�	-15.1639
righte	-15.1641
���̼	-15.1644
⵶��	-15.167
▁pur	-15.1672
awn	-15.1672
▁chemi	-15.1692
▁dono	-15.1695
opi	-15.1695
▁hen	-15.17
▁tree	-15.171
tact	-15.1717
▁����	-15.1718
ture	-15.1721
▁obs	-15.1722
▁sala	-15.1725
ƽð	-15.1727
fficien	-15.1729
▁regis	-15.1731
��߽	-15.1738
ngle	-15.1739
▁���޾���	-15.1749
▁�����׶�	-15.175
▁note	-15.1752
jo	-15.1756
▁citi	-15.1764
kings	-15.1768
▁dresse	-15.1772
nag	-15.1781
��̵��	-15.179
ook	-15.1797
▁�񿵸���	-15.1806
▁repe	-15.181
romo	-15.1812
▁agu	-15.1831
ken	-15.1841
▁alle	-15.1855
󰡵�	-15.1858
udi	-15.1868
▁haw	-15.1871
ola	-15.1872
▁cara	-15.1894
oon	-15.1904
񽺷��	-15.1923
▁���׸�����	-15.1925
�̱׸���	-15.1959
����	-15.1964
▁�����׽��	-15.1967
▁ws	-15.1971
▁�÷��̺��	-15.198
▁cy	-15.1981
▁���߽���	-15.1986
▁fla	-15.1988
▁�̽������̵	-15.1988
bot	-15.1991
▁pp	-15.1997
iling	-15.1998
▁caf	-15.2002
ple	-15.2011
▁consci	-15.2015
▁rattl	-15.2026
ender	-15.204
usan	-15.2048
armac	-15.2051
▁tos	-15.206
ǥȸ	-15.2061
▁introduc	-15.2062
onomic	-15.207
������	-15.2076
▁¢����	-15.2077
trader	-15.209
tric	-15.2097
vital	-15.2099
▁�	-15.21
▁���̽����	-15.2112
�±	-15.2114
clip	-15.2138
��̾𽺿�	-15.2146
mene	-15.2149
zing	-15.2149
▁hip	-15.2154
�1	-15.2159
▁skill	-15.2178
rse	-15.2178
ow	-15.2201
��׽��	-15.2203
quat	-15.2205
iden	-15.2249
ford	-15.225
tivit	-15.2269
serve	-15.2273
ƼŰ	-15.2274
��׿��	-15.2277
atri	-15.2279
verte	-15.2287
anch	-15.2292
toms	-15.2293
enen	-15.2309
▁aetn	-15.2314
▁sym	-15.232
�̻�����	-15.2323
īġ	-15.2339
mil	-15.2356
̵鿡	-15.2359
▁van	-15.2361
▁gat	-15.2377
׼�����	-15.2385
iber	-15.2386
▁pla	-15.2386
▁slo	-15.2395
▁soma	-15.2396
uty	-15.2399
▁remo	-15.2404
iel	-15.2431
�̲�	-15.247
▁associate	-15.2484
dna	-15.2488
▁���̿����	-15.25
lade	-15.2511
tf	-15.252
▁unam	-15.2525
▁���3⁄4	-15.2526
his	-15.2526
yeon	-15.2527
▁surrou	-15.254
rim	-15.2547
berm	-15.2556
ride	-15.257
evi	-15.2603
�׶�����	-15.2609
▁�̻����	-15.2614
▁pas	-15.2622
sha	-15.2647
▁por	-15.2653
▁�̾�	-15.2655
▁aer	-15.2658
enez	-15.2669
ona	-15.2676
oster	-15.2691
▁ty	-15.27
▁armi	-15.2702
rey	-15.2711
ident	-15.2711
��̹�	-15.2712
�	-15.2717
uan	-15.2719
▁progr	-15.2741
lk	-15.2742
ŵȴ	-15.2753
geni	-15.2759
lent	-15.2784
▁apologi	-15.279
▁ster	-15.2806
▁�������	-15.2818
rusal	-15.2819
rat	-15.2824
rama	-15.2828
▁�������̴	-15.2837
inar	-15.2842
▁eb	-15.2845
▁pere	-15.2856
zos	-15.2861
Ǹź	-15.2882
▁���̳�����	-15.2883
▁unm	-15.2904
▁lab	-15.2904
▁������	-15.2906
eholder	-15.2909
▁comb	-15.2913
cand	-15.2924
sure	-15.2941
����	-15.2947
edu	-15.2959
▁ua	-15.2966
▁agr	-15.2973
▁kais	-15.2978
terhouse	-15.2986
builder	-15.2988
nx	-15.3003
korea	-15.3009
rga	-15.3015
ime	-15.302
▁colo	-15.3031
������̸�	-15.3045
▁���߼��	-15.3048
񼭽�	-15.3051
▁pent	-15.3057
wards	-15.3063
tac	-15.3069
her	-15.3075
tial	-15.308
sher	-15.3085
hom	-15.3111
kdo	-15.3118
▁tra	-15.312
�̻��	-15.3125
▁oppos	-15.3127
rel	-15.3134
▁���̿1⁄2��	-15.3155
eria	-15.3162
▁astro	-15.3171
▁�˾��	-15.3171
cia	-15.3188
▁discon	-15.3192
̵峪	-15.32
}	-15.3222
⸣��	-15.3222
�˿���	-15.3226
▁pend	-15.3227
���	-15.3234
mbo	-15.324
▁reve	-15.3252
▁irre	-15.3253
�˹��	-15.3259
鿪����	-15.3265
▁detaine	-15.3276
▁�̿����	-15.3279
����	-15.3284
�޴���	-15.3289
▁miles	-15.3294
����͸�	-15.3304
▁�԰��	-15.3306
▁naf	-15.3309
▁dep	-15.3328
▁matt	-15.3329
▁�����	-15.3335
▁medi	-15.3348
▁hana	-15.3369
ider	-15.3369
▁porno	-15.3371
▁exc	-15.3375
bu	-15.3376
Ϻα	-15.3379
ao	-15.3399
▁ral	-15.34
convenien	-15.3404
▁em	-15.3405
▁reacti	-15.3411
cus	-15.3421
agon	-15.3443
ncep	-15.3455
»��·	-15.3464
▁bett	-15.3472
▁counterf	-15.3476
▁pim	-15.3481
vacu	-15.3487
uter	-15.3498
▁���޹޾�	-15.3506
▁banne	-15.3519
▁�������	-15.3525
▁beat	-15.3525
�˶���	-15.3526
�̺��	-15.3527
usa	-15.3531
yon	-15.3539
mis	-15.354
bacc	-15.3556
▁kd	-15.3562
▁���޶���	-15.3563
����̰	-15.3569
���	-15.3573
�𿡰	-15.3575
׵��	-15.3589
▁shou	-15.3593
cu	-15.3606
dala	-15.3611
bro	-15.3615
��̷�����	-15.3616
��׽���	-15.3616
▁�����̼���	-15.362
done	-15.3621
alize	-15.3635
▁mine	-15.3649
dly	-15.3659
�	-15.3671
▁poly	-15.3678
ʹ���	-15.368
▁aver	-15.3704
ign	-15.3706
rc	-15.3714
▁�������̰���	-15.3723
���1⁄4���	-15.3726
sshin	-15.3726
�����̾�	-15.3727
pending	-15.3731
���˴	-15.3733
1⁄4	-15.3736
bed	-15.3738
hia	-15.3745
▁opti	-15.3751
ʺ��	-15.3756
▁establishe	-15.3757
▁retai	-15.3757
߼��	-15.3778
▁gui	-15.3787
utter	-15.3787
�׽��	-15.3796
▁improv	-15.3804
ala	-15.3805
taw	-15.3805
▁christi	-15.381
▁�1⁄2���	-15.3818
𿡼���	-15.3819
cod	-15.3823
rise	-15.3824
▁���͸��	-15.3844
��»���	-15.3845
���	-15.3851
̳�����	-15.3852
ket	-15.3853
owl	-15.3854
Ǫƾ	-15.3863
▁polit	-15.3867
ders	-15.3884
▁cli	-15.3891
▁butterf	-15.3891
▁manufactur	-15.3908
oric	-15.3911
eat	-15.3926
��󰡵	-15.3936
▁atom	-15.3945
�	-15.395
nfre	-15.3951
fr	-15.3956
vet	-15.3961
▁plu	-15.3963
lect	-15.3968
verse	-15.3979
ŷȴ	-15.3986
cula	-15.3988
▁settl	-15.3995
egypti	-15.4001
iaea	-15.4008
▁�����	-15.4009
ander	-15.4012
׶	-15.4024
���̳ʿ�	-15.4026
inburg	-15.4047
hara	-15.4047
fil	-15.4051
▁chris	-15.4053
���·�	-15.4054
sert	-15.4055
south	-15.4056
rency	-15.4058
ital	-15.4059
haus	-15.4062
���׾�	-15.4068
hog	-15.408
�̷��	-15.408
ido	-15.4081
dal	-15.4082
bad	-15.4086
▁kett	-15.4087
portabl	-15.4094
arche	-15.4097
obi	-15.4098
▁hf	-15.4098
▁cub	-15.4101
lie	-15.4103
▁ep	-15.4106
president	-15.4116
▁explo	-15.4117
▁�������1	-15.4123
▁petrol	-15.4132
tique	-15.4132
ters	-15.4142
▁ou	-15.4144
chi	-15.4145
▁rat	-15.4147
▁���̴���	-15.4164
servative	-15.4168
ccc	-15.4176
gression	-15.4179
ʹ޶�	-15.4184
ceo	-15.419
▁�����̿�����	-15.4197
▁�����̱	-15.4198
▁���׷	-15.4199
ergo	-15.4208
train	-15.4209
̼��	-15.4212
yes	-15.4221
▁bob	-15.4232
alist	-15.424
▁cute	-15.4248
▁�����	-15.4253
nent	-15.4255
defr	-15.4256
▁�𽺿�	-15.4256
▁ratt	-15.4257
▁contr	-15.426
new	-15.4261
ssim	-15.4261
eco	-15.4264
▁pep	-15.427
ach	-15.4275
urger	-15.4277
▁���󱹿�	-15.4286
minate	-15.4296
ub	-15.4305
▁lun	-15.4309
cept	-15.4318
ward	-15.433
uga	-15.4331
mun	-15.4333
▁chen	-15.4334
̾����	-15.434
▁actor	-15.4343
final	-15.4348
▁rais	-15.4349
	-15.4364
�鿩	-15.4369
rain	-15.4372
▁fea	-15.4372
eit	-15.4374
ging	-15.438
▁servic	-15.4389
▁ethi	-15.4393
��޶���	-15.4394
spect	-15.4395
warm	-15.4398
nom	-15.4403
�޼���	-15.4404
tle	-15.4404
▁���̼��	-15.4411
▁wish	-15.4413
▁reviv	-15.4413
iss	-15.4415
�3⁄4	-15.4416
��׷�	-15.4416
▁theatr	-15.4418
again	-15.4419
▁declar	-15.4419
richo	-15.442
▁moder	-15.442
ios	-15.4421
bal	-15.4423
iba	-15.4424
cl	-15.443
denn	-15.4432
▁gha	-15.4434
mour	-15.4434
tz	-15.4436
ico	-15.4438
pine	-15.4445
alian	-15.4448
▁comm	-15.4452
ripper	-15.4452
▁weigh	-15.4455
news	-15.4455
gl	-15.4456
tree	-15.4458
imf	-15.4458
qualifi	-15.4462
▁���޻��	-15.4471
abi	-15.4473
▁boxe	-15.4483
scar	-15.4491
aming	-15.4493
apec	-15.4496
lg	-15.45
wha	-15.4503
▁rob	-15.4505
court	-15.4509
ced	-15.451
hair	-15.451
▁ins	-15.4513
▁regi	-15.452
but	-15.4524
¿��	-15.4529
tries	-15.4535
▁ava	-15.4536
economic	-15.4538
doro	-15.4541
fortun	-15.4542
united	-15.4546
anit	-15.4546
bda	-15.4547
▁�߽�������	-15.4548
pala	-15.4548
sale	-15.4553
sense	-15.4554
peace	-15.4556
�̾	-15.456
big	-15.4561
issue	-15.4562
�޸�������	-15.4562
wiki	-15.4567
otes	-15.4567
wild	-15.4575
gha	-15.4578
▁�������	-15.4578
tina	-15.4578
naba	-15.4583
▁accu	-15.4584
amy	-15.4585
phon	-15.4585
green	-15.4587
▁stan	-15.4588
auna	-15.4588
lif	-15.4588
fish	-15.4592
hsbc	-15.4594
▁impl	-15.4595
▁prosec	-15.4596
tery	-15.4596
hak	-15.4598
�̺��̰	-15.46
▁�̶�����	-15.46
��͸���	-15.4603
center	-15.4605
music	-15.4605
play	-15.4605
bolt	-15.4607
sation	-15.4607
force	-15.4607
home	-15.4607
ead	-15.4607
񼭽�����	-15.4608
ev	-15.4609
critic	-15.461
bid	-15.461
	-15.4611
soft	-15.4614
ground	-15.4616
wear	-15.4616
sb	-15.4616
score	-15.4617
case	-15.4617
▁jd	-15.4617
claim	-15.4621
▁investigat	-15.4623
number	-15.4626
▁surro	-15.4626
▁ek	-15.4629
wak	-15.4632
just	-15.4634
cultur	-15.4635
elecommunication	-15.4635
constitutional	-15.4636
psych	-15.4636
dropp	-15.4636
auto	-15.4641
girl	-15.4641
words	-15.4642
negotiation	-15.4643
̲�	-15.4643
site	-15.4645
master	-15.4647
blan	-15.4648
potter	-15.465
build	-15.465
complaint	-15.4651
retail	-15.4651
part	-15.4651
export	-15.4654
colon	-15.4655
sign	-15.4655
campus	-15.4655
condition	-15.4655
olla	-15.4655
▁rocke	-15.4657
room	-15.4657
skt	-15.4658
observ	-15.4659
father	-15.4659
struck	-15.4661
▁comment	-15.4661
awards	-15.4661
license	-15.4662
web	-15.4664
perform	-15.4664
barack	-15.4664
ufo	-15.4665
advisor	-15.4666
birth	-15.4666
▁̧�������	-15.4666
report	-15.4666
tlc	-15.4666
say	-15.4667
info	-15.4667
won	-15.4668
buck	-15.4668
typ	-15.4669
tsa	-15.4669
kee	-15.467
zone	-15.467
acp	-15.467
akp	-15.467
qi	-15.467
special	-15.4672
nfc	-15.4673
wtc	-15.4674
robe	-15.4674
responsib	-15.4675
nations	-15.4675
base	-15.4676
▁hon	-15.4677
kg	-15.4677
sexual	-15.4678
afa	-15.468
circu	-15.4681
course	-15.4681
protein	-15.4683
baa	-15.4683
▁���׺�����	-15.4684
stick	-15.4685
happy	-15.4685
contin	-15.4687
iw	-15.4688
terroris	-15.4688
nnes	-15.4689
real	-15.4693
iara	-15.4693
dsl	-15.4694
tex	-15.4694
strong	-15.4694
uggl	-15.4696
cra	-15.4698
moon	-15.4698
kka	-15.4698
jr	-15.4699
promise	-15.4699
strip	-15.47
yin	-15.47
expected	-15.47
▁aga	-15.47
invest	-15.4705
telecom	-15.4705
nomination	-15.4707
ooter	-15.4709
nnia	-15.4715
gam	-15.4718
decided	-15.4719
▁kl	-15.4719
dj	-15.472
chen	-15.4721
bound	-15.4722
▁visi	-15.4723
credit	-15.4728
estro	-15.4732
▁commu	-15.4733
▁bt	-15.4733
geograph	-15.4733
▁accor	-15.4742
▁expan	-15.4744
identifi	-15.4745
bett	-15.4748
syl	-15.4748
▁attemp	-15.4751
fred	-15.4753
▁impo	-15.4753
sky	-15.4754
este	-15.4755
▁pira	-15.4758
mira	-15.4759
att	-15.476
˽���	-15.4762
mark	-15.4763
▁effi	-15.4764
kom	-15.4769
young	-15.477
thel	-15.4774
�÷��̷�	-15.4775
enada	-15.4777
bec	-15.4777
treat	-15.4785
eia	-15.4787
▁vo	-15.4788
▁divin	-15.4789
vation	-15.479
▁russ	-15.4792
ي	-15.4793
unk	-15.4793
pang	-15.4794
▁writ	-15.4796
cheon	-15.48
ret	-15.4802
enc	-15.4807
ski	-15.4807
tence	-15.4808
lon	-15.4811
▁kenya	-15.4814
itz	-15.4816
post	-15.4817
▁mob	-15.4817
magin	-15.4819
har	-15.482
erce	-15.4822
ppon	-15.4825
▁lame	-15.4825
▁kidnap	-15.4828
rq	-15.4829
review	-15.483
▁impro	-15.4832
bye	-15.4833
coop	-15.4834
▁facto	-15.4835
ergi	-15.4837
nga	-15.4838
�����͸�	-15.484
vac	-15.4842
uda	-15.4847
▁���󱹿���	-15.4847
▁divo	-15.4849
▁comput	-15.4862
�–��	-15.4868
▁conclu	-15.4869
▁ske	-15.487
▁eva	-15.4872
▁write	-15.4874
awyers	-15.4874
cha	-15.4878
▁pun	-15.4878
owners	-15.488
▁abb	-15.4885
wit	-15.4886
phras	-15.4886
denominat	-15.4888
▁teenage	-15.4889
gur	-15.4889
sman	-15.489
▁custom	-15.4891
sun	-15.4892
▁residen	-15.4893
ligent	-15.4895
heo	-15.4897
▁teac	-15.4898
esse	-15.4898
hairwo	-15.4898
▁aboli	-15.4899
▁him	-15.4899
▁pra	-15.4899
�˴�	-15.49
pei	-15.4901
eaves	-15.4902
rts	-15.4903
grav	-15.4904
▁scan	-15.4904
▁imm	-15.4904
▁poss	-15.4906
▁profi	-15.4907
▁champion	-15.4909
򰡿���	-15.4911
▁dunk	-15.4911
nado	-15.4912
▁conflic	-15.4914
etric	-15.4915
▁wrongdoing	-15.4915
▁vessel	-15.4915
amin	-15.4916
▁communication	-15.4916
ibb	-15.4916
▁cop	-15.4916
mistr	-15.4917
▁applica	-15.4918
▁ripp	-15.4918
▁myo	-15.4918
▁ambition	-15.4918
Ḷ	-15.4919
▁machi	-15.492
▁athlet	-15.4921
nvers	-15.4921
▁metri	-15.4922
▁insp	-15.4923
allel	-15.4923
▁villa	-15.4923
▁anim	-15.4924
▁territor	-15.4925
▁technolog	-15.4925
▁recover	-15.4925
▁victor	-15.4925
▁academ	-15.4925
ehra	-15.4926
bloc	-15.4926
▁societ	-15.4926
appro	-15.4927
vate	-15.4927
▁advertis	-15.4927
▁execute	-15.4927
ruff	-15.4928
advis	-15.4928
radic	-15.4928
▁popul	-15.4928
▁engine	-15.4928
▁publi	-15.4928
heel	-15.4928
▁quarte	-15.4928
eject	-15.4928
ecuted	-15.4928
evolution	-15.4928
vastatin	-15.4928
bject	-15.4928
egis	-15.4928
▁militar	-15.4928
▁samsun	-15.4928
egg	-15.4928
vinci	-15.4928
currenc	-15.4928
▁succe	-15.4928
▁initia	-15.4928
𽴿���	-15.4928
tigation	-15.4928
▁ptw	-15.4928
󸮰�	-15.4928
ophysic	-15.4928
▁tonig	-15.4928
velope	-15.4928
▁distr	-15.4928
liban	-15.4928
nufa	-15.4928
▁informa	-15.4928
manche	-15.4928
▁albu	-15.4928
▁bagh	-15.4929
▁dealer	-15.4929
ochemi	-15.4929
tape	-15.4929
horiz	-15.4929
rep	-15.4929
▁turk	-15.4929
ilization	-15.4929
regna	-15.4929
layfa	-15.4929
aband	-15.4929
▁exam	-15.4929
venture	-15.4929
zett	-15.4929
ffer	-15.4929
dcast	-15.493
▁tim	-15.493
ailur	-15.493
ezz	-15.493
▁jai	-15.493
gton	-15.493
▁demon	-15.493
gart	-15.493
trina	-15.493
ismolog	-15.493
hibiti	-15.493
empo	-15.493
nization	-15.493
rosa	-15.493
▁alex	-15.493
▁meas	-15.493
ounce	-15.493
bis	-15.4931
crat	-15.4931
twea	-15.4931
nones	-15.4931
ivax	-15.4932
blo	-15.4932
nski	-15.4932
onia	-15.4932
layla	-15.4932
ivate	-15.4932
tarian	-15.4932
▁roc	-15.4932
▁repu	-15.4932
trik	-15.4932
▁nether	-15.4932
turm	-15.4933
▁perce	-15.4933
ghb	-15.4933
quest	-15.4933
▁pub	-15.4933
oui	-15.4933
riam	-15.4933
▁geri	-15.4933
pak	-15.4933
uther	-15.4933
ellar	-15.4934
▁sail	-15.4934
mpanies	-15.4934
opra	-15.4935
troph	-15.4935
lita	-15.4935
▁icr	-15.4935
▁adver	-15.4935
ctu	-15.4936
oleste	-15.4936
▁expl	-15.4936
▁prob	-15.4936
orti	-15.4936
▁lob	-15.4936
▁washi	-15.4937
oki	-15.4937
irie	-15.4937
enba	-15.4937
dev	-15.4937
mination	-15.4938
obo	-15.4938
▁jac	-15.4938
ichi	-15.4938
mex	-15.4938
adan	-15.4938
ccur	-15.4939
▁jav	-15.4939
ezb	-15.494
ggest	-15.494
▁expecta	-15.494
▁kf	-15.4941
gener	-15.4941
format	-15.4941
zon	-15.4941
wad	-15.4941
polo	-15.4942
nya	-15.4942
▁suppo	-15.4943
▁sug	-15.4944
▁stati	-15.4944
▁sem	-15.4944
bic	-15.4945
omedia	-15.4945
exa	-15.4945
surance	-15.4946
sente	-15.4947
jam	-15.4947
linco	-15.4948
▁champions	-15.4948
▁met	-15.4949
▁emer	-15.4949
luja	-15.495
▁anz	-15.495
▁illeg	-15.495
▁ambass	-15.495
aked	-15.495
▁insti	-15.495
hanc	-15.4952
▁prost	-15.4952
▁crue	-15.4953
usti	-15.4953
chl	-15.4953
ensive	-15.4954
▁stee	-15.4954
▁econ	-15.4955
▁mv	-15.4955
idi	-15.4955
ppy	-15.4956
rtle	-15.4956
fault	-15.4958
▁alon	-15.4958
▁amend	-15.4959
taka	-15.496
venti	-15.4961
prese	-15.4962
lection	-15.4963
ody	-15.4963
tabas	-15.4963
▁cras	-15.4964
fia	-15.4964
▁eurost	-15.4964
esia	-15.4964
▁tribu	-15.4965
▁kissi	-15.4966
dive	-15.4967
ellen	-15.4967
▁forti	-15.4968
▁cj	-15.497
▁pb	-15.4971
▁hb	-15.4972
flick	-15.4972
lays	-15.4972
sau	-15.4972
▁restr	-15.4974
meda	-15.4974
raste	-15.4974
ffi	-15.4974
enced	-15.4974
laborat	-15.4976
▁doo	-15.4976
▁db	-15.4979
▁auth	-15.4979
grace	-15.498
rita	-15.498
ckn	-15.4981
▁amt	-15.4982
▁gf	-15.4982
nova	-15.4982
▁kp	-15.4983
tert	-15.4983
peach	-15.4983
شي	-15.4983
▁insult	-15.4984
latin	-15.4985
orman	-15.4988
zh	-15.4989
fat	-15.4991
ccus	-15.4993
hri	-15.4993
onomy	-15.4995
cisco	-15.4995
ceme	-15.4995
sort	-15.4995
raging	-15.4996
▁immi	-15.5
grati	-15.5002
▁len	-15.5007
cooper	-15.5007
lusa	-15.5009
▁outb	-15.501
thru	-15.501
amble	-15.501
oness	-15.5011
▁unf	-15.5011
uis	-15.5012
ines	-15.5013
hai	-15.5013
nkin	-15.5013
erch	-15.5014
▁dist	-15.5014
ament	-15.5014
opo	-15.5015
tings	-15.5015
׺�����	-15.5016
outh	-15.5017
▁jum	-15.5017
▁likel	-15.5019
dac	-15.5019
▁intens	-15.5023
four	-15.5023
▁accountab	-15.5025
hant	-15.5026
each	-15.5026
▁�׾�������	-15.5027
ssn	-15.5028
rovi	-15.5028
mmers	-15.5029
ovir	-15.5031
urgent	-15.5032
wni	-15.5032
▁sno	-15.5035
fb	-15.5037
1⁄2���	-15.5038
kos	-15.504
err	-15.5041
wr	-15.5041
▁kenne	-15.5046
okin	-15.505
orce	-15.5053
tyra	-15.5054
▁dun	-15.5055
lcon	-15.5056
▁uncle	-15.5059
▁requ	-15.5059
bva	-15.5059
dors	-15.506
▁unp	-15.5061
▁chee	-15.5061
asa	-15.5062
owing	-15.5062
rruption	-15.5066
tronic	-15.5066
▁isa	-15.5074
rfa	-15.5075
omy	-15.5077
persona	-15.5077
▁eme	-15.5084
iest	-15.5084
▁rede	-15.5086
stl	-15.5087
anist	-15.5088
▁indicat	-15.5089
sify	-15.509
��⿴�	-15.509
levi	-15.509
���߽�	-15.5094
ssd	-15.5094
�̾𽺿�	-15.5095
▁pate	-15.5096
dem	-15.5098
sada	-15.5099
lope	-15.51
leno	-15.511
▁coop	-15.5112
yah	-15.5112
��⸸	-15.5118
reporter	-15.5119
▁nap	-15.5119
adri	-15.5122
mee	-15.5125
▁compo	-15.5127
entist	-15.5128
ln	-15.5129
knot	-15.513
¿�����	-15.5132
▁suh	-15.5135
tack	-15.5135
�	-15.5136
mmuni	-15.5139
exca	-15.5145
▁gn	-15.5146
mental	-15.5146
compet	-15.5149
xy	-15.515
ams	-15.5151
ftc	-15.5152
ites	-15.5152
ya	-15.5155
▁telecom	-15.5156
wil	-15.5156
▁psych	-15.5162
▁frie	-15.5166
hali	-15.5167
vel	-15.5177
pcc	-15.5181
older	-15.5183
▁corr	-15.5183
▁�����÷����	-15.5184
fts	-15.5189
sta	-15.519
aho	-15.5193
pse	-15.5196
▁gon	-15.5198
▁tens	-15.5199
patch	-15.5205
▁hei	-15.5207
auda	-15.5209
adol	-15.5214
Ÿŵ	-15.5218
pito	-15.5219
edge	-15.5227
bh	-15.523
▁fal	-15.5233
iles	-15.5234
	-15.5238
▁chas	-15.5239
lara	-15.5241
phu	-15.5242
easing	-15.5243
draw	-15.525
thic	-15.5252
▁tria	-15.5253
sary	-15.5255
▁spri	-15.5256
▁amaz	-15.5257
▁wash	-15.5258
controlle	-15.5264
▁gt	-15.5264
tumbl	-15.5266
rl	-15.5266
▁agen	-15.527
hemi	-15.5283
󱹵���	-15.5291
▁clos	-15.5293
icy	-15.5296
ipulat	-15.5299
eh	-15.5306
zens	-15.5317
▁strat	-15.5319
teg	-15.5322
ims	-15.5323
▁brea	-15.5339
oke	-15.5339
amic	-15.534
▁rag	-15.5344
adia	-15.5344
badr	-15.5344
▁alb	-15.5348
▁essen	-15.535
scribe	-15.5352
ffa	-15.5353
▁ena	-15.5355
▁cour	-15.5358
yph	-15.5375
���޾	-15.5384
���˸�	-15.5397
�1�	-15.5401
����̴	-15.5401
▁�������	-15.5402
▁purp	-15.5407
▁nm	-15.5407
rin	-15.5409
rgo	-15.5412
▁py	-15.5415
ass	-15.5419
ven	-15.5425
opec	-15.5431
▁controlle	-15.544
▁���󽺸�	-15.5444
▁das	-15.5447
ery	-15.5463
gag	-15.5474
uffl	-15.5477
pected	-15.5477
lights	-15.5499
▁ci	-15.5501
rke	-15.5505
lump	-15.5509
▁icb	-15.5516
▁abi	-15.5522
conditional	-15.5526
erfield	-15.5529
▁nl	-15.5531
ollea	-15.5543
▁sus	-15.5545
▁enc	-15.5547
▁rio	-15.5551
rgent	-15.5557
�̽��󿤱�	-15.5563
enal	-15.5564
���׼	-15.5564
sident	-15.5568
strain	-15.5569
yf	-15.5574
��£��	-15.5574
gv	-15.5574
▁iw	-15.558
�޽	-15.5588
npr	-15.5592
ked	-15.5595
urf	-15.5596
▁inve	-15.5598
▁yan	-15.5601
▁dre	-15.5602
▁sco	-15.5612
abor	-15.5613
�˷��׷���	-15.5615
diya	-15.5618
patri	-15.5623
bus	-15.5624
�̵��	-15.5626
construct	-15.5627
reh	-15.5628
▁sprin	-15.5629
▁mass	-15.563
plo	-15.5632
▁bis	-15.5633
▁ob	-15.5646
▁cc	-15.5647
yer	-15.565
▁manu	-15.5652
sid	-15.5656
��ʿ	-15.5665
▁log	-15.5672
sah	-15.5679
rag	-15.5684
▁leve	-15.5685
▁sid	-15.569
hwa	-15.5693
dwar	-15.5695
oxy	-15.5697
mik	-15.5702
onds	-15.5708
reign	-15.5721
▁evi	-15.5726
dget	-15.573
lease	-15.5733
lway	-15.5735
▁abr	-15.5738
�ʾ���	-15.5739
gins	-15.576
otic	-15.5768
nasa	-15.577
dab	-15.5771
▁wars	-15.5774
pla	-15.5776
����׷�	-15.5777
▁�׻��	-15.5777
	-15.5793
nair	-15.5796
▁wx	-15.5802
etting	-15.5806
reed	-15.5807
▁ado	-15.5809
nr	-15.5809
cald	-15.5814
▁viole	-15.582
▁dor	-15.5821
▁edu	-15.5821
▁�������͸�	-15.5823
▁thing	-15.5832
hou	-15.5838
agas	-15.584
▁inst	-15.5841
�����	-15.5841
�̵鿡�	-15.585
halle	-15.5851
▁wr	-15.5857
▁intensifie	-15.5887
semi	-15.589
omorr	-15.589
prk	-15.5891
onat	-15.5903
antu	-15.5903
ues	-15.592
lion	-15.5923
����	-15.5926
▁ston	-15.5934
▁prom	-15.5935
ui	-15.5942
▁manufacture	-15.5946
��޾�	-15.5954
count	-15.5958
runn	-15.5974
�˱��	-15.5977
nber	-15.5981
touris	-15.5983
gram	-15.5997
xo	-15.5999
�˹���	-15.6019
ntolog	-15.6028
anh	-15.603
ums	-15.6037
ndition	-15.6038
aoi	-15.604
��	-15.6053
▁squa	-15.6056
�ʼ�	-15.6058
espa	-15.6059
ddi	-15.6066
lear	-15.6068
▁astr	-15.6077
�׿��	-15.6077
pointe	-15.6079
▁�԰���	-15.6081
��׵�	-15.6086
bran	-15.609
nct	-15.6095
toric	-15.6097
gor	-15.611
flor	-15.6111
▁scor	-15.6118
���¡	-15.6127
▁ue	-15.6147
locat	-15.6151
���	-15.6161
ouch	-15.6169
▁���1⁄4�����	-15.6191
�̱��	-15.6209
ssman	-15.6219
▁xs	-15.6222
restle	-15.6227
voy	-15.6227
▁�����׷	-15.6228
▁ape	-15.6236
host	-15.625
▁ww	-15.6251
▁ui	-15.6251
arch	-15.6254
nme	-15.6257
����	-15.6261
hock	-15.6266
��޿���	-15.6296
fant	-15.6302
���	-15.6306
�𸣰�	-15.6314
�޶�����	-15.6323
cine	-15.6325
▁ami	-15.6326
rof	-15.633
�←��	-15.6336
ʼ���	-15.6338
rch	-15.6347
▁stimulat	-15.6352
�̼��	-15.6362
tems	-15.6364
▁abd	-15.637
acre	-15.64
�����̸	-15.643
▁med	-15.643
ervic	-15.6431
�˷	-15.6435
cw	-15.6438
revers	-15.644
malay	-15.6442
▁�÷�������	-15.6443
�׹�	-15.6445
̷��	-15.6448
▁�⿬������	-15.6449
ocal	-15.6453
��׼�����	-15.6463
ich	-15.6482
▁depo	-15.6506
arge	-15.6514
�ʺ	-15.6522
▁roy	-15.6532
▁rol	-15.6533
eru	-15.6552
▁���˿��	-15.6556
atie	-15.6566
▁offic	-15.6566
aipa	-15.6608
suna	-15.6612
cho	-15.6619
aso	-15.663
card	-15.6631
esid	-15.6638
▁addi	-15.6642
rade	-15.6644
▁dp	-15.6653
▁rev	-15.6655
źġ	-15.6664
𿡵	-15.6666
▁elle	-15.6667
aged	-15.6669
▁lin	-15.6679
▁pul	-15.6685
▁bene	-15.6701
̽û	-15.6715
▁���鿩��	-15.6718
ector	-15.6732
��˻�����	-15.6743
evac	-15.6745
▁�����󽺿�	-15.6767
��޴�	-15.6768
ebs	-15.677
��	-15.6771
▁�߿�����	-15.6775
eap	-15.6777
��޺	-15.678
鿩�	-15.6788
itti	-15.6803
▁monta	-15.6807
����	-15.6815
ips	-15.6854
iah	-15.6864
gto	-15.6868
▁fath	-15.6882
▁asi	-15.6885
▁mala	-15.6885
߾�����	-15.6895
lde	-15.6902
ego	-15.6904
rap	-15.6912
▁�����׽	-15.6926
▁�˱�����	-15.6928
sung	-15.693
lick	-15.6939
���߽	-15.6957
▁confiden	-15.697
��»��	-15.6974
�1⁄4	-15.6974
nsu	-15.6978
wf	-15.6994
aker	-15.6999
��÷���	-15.7017
roke	-15.7057
▁reven	-15.7059
▁ư	-15.7069
maf	-15.7072
haki	-15.7079
▁defe	-15.7082
oli	-15.709
vic	-15.7095
���	-15.7097
itan	-15.7108
oney	-15.7108
wn	-15.711
vant	-15.7181
core	-15.7195
��	-15.7205
vict	-15.7234
▁obse	-15.7235
▁nor	-15.7242
aime	-15.7266
qu	-15.7267
cons	-15.7275
▁yam	-15.728
▁�����޶�	-15.7284
▁ġī	-15.729
ilia	-15.7304
imi	-15.7304
÷��̼�	-15.7358
eight	-15.7359
���̵鿡	-15.7362
▁�󽺺�������	-15.7362
▁shrin	-15.7364
▁phon	-15.7375
�˻��	-15.7391
elico	-15.7403
sled	-15.7404
�࿡��	-15.7417
▁sis	-15.7433
▁��������	-15.746
▁ven	-15.7469
▁�����	-15.747
lvin	-15.7483
▁�����������	-15.7484
moto	-15.7495
▁zo	-15.7502
edite	-15.7504
▁�޸𸮾���	-15.7514
▁�׶�������	-15.7528
tse	-15.7539
󸮿�	-15.7548
homa	-15.7579
▁�̵�����	-15.7601
▁eas	-15.762
alk	-15.7622
liza	-15.7629
▁smalle	-15.7656
▁ame	-15.7669
avia	-15.7672
▁�ʹ��	-15.7673
upt	-15.7684
holes	-15.7685
񼭰���	-15.769
▁int	-15.7704
�1��	-15.7711
�̳��̼�	-15.7713
ġġ	-15.7715
▁�޻��߼����	-15.7742
ake	-15.7756
▁ae	-15.7787
▁�������鿡�	-15.7802
ones	-15.7814
duch	-15.7815
rlin	-15.782
̾	-15.7825
▁wes	-15.7827
࿡�	-15.7831
��̼�����	-15.7863
���򰡵���	-15.7886
unifi	-15.7889
alt	-15.7889
𸣴�	-15.7906
petiti	-15.7922
▁ia	-15.7924
▁�����̹�	-15.7933
cum	-15.7942
▁ara	-15.7944
�����̿���	-15.7949
want	-15.7957
rational	-15.7969
▁mh	-15.7981
aga	-15.7984
▁ret	-15.801
ethic	-15.8052
argo	-15.8067
޾���	-15.8072
doff	-15.8079
loan	-15.8086
▁rela	-15.8089
rior	-15.8091
�鿪��	-15.8093
▁disma	-15.81
▁tride	-15.8118
▁alar	-15.8131
aught	-15.8147
▁rem	-15.8149
cke	-15.8149
igh	-15.8151
tob	-15.8176
▁�������̳	-15.8185
oles	-15.8194
aman	-15.8197
▁�����̽��	-15.8207
�׿	-15.8209
eid	-15.8217
���	-15.8223
�����	-15.8225
▁źƮ	-15.8233
int	-15.8238
▁���鿴�	-15.8239
orse	-15.8244
ault	-15.8269
�׽���	-15.8272
nih	-15.8279
▁amer	-15.8297
1⁄2�����	-15.8298
nju	-15.8316
aphy	-15.8334
sbc	-15.8338
�󸶵	-15.8364
��𿡰�	-15.8376
䷹	-15.8424
͸	-15.8721
	-15.919
	-15.9983
⿩	-16.0238
߼	-16.085
׺	-16.1689
	-16.2631
	-16.3151
𽺸	-16.567
˷	-16.6291
𵨷	-16.7585
̄	-16.8612
󿤷	-16.8613
󸻶	-16.8614
𽽸	-16.8615
䷯	-16.8616
⿭	-16.8617
ث	-16.8618
󱹵	-16.8619
𷹽	-16.862
J	-16.8621
I	-16.8622
񼭰	-16.8623
	-16.8624
󵧰	-16.8625
󱹿	-16.8626
޲	-16.8627
󿡵	-16.8628
󸮿	-16.8629
󰡵	-16.863
򰡴	-16.8631
˳	-16.8632
𽺴	-16.8633
𽴿	-16.8634
󿵵	-16.8635
󽺸	-16.8636
󱼿	-16.8637
󽺹	-16.8638
¢	-16.8639
񳭿	-16.864
󹫱	-16.8641
	-16.8642
←	-16.8643
󸮰	-16.8644
򰡿	-16.8645
𽺿	-16.8646
	-16.8647
𸮽	-16.8648
⿴	-16.8649
󹫺	-16.865
󸶵	-16.8651
񿵸	-16.8652
񽺿	-16.8653
–	-16.8654
𸮾	-16.8655
⸣	-16.8656
󽺿	-16.8657
󸶸	-16.8658
鿪	-16.8659
󸶿	-16.866
񽺰	-16.8661
	-16.8662
⻵	-16.8663
⸮	-16.8664
񿡼	-16.8665
⸧	-16.8666
󸶰	-16.8667
򰡵	-16.8668
󸶴	-16.8669
ʻ	-16.867
𰡵	-16.8671
𿩵	-16.8672
󺸴	-16.8673
񼱰	-16.8674
˺	-16.8675
񼭽	-16.8676
𸣴	-16.8677
⶧	-16.8678
󿤿	-16.8679
	-16.868
˽	-16.8681
˼	-16.8682
ʺ	-16.8683
ʼ	-16.8684
󽺺	-16.8685
𸣰	-16.8686
򿡼	-16.8687
𿡼	-16.8688
󿤱	-16.8689
޻	-16.869
޺	-16.8691
󿤰	-16.8692
˵	-16.8693
!	-16.8694
⵶	-16.8695
	-16.8696
񽺸	-16.8697
󸶳	-16.8698
˿	-16.8699
𸥴	-16.87
	-16.8701
⸶	-16.8702
2	-16.8703
;	-16.8704
˾	-16.8705
޿	-16.8706
»	-16.8707
׻	-16.8708
	-16.8709
¥	-16.871
¶	-16.8711
⿬	-16.8712
˱	-16.8713
̲	-16.8714
˸	-16.8715
?	-16.8716
D	-16.8717
ͅ	-16.8718
ا	-16.8719
4	-16.872
و	-16.8721
ۇ	-16.8722
⁄	-16.8723
̧	-16.8724
́	-16.8725
