<unk>	0
<s>	0
</s>	0
▁	-3.35013
이	-4.32048
▁영화	-4.44223
의	-4.57591
도	-4.62857
가	-4.64338
는	-4.68485
을	-4.83242
에	-4.91926
고	-4.95437
은	-5.0518
다	-5.08161
지	-5.13991
한	-5.32859
를	-5.37731
▁너무	-5.38351
▁이	-5.42873
만	-5.48391
▁정말	-5.49225
로	-5.56281
게	-5.6244
▁진짜	-5.69153
나	-5.69839
과	-5.83507
영화	-5.88971
라	-5.95662
기	-5.96218
어	-5.97106
리	-6.00508
으로	-6.01346
하고	-6.06329
네	-6.06961
인	-6.07387
▁그	-6.08739
서	-6.09426
에서	-6.11858
▁안	-6.13668
▁잘	-6.16949
들	-6.19554
아	-6.20586
▁점	-6.22044
▁왜	-6.22818
▁다	-6.2306
와	-6.23243
▁이런	-6.25511
▁더	-6.27777
▁수	-6.28424
요	-6.29248
▁아	-6.31531
하는	-6.32106
네요	-6.3299
▁그냥	-6.36266
해	-6.37498
면	-6.42068
거	-6.4227
지만	-6.46432
자	-6.46876
▁드라마	-6.48046
▁본	-6.49303
수	-6.51083
스	-6.53333
음	-6.53645
시	-6.56294
▁내	-6.57299
▁연기	-6.57353
▁보고	-6.57451
▁평점	-6.59316
▁ᄏᄏ	-6.60927
니	-6.62249
함	-6.62414
야	-6.62602
▁한	-6.64279
▁좀	-6.67334
대	-6.67448
사	-6.67507
▁영화를	-6.68165
▁개	-6.68333
하게	-6.71389
▁참	-6.72131
이다	-6.75835
▁스토리	-6.77194
는데	-6.78511
일	-6.79112
하다	-6.79888
하	-6.79892
▁못	-6.81356
▁이거	-6.81549
▁나	-6.82115
▁봤는데	-6.82579
▁쓰레기	-6.82993
데	-6.83015
진	-6.83206
▁내가	-6.83506
▁최고	-6.83617
▁이건	-6.83731
보	-6.83974
▁없는	-6.84194
▁완전	-6.84205
주	-6.84423
임	-6.84608
미	-6.84642
여	-6.84778
드	-6.84941
할	-6.8598
던	-6.86248
▁영화가	-6.87089
우	-6.87557
▁영화는	-6.87967
보다	-6.88708
구	-6.88977
들이	-6.89416
▁최고의	-6.89929
해서	-6.91321
성	-6.91552
▁없다	-6.91844
▁있는	-6.9306
▁좋은	-6.94395
까지	-6.96144
안	-6.97039
▁보는	-6.97264
▁것	-6.97645
▁이렇게	-6.97946
▁난	-6.97967
▁이게	-6.98146
신	-6.987
▁다시	-6.994
냐	-6.99448
▁보	-7.00076
듯	-7.02554
정	-7.03525
적	-7.04108
▁말	-7.0456
건	-7.04638
랑	-7.04895
치	-7.05022
중	-7.0626
▁그리고	-7.06791
상	-7.06888
트	-7.0879
▁뭐	-7.0946
전	-7.10141
▁지	-7.10722
▁오	-7.10938
▁저	-7.11001
▁시간	-7.12502
보고	-7.13008
▁대	-7.13066
▁하	-7.13188
부	-7.13419
▁평점이	-7.14076
▁전	-7.15285
려	-7.15533
▁많이	-7.15703
장	-7.16409
▁넘	-7.16603
▁역시	-7.16896
인데	-7.17305
습니다	-7.17377
▁주	-7.17762
▁ᄏᄏᄏ	-7.18949
물	-7.18954
▁재밌게	-7.19041
마	-7.2009
▁ᄏ	-7.20578
▁또	-7.20582
질	-7.20603
▁작품	-7.21649
▁마지막	-7.22004
히	-7.22968
▁가	-7.23082
▁생각	-7.23093
비	-7.23663
▁볼	-7.23703
▁감독	-7.23983
원	-7.27358
러	-7.27575
▁ᅲᅲ	-7.28249
▁감동	-7.28482
▁별로	-7.28522
▁하는	-7.29602
▁재미	-7.29883
오	-7.30967
급	-7.31258
용	-7.31619
것	-7.31692
▁무	-7.31693
ᄏᄏ	-7.31739
▁자	-7.3244
▁꼭	-7.32635
감	-7.33376
때	-7.33504
어요	-7.33828
화	-7.33857
적인	-7.34088
했다	-7.34549
▁지금	-7.35247
소	-7.35252
입니다	-7.36058
▁무슨	-7.3615
▁사	-7.36236
▁별	-7.36412
라고	-7.36576
▁일	-7.37265
▁액션	-7.37933
하지	-7.38866
제	-7.39623
▁다른	-7.3989
▁가장	-7.40055
▁없고	-7.40465
같은	-7.4056
▁기대	-7.41364
▁하나	-7.42119
말	-7.42289
걸	-7.4312
내	-7.44184
▁이야기	-7.4529
▁기	-7.45364
본	-7.45424
▁할	-7.45939
세	-7.46085
▁보면	-7.46254
이나	-7.46368
란	-7.46975
▁아깝다	-7.47336
▁비	-7.47424
▁정	-7.47493
영	-7.47624
▁중	-7.47724
▁마	-7.47913
ᄏ	-7.47983
▁만든	-7.48218
▁배우	-7.48365
▁유	-7.48456
▁명작	-7.48738
식	-7.48756
▁조	-7.48836
▁김	-7.49201
된	-7.49276
남	-7.50357
▁ᅳᅳ	-7.50499
▁아니	-7.51311
▁한국	-7.51484
부터	-7.51661
당	-7.51903
선	-7.5198
작	-7.52793
씨	-7.52821
없는	-7.5327
더	-7.53338
그	-7.53469
▁분	-7.53806
무	-7.53983
에게	-7.54322
▁미	-7.54385
▁사랑	-7.5443
좀	-7.54469
▁내용	-7.54689
▁년	-7.54939
군	-7.5566
줄	-7.56467
있는	-7.56478
르	-7.56616
개	-7.57269
▁ᄒᄒ	-7.57787
▁와	-7.57835
▁연출	-7.58014
▁처음	-7.59052
▁느낌	-7.59207
인지	-7.59847
디	-7.5996
▁하지만	-7.60173
모	-7.60298
▁편	-7.60312
으면	-7.60451
▁일본	-7.60675
▁돈	-7.60737
▁같은	-7.60842
라는	-7.60916
▁어	-7.6113
▁좋아	-7.61235
▁때	-7.61524
조	-7.62044
호	-7.62178
▁짱	-7.62275
드라마	-7.62648
▁말이	-7.63261
▁끝까지	-7.63399
긴	-7.63976
한다	-7.64177
▁거	-7.64593
동	-7.64712
연	-7.65066
린	-7.65078
간	-7.65234
▁두	-7.66859
▁솔직히	-7.66894
울	-7.67189
▁시	-7.67744
▁ᅲ	-7.67846
▁영화다	-7.68628
▁뭔가	-7.687
▁있다	-7.68762
들의	-7.69029
▁전혀	-7.69219
크	-7.69401
심	-7.69491
며	-7.69536
처럼	-7.69715
타	-7.69816
유	-7.69896
죠	-7.69963
운	-7.70128
▁사람	-7.70226
▁좋다	-7.7028
▁제	-7.70493
면서	-7.7123
래	-7.71261
▁구	-7.71906
바	-7.71972
▁여자	-7.71977
었다	-7.72023
▁해	-7.72333
▁애	-7.72734
▁알	-7.73092
▁아주	-7.73447
▁세	-7.73989
▁모	-7.74758
▁신	-7.74794
되는	-7.7493
난	-7.74962
▁같다	-7.75268
판	-7.75393
ᄏᄏᄏ	-7.75539
두	-7.75618
했던	-7.75773
▁남	-7.75795
▁대한	-7.75997
▁그래도	-7.76307
인가	-7.76637
길	-7.76674
구나	-7.7673
합니다	-7.76745
생	-7.76772
▁후	-7.77283
워	-7.7743
▁봤다	-7.78182
위	-7.78296
레	-7.78344
▁많은	-7.79253
▁이영화	-7.79375
분	-7.7978
▁근데	-7.7987
▁최악	-7.79918
준	-7.80206
노	-7.80723
▁봐도	-7.80781
▁이걸	-7.80947
루	-7.80956
이랑	-7.81214
명	-7.81258
▁어떻게	-7.81392
▁반	-7.81464
▁박	-7.8187
▁소	-7.82029
단	-7.82144
▁배우들	-7.82157
▁부	-7.82161
▁살	-7.82608
▁모두	-7.82797
▁줄	-7.82826
들은	-7.82829
▁계속	-7.82853
국	-7.82924
경	-7.83174
▁그런	-7.83276
이라	-7.83496
방	-7.83752
때문에	-7.83774
▁최악의	-7.84164
날	-7.84276
▁대박	-7.84467
재	-7.84479
▁내용이	-7.84703
하면	-7.84953
▁코미디	-7.8499
▁재밌다	-7.8506
희	-7.85105
▁아니라	-7.85192
▁만들어	-7.85951
▁아닌	-7.86123
차	-7.86445
▁재미있게	-7.86479
▁모든	-7.8671
▁내내	-7.86719
민	-7.8698
림	-7.87239
▁인생	-7.87322
진짜	-7.87453
▁나오는	-7.87526
잘	-7.87532
지는	-7.88624
저	-7.88736
▁딱	-7.88913
▁강	-7.88927
▁남자	-7.89099
▁않고	-7.89108
티	-7.89214
프	-7.89266
▁진	-7.89487
▁보다	-7.89541
▁되	-7.90066
▁실망	-7.90079
없이	-7.90107
봤는데	-7.90197
▁주인공	-7.903
▁보기	-7.90424
님	-7.90577
든	-7.90807
▁우	-7.9101
▁하고	-7.91054
▁번	-7.91366
관	-7.91436
▁요즘	-7.91571
▁장	-7.91662
▁이상	-7.91857
발	-7.9227
▁원	-7.92436
▁조금	-7.92437
▁이제	-7.92462
▁한번	-7.92653
▁명	-7.92707
▁공포	-7.92726
엔	-7.92926
한테	-7.92979
편	-7.93055
점	-7.93056
하나	-7.9319
터	-7.93303
적으로	-7.93448
▁불	-7.9373
▁스	-7.94315
까	-7.95395
연기	-7.95833
후	-7.95866
겠다	-7.9598
▁바	-7.96083
▁음악	-7.96105
파	-7.96418
지도	-7.96799
▁우리	-7.96942
ᅲᅲ	-7.97526
이라는	-7.97709
▁반전	-7.97738
▁감독이	-7.97743
▁욕	-7.98054
▁이해	-7.98135
▁연기가	-7.98418
▁아니다	-7.98707
o	-7.98741
▁아름다운	-7.98786
▁특히	-7.98903
버	-7.98942
▁끝	-7.9899
▁기억	-7.99096
▁배	-7.99167
▁듯	-7.99344
▁건	-7.99353
▁내용도	-7.99481
▁스릴러	-7.99733
못	-7.99824
▁속	-8.00061
▁굿	-8.00123
하네	-8.00263
▁추천	-8.00337
애	-8.00434
보면	-8.00822
▁제일	-8.00861
▁전개	-8.00941
▁개봉	-8.01051
▁연기도	-8.01122
▁울	-8.01162
겨	-8.01352
▁만드는	-8.01537
▁눈	-8.01541
▁보다가	-8.02043
어서	-8.02301
너무	-8.025
▁스토리가	-8.03238
▁시간이	-8.03298
려고	-8.0338
되	-8.03515
▁차라리	-8.03708
▁않은	-8.03761
하지만	-8.03856
▁제대로	-8.04215
즈	-8.04307
▁위	-8.04348
▁절대	-8.04405
▁수준	-8.04584
니까	-8.04629
▁재	-8.04821
없다	-8.04874
산	-8.04966
▁여	-8.0528
▁현실	-8.05354
▁나는	-8.05572
▁파	-8.05737
형	-8.0594
▁않는	-8.05954
▁정도	-8.05981
▁장면	-8.06113
▁초	-8.06166
살	-8.06176
▁애니	-8.06189
▁싶다	-8.06313
▁OO	-8.06517
져	-8.06818
하네요	-8.06829
실	-8.06907
다니	-8.07098
박	-8.07154
망	-8.07312
▁없	-8.07345
▁막장	-8.07388
▁나오	-8.07763
▁가족	-8.0779
달	-8.07799
이란	-8.08232
▁점도	-8.08242
▁재미없다	-8.08257
현	-8.0826
▁년대	-8.08511
▁발	-8.0879
년	-8.08938
▁미국	-8.09064
▁ᅳ	-8.0915
ᅳᅳ	-8.0916
▁재밌	-8.0931
▁ᄏᄏᄏᄏ	-8.09402
▁대사	-8.09504
반	-8.09563
▁연기력	-8.09575
▁걸	-8.09644
e	-8.09705
▁동	-8.09894
다가	-8.10188
▁아니고	-8.10266
▁캐릭터	-8.10493
키	-8.10524
▁공감	-8.10711
카	-8.11236
이고	-8.11586
▁재미도	-8.11615
피	-8.11715
▁진심	-8.11759
생각	-8.11856
▁도대체	-8.11956
▁여운이	-8.12354
▁아직도	-8.12617
▁노	-8.12753
토	-8.12771
▁심	-8.12868
하기	-8.13016
들을	-8.13214
건지	-8.13217
▁남는	-8.13219
▁나름	-8.13227
▁만들	-8.13278
공	-8.1367
▁공	-8.13912
▁인	-8.14328
▁피	-8.14434
▁때문에	-8.14714
먹	-8.14868
는거	-8.14879
▁걍	-8.14906
▁표현	-8.15006
▁스토리도	-8.15671
▁마지막에	-8.15862
▁우리나라	-8.16119
▁결말	-8.16229
▁원작	-8.16229
ᅲ	-8.16272
▁보면서	-8.16322
매	-8.16678
▁아까운	-8.16823
▁영화라고	-8.16952
릴	-8.17075
▁사람들	-8.17401
▁ᄒ	-8.17594
▁제목	-8.17599
이라고	-8.17679
▁엄청	-8.17908
인듯	-8.17999
▁나도	-8.18202
배우	-8.18569
▁주는	-8.18906
▁날	-8.19027
예	-8.19082
라도	-8.19182
보는	-8.1953
▁오랜만에	-8.19583
볼	-8.19954
▁사실	-8.20024
석	-8.20167
테	-8.202
▁나온	-8.20371
▁좋았다	-8.20612
▁감독의	-8.20619
▁성	-8.20704
▁눈물	-8.20731
던데	-8.20893
▁되는	-8.2108
▁영화의	-8.21128
했는데	-8.21151
문	-8.21348
뿐	-8.21367
▁연	-8.21426
▁영상	-8.21511
▁공포영화	-8.21769
▁예	-8.21992
▁영화입니다	-8.22038
것도	-8.22375
없	-8.2244
▁B	-8.2254
으	-8.22916
▁화	-8.22931
집	-8.23061
는게	-8.23598
▁있	-8.2366
▁뻔한	-8.23661
▁오늘	-8.23711
해요	-8.23765
▁멋진	-8.24143
▁소재	-8.2415
녀	-8.24213
속	-8.24218
▁영	-8.24255
▁이해가	-8.24395
체	-8.24465
▁시리즈	-8.24716
▁필요	-8.24881
역	-8.24881
▁될	-8.24933
▁맞	-8.25213
▁쓰	-8.25222
▁시작	-8.25565
해도	-8.25778
▁보는내내	-8.26233
▁개인적으로	-8.26385
▁차	-8.26565
▁인간	-8.27118
▁기분	-8.27186
▁긴장감	-8.27208
극	-8.27209
▁배우들의	-8.27212
따	-8.27281
격	-8.27601
▁좋아하는	-8.27655
▁지루하고	-8.27679
▁머	-8.27738
▁강추	-8.27749
였다	-8.27791
태	-8.27882
▁망	-8.27902
▁막	-8.27945
포	-8.2812
학	-8.28171
▁좋고	-8.28435
▁매	-8.28462
는지	-8.28713
▁뭘	-8.28848
▁없음	-8.28862
▁뭔	-8.28874
▁가슴	-8.28878
▁수작	-8.28928
▁몇	-8.28943
▁그저	-8.29151
▁생각이	-8.29157
▁봤던	-8.29341
있다	-8.29368
▁지루한	-8.29403
배	-8.29536
짱	-8.29904
코	-8.30052
▁ᅮᅮ	-8.30054
▁어떤	-8.30081
▁아무리	-8.30286
장면	-8.30444
력	-8.30473
사람	-8.30511
쳐	-8.30535
▁재미가	-8.30713
밖에	-8.30716
더라	-8.30858
▁지루함	-8.31103
죽	-8.31324
▁들	-8.31638
▁노래	-8.32027
▁봤습니다	-8.32083
▁재밌어요	-8.32366
정도	-8.32553
▁재밌는	-8.32608
▁된	-8.32666
▁싶은	-8.32673
▁허	-8.32845
움	-8.33063
a	-8.33074
었는데	-8.33353
▁호	-8.33359
▁OOO	-8.33588
▁설정	-8.33858
▁함께	-8.33955
▁재밋	-8.34028
▁사람이	-8.34042
▁알바	-8.34162
봤다	-8.34282
리는	-8.34304
▁제발	-8.34337
만큼	-8.34552
▁아이	-8.34601
▁베	-8.34792
능	-8.34793
잡	-8.34841
계	-8.35042
▁점이	-8.35262
락	-8.35359
▁몰입도	-8.35472
꺼	-8.35522
▁큰	-8.35635
▁영화에	-8.35768
▁캐스팅	-8.35793
▁졸작	-8.35794
▁웃	-8.35926
론	-8.35963
▁얼마나	-8.35985
▁괜찮은	-8.36229
▁없이	-8.363
하며	-8.36302
불	-8.36417
t	-8.36432
▁한국영화	-8.36498
▁애니메이션	-8.365
류	-8.36767
▁않	-8.3679
▁시나리오	-8.36875
▁결국	-8.3697
▁최	-8.37434
행	-8.37641
아니	-8.37738
▁후회	-8.37833
▁최고다	-8.37932
정말	-8.38345
▁보세요	-8.38556
▁선	-8.38632
▁류	-8.38643
종	-8.38662
▁못한	-8.38848
른	-8.38902
중에	-8.39241
갈	-8.39691
▁작가	-8.40302
▁안되는	-8.40504
▁더빙	-8.40512
대로	-8.41131
구만	-8.41586
▁회	-8.41748
▁그렇게	-8.41834
▁물	-8.41903
하면서	-8.41963
등	-8.41966
설	-8.42525
을까	-8.42571
▁만화	-8.42583
봐도	-8.42866
▁외	-8.4306
▁영화로	-8.43154
▁매우	-8.43308
▁기억에	-8.43368
▁억지	-8.43453
름	-8.43657
글	-8.43848
주는	-8.4392
봄	-8.44149
▁연기는	-8.44239
업	-8.44566
회	-8.44754
담	-8.44791
▁상	-8.44974
▁토	-8.4503
▁웃음	-8.45091
▁점은	-8.45148
▁평	-8.45201
케	-8.45362
▁극장에서	-8.454
교	-8.45637
▁별점	-8.45701
슨	-8.45989
▁총	-8.46012
▁단	-8.46017
▁코믹	-8.4607
통	-8.4608
▁만	-8.46568
양	-8.46691
▁너	-8.46899
입	-8.4714
▁같이	-8.47226
▁지루하다	-8.47318
악	-8.47372
알	-8.47422
▁예술	-8.47428
▁애들	-8.47503
▁길	-8.47698
했	-8.47706
▁분위기	-8.47957
넘	-8.47968
했음	-8.48118
▁그래서	-8.48153
기도	-8.48196
▁아무	-8.48228
왜	-8.48297
ᄏᄏᄏᄏ	-8.48368
절	-8.48827
▁너무나	-8.48998
▁행복	-8.49167
▁당	-8.49174
▁중국	-8.49239
▁죽	-8.49257
▁웃기	-8.49322
스트	-8.49631
▁준	-8.49666
머	-8.49914
번	-8.49958
씬	-8.50054
▁모르겠다	-8.50154
버린	-8.50474
하는데	-8.50581
▁들어	-8.50636
▁하나도	-8.50828
▁간	-8.50907
▁치	-8.50942
▁마음이	-8.50953
▁한다	-8.50955
▁문제	-8.51278
기는	-8.51323
재밌	-8.51366
난다	-8.51436
▁것이	-8.51459
▁약	-8.51484
보단	-8.51589
▁엔딩	-8.51632
기에	-8.51779
▁있고	-8.51862
돌	-8.52143
법	-8.52394
이지만	-8.52796
▁내용은	-8.52821
스토리	-8.52839
▁대체	-8.53023
▁잼	-8.53055
▁존	-8.53167
▁봤어요	-8.53335
d	-8.53343
▁않는다	-8.53493
이야	-8.53547
▁보게	-8.53588
ᄒᄒ	-8.53667
▁정신	-8.53762
▁그나마	-8.53825
작품	-8.53828
▁누가	-8.53868
▁자기	-8.53978
▁타	-8.53993
군요	-8.54057
▁위해	-8.54117
결	-8.54198
▁위한	-8.54283
았	-8.54353
투	-8.54531
적이	-8.54553
▁악	-8.5458
된다	-8.54584
내용	-8.5472
봐	-8.54734
▁알고	-8.54942
▁주연	-8.55061
이었다	-8.55266
▁실	-8.55472
▁글	-8.556
▁느낌이	-8.55746
▁보지	-8.55796
았다	-8.55817
▁좋아요	-8.55821
▁존나	-8.55881
▁없어	-8.55924
참	-8.56022
증	-8.56077
▁CG	-8.56254
▁미친	-8.56409
▁점대	-8.56413
강	-8.56436
▁눈물이	-8.56465
감독	-8.56499
▁로맨스	-8.569
순	-8.57068
▁추	-8.57098
천	-8.57379
금	-8.57457
었던	-8.57498
▁그만	-8.57638
▁잡	-8.57727
▁출연	-8.57877
▁걸작	-8.57932
이네	-8.58027
▁똥	-8.58226
▁등	-8.58361
잼	-8.58421
였	-8.58455
s	-8.58465
▁입	-8.58482
이네요	-8.58511
창	-8.58564
▁결말이	-8.58603
블	-8.58692
▁백	-8.58725
▁적	-8.58756
▁봐야	-8.58756
▁졸	-8.58771
다고	-8.58828
ᄒ	-8.58843
▁있었	-8.59052
평	-8.59123
해야	-8.59297
▁갈수록	-8.59349
▁잠	-8.59434
칠	-8.59478
▁훨씬	-8.59487
▁가슴이	-8.59588
▁있을	-8.59711
▁감동이	-8.59854
▁높	-8.59863
▁전쟁	-8.59906
▁극	-8.59948
▁모습	-8.60165
났	-8.6024
▁음	-8.60249
너	-8.60333
h	-8.6037
▁엄마	-8.60594
병	-8.60677
인줄	-8.60787
▁많	-8.61165
보니	-8.61175
▁매력	-8.61196
▁어느	-8.61215
소리	-8.61347
▁밖에	-8.61422
▁그러	-8.61607
엇	-8.61702
ᅮᅮ	-8.61878
슬	-8.61955
▁꽤	-8.6199
온	-8.62039
▁의미	-8.62154
쓰	-8.62235
어야	-8.6239
▁먹	-8.62499
▁마음	-8.62507
뻔	-8.62679
▁감	-8.62797
출	-8.62829
색	-8.62976
▁구성	-8.63064
▁시즌	-8.6309
▁발연기	-8.63132
라면	-8.63268
▁열	-8.63494
나요	-8.63499
베	-8.63531
c	-8.63757
▁안되	-8.63766
▁경	-8.63885
▁다큐	-8.64013
▁노잼	-8.64059
▁기억이	-8.64404
▁포스터	-8.64438
▁어설픈	-8.64448
건가	-8.64587
막	-8.64592
▁없었다	-8.64602
짓	-8.64798
평점	-8.64809
▁유치	-8.64847
▁간만에	-8.64962
▁허접	-8.65009
렸	-8.65034
▁재밌음	-8.65146
될	-8.65147
▁다들	-8.65267
▁변	-8.65343
였음	-8.65344
▁연기를	-8.65386
▁야	-8.65519
싶	-8.65589
언	-8.65636
표	-8.65778
▁딸	-8.66088
▁영화네요	-8.66386
▁감동도	-8.66481
▁재밌고	-8.66741
▁따라	-8.66815
잇	-8.66835
수준	-8.6688
▁자체	-8.67103
환	-8.67218
짜	-8.67253
▁보여주는	-8.67468
기를	-8.6755
▁성룡	-8.67562
▁잔잔한	-8.67748
라서	-8.67753
거지	-8.67815
짐	-8.67881
▁손	-8.67976
사랑	-8.67981
거야	-8.67991
▁카	-8.68283
듯한	-8.68453
▁영화관에서	-8.68453
추	-8.68459
최고	-8.68474
▁아쉽다	-8.68789
▁힘	-8.68836
이라도	-8.68884
리고	-8.68928
▁당시	-8.69018
있	-8.69031
이지	-8.69097
▁않다	-8.69106
▁ᅮ	-8.69537
▁지루	-8.69701
▁뿐	-8.69726
▁얘기	-8.70044
에도	-8.70122
나오는	-8.70241
수가	-8.70254
▁스릴	-8.70261
권	-8.70263
▁영화중	-8.70647
▁상황	-8.7067
▁장난	-8.7072
▁쓰레기영화	-8.70739
할때	-8.70916
▁관객	-8.70976
▁여주인공	-8.71365
졌	-8.7137
▁올	-8.71378
▁멋있	-8.71604
▁평가	-8.71676
▁찾아	-8.71733
됨	-8.71967
▁소리	-8.7198
백	-8.72021
▁진정한	-8.72095
▁다음	-8.72095
겠지	-8.72122
▁코	-8.72284
▁이딴	-8.72316
▁볼만한	-8.7244
▁사람들이	-8.72544
근	-8.72655
있고	-8.72761
왕	-8.72863
▁데	-8.7287
▁주고	-8.72922
쓰레기	-8.73001
열	-8.73024
끼	-8.73245
▁존재	-8.7328
더니	-8.73295
없고	-8.73379
▁네이버	-8.73459
치는	-8.73462
▁영상미	-8.73562
▁잼있	-8.73641
합	-8.73683
▁재미없음	-8.73817
▁바로	-8.73827
겠	-8.73934
승	-8.73952
▁재미없	-8.74041
땜에	-8.74106
l	-8.74122
▁아님	-8.74184
아서	-8.74265
▁맘에	-8.74331
해라	-8.74525
▁배경	-8.7467
▁배우들이	-8.75037
▁전부	-8.75065
친	-8.75068
▁약간	-8.75072
덕	-8.75117
▁감동적인	-8.75179
▁여기	-8.7524
▁생각보다	-8.75292
▁버	-8.75354
▁오래	-8.75484
찍	-8.75614
▁영화였다	-8.75632
▁이름	-8.75644
스러운	-8.75692
▁담	-8.75792
▁친구	-8.75815
혀	-8.7596
▁메	-8.76004
▁좋은데	-8.76061
는건	-8.76076
▁중간에	-8.76207
▁생	-8.76443
▁역	-8.76507
▁갈	-8.76596
느	-8.76611
▁상당히	-8.76625
▁얼굴	-8.76635
▁산	-8.7674
복	-8.76798
웃	-8.76869
척	-8.76893
맨	-8.76908
▁첨	-8.76911
▁각본	-8.76947
었음	-8.77034
▁같아요	-8.77034
재미	-8.77035
▁같	-8.77105
초	-8.77197
▁것을	-8.77247
▁재미있는	-8.77256
린다	-8.77299
잔	-8.77316
▁않았	-8.77587
느낌	-8.77645
외	-8.77698
▁살아	-8.777
▁있을까	-8.77704
▁그러나	-8.77894
▁스토리는	-8.77946
약	-8.77981
▁대해	-8.78031
새	-8.78119
직	-8.78148
▁생각을	-8.78377
▁나올	-8.78428
광	-8.7845
▁재미있다	-8.78467
▁재미는	-8.78687
니다	-8.78773
▁것도	-8.78874
각	-8.78903
▁그대로	-8.79176
▁나왔	-8.79305
▁판타지	-8.79411
다는	-8.79488
▁거의	-8.79622
쉬	-8.79739
었어요	-8.7979
▁높은	-8.79835
▁줄거리	-8.79961
액션	-8.79973
께	-8.80043
▁준다	-8.80044
▁레	-8.80205
기만	-8.80206
▁감성	-8.80411
브	-8.80499
▁리	-8.80529
▁충격	-8.80554
r	-8.8058
했지만	-8.8066
영화는	-8.80932
▁꿈	-8.81109
▁같은데	-8.81117
▁b	-8.8112
▁천	-8.81214
▁했는데	-8.81345
목	-8.81429
돈	-8.81489
▁암	-8.81489
으나	-8.81523
감동	-8.81624
구요	-8.81792
셨	-8.81873
놈	-8.8191
만한	-8.82021
라니	-8.82059
▁재미없는	-8.82098
낸	-8.82135
▁왕	-8.82293
▁감동을	-8.82334
▁혼자	-8.82519
술	-8.8266
▁뭐지	-8.82811
▁재미있	-8.82873
▁정도로	-8.82905
재밋	-8.83093
▁이영화를	-8.83104
▁깨	-8.83147
▁ᄍᄍ	-8.83213
▁점수	-8.83235
g	-8.83339
▁좋	-8.83379
없음	-8.83509
▁추억	-8.83596
▁장르	-8.83629
료	-8.83689
▁멜로	-8.83811
▁뭐야	-8.83828
▁팬	-8.83934
▁나와서	-8.83952
▁언제	-8.83991
레이	-8.84029
▁순	-8.84207
▁주제	-8.84239
▁갑자기	-8.84406
것이	-8.84412
주의	-8.846
들에게	-8.84628
y	-8.84647
치고	-8.84689
션	-8.84695
▁부족	-8.84854
▁아버지	-8.84968
▁감정	-8.85008
▁아직	-8.85079
에선	-8.85087
▁저런	-8.85092
▁집중	-8.85246
뭐	-8.85304
▁있지만	-8.85345
▁훌륭한	-8.85588
▁크	-8.85644
향	-8.85647
커	-8.85695
침	-8.85844
않	-8.85907
▁양	-8.8594
▁봤지만	-8.85969
▁예상	-8.86038
▁제가	-8.86048
나는	-8.86115
▁어디서	-8.86155
분들	-8.86327
▁감독님	-8.86421
이야기	-8.86596
▁굉장히	-8.8662
▁종	-8.86631
▁삼	-8.86675
조차	-8.868
▁원작을	-8.86937
김	-8.86953
▁된다	-8.87004
▁초딩	-8.87037
플	-8.87066
▁영화인데	-8.87091
▁머리	-8.87233
진다	-8.87308
▁방송	-8.87358
▁제작	-8.87369
을때	-8.87436
▁새로운	-8.87581
▁여배우	-8.87659
에는	-8.87791
▁몰입	-8.87839
▁누구	-8.87848
앗	-8.87868
▁말도	-8.87911
▁끝나	-8.87916
채	-8.88014
▁계	-8.88051
▁일단	-8.88076
햇	-8.88238
들도	-8.88295
련	-8.88323
철	-8.88338
▁아이들	-8.88347
처	-8.88363
▁봐서	-8.88385
▁달	-8.88461
▁뻔	-8.88463
▁나이	-8.88582
존	-8.88626
욕	-8.8865
곡	-8.88654
▁금	-8.88665
같이	-8.88721
▁몸	-8.88781
▁현	-8.8895
퍼	-8.88989
▁역사	-8.89047
▁빨리	-8.89093
▁장면이	-8.89136
▁보니	-8.89313
놓고	-8.89341
▁실화	-8.8939
▁낮은	-8.8951
▁극장판	-8.89536
▁년이	-8.89597
좋아	-8.89616
▁그리	-8.89619
▁질	-8.8962
▁이런영화	-8.89777
훈	-8.89819
▁화면	-8.89857
▁요	-8.89899
▁태	-8.89918
▁사회	-8.9007
▁비교	-8.90162
▁찾	-8.90216
빈	-8.90371
▁관	-8.90455
m	-8.90518
▁주인공이	-8.90525
시대	-8.9059
했습니다	-8.90697
되어	-8.90759
츠	-8.90822
들어	-8.90832
정도로	-8.90847
▁점을	-8.90874
나오	-8.9101
건데	-8.91023
탈	-8.91078
▁터	-8.91218
할수	-8.91308
▁어색	-8.91336
었	-8.91419
겠지만	-8.91423
메	-8.91486
좋	-8.91626
▁있어서	-8.9179
▁흥행	-8.91842
▁영화임	-8.92096
▁패	-8.92107
혜	-8.9216
▁항상	-8.92162
▁헐	-8.92202
지루	-8.92248
▁윤	-8.92258
▁뭐냐	-8.92275
▁재밌네요	-8.92325
▁맛	-8.92334
범	-8.92412
줘	-8.92463
이라면	-8.926
하여	-8.926
▁성우	-8.92735
여자	-8.92874
▁비해	-8.9305
▁포	-8.93244
잖아	-8.93342
▁처음부터	-8.93382
▁보여주	-8.93419
▁만점	-8.93504
▁마음에	-8.93506
▁생각하게	-8.93515
▁D	-8.93524
▁감동적이	-8.93601
보기	-8.93698
▁책	-8.93708
ᅮ	-8.93876
슴	-8.93922
▁저는	-8.93957
i	-8.94156
쯤	-8.94161
봐서	-8.94221
시간	-8.94238
▁찍	-8.94366
▁대단한	-8.94514
▁작	-8.94519
▁개연성	-8.94565
▁물론	-8.94585
빠	-8.94614
▁비디오	-8.94648
▁평점을	-8.94707
영화를	-8.9473
습	-8.94829
▁충분히	-8.94904
▁좋은영화	-8.94981
▁되어	-8.95046
▁TV	-8.95129
▁여주	-8.95278
한거	-8.95361
▁하지	-8.9541
록	-8.9543
▁첫	-8.95556
익	-8.95578
▁게	-8.95686
맞	-8.95755
▁바라	-8.95866
▁세계	-8.95965
▁뭐가	-8.96227
것같다	-8.96295
▁짜증	-8.96464
▁옛날	-8.96479
▁점점	-8.96488
땐	-8.96548
▁만들었	-8.96557
▁통	-8.96582
▁있어	-8.96799
성이	-8.96884
▁봐라	-8.96895
▁ᄒᄒᄒ	-8.97083
▁한마디로	-8.97143
간다	-8.9716
지않	-8.97212
▁못하는	-8.97259
보다는	-8.97296
이상	-8.97322
▁그런지	-8.97326
길래	-8.97466
▁했다	-8.97559
듬	-8.97701
▁궁금	-8.97784
▁자체가	-8.97798
세요	-8.979
다면	-8.97961
▁봐	-8.98015
▁봤음	-8.9804
▁삼류	-8.98124
▁가지고	-8.98199
했어요	-8.98398
▁떠	-8.98431
되고	-8.98488
▁편집	-8.98509
▁댓글	-8.98559
숙	-8.98728
으니	-8.98979
b	-8.98981
u	-8.99057
▁방	-8.9909
▁라는	-8.99123
족	-8.99442
▁없어서	-8.99444
갔	-8.99456
▁병	-8.99457
▁있는데	-8.99517
▁휴	-8.99535
▁꿀잼	-8.99852
▁써	-8.99881
▁나와	-8.99917
▁봄	-8.99964
▁너무너무	-8.99971
거다	-8.99979
▁영화라	-9.0022
▁설	-9.00249
▁빠	-9.0035
거나	-9.00387
▁나의	-9.00407
삼	-9.0045
▁잘못	-9.00562
귀	-9.00599
▁짜	-9.00706
▁과거	-9.00727
▁놀	-9.00786
▁사람은	-9.00853
▁돌	-9.00902
였는데	-9.01038
허	-9.01092
▁그때	-9.01167
▁순간	-9.01225
▁도저히	-9.01305
▁만족	-9.01342
▁부분	-9.01478
틀	-9.01482
▁재미있어요	-9.01507
▁문	-9.01628
▁더욱	-9.0177
▁뒤	-9.01801
부분	-9.01904
같다	-9.01953
재미있	-9.01954
해지는	-9.02188
탄	-9.02198
▁으	-9.02351
찬	-9.02352
▁감독은	-9.02495
▁아까움	-9.02606
▁괴	-9.02684
▁당신	-9.02702
스럽다	-9.02752
▁안된다	-9.02848
올	-9.0294
▁있었다	-9.0296
청	-9.03038
▁볼만	-9.03048
▁완벽	-9.03057
▁쳐	-9.03068
n	-9.03108
▁불륜	-9.03176
▁나온다	-9.0319
▁두번	-9.03239
랄	-9.03286
▁이번	-9.0329
▁원래	-9.03309
▁돈주고	-9.03317
▁이유	-9.03339
▁흠	-9.03369
눈	-9.03387
▁말고	-9.03459
하냐	-9.03466
▁편이	-9.03486
k	-9.03542
왔	-9.03546
써	-9.0359
도록	-9.03643
▁이영화는	-9.0367
▁예전에	-9.03771
▁싶	-9.03844
▁무조건	-9.03918
하니	-9.03955
ᄋ	-9.03985
▁하다	-9.04068
▁초반	-9.04074
영화가	-9.04088
▁다시봐도	-9.04089
품	-9.04372
적이고	-9.04437
▁어릴때	-9.04446
▁지금까지	-9.04447
▁그닥	-9.04459
▁월	-9.04521
별	-9.04577
▁대단	-9.04701
▁참고	-9.04766
▁드	-9.04953
▁따	-9.04986
일까	-9.05303
▁살인	-9.05311
▁좋겠다	-9.0536
▁소설	-9.0538
▁유치한	-9.05432
▁어린	-9.05447
▁진행	-9.05522
▁시절	-9.05547
▁흥미진진	-9.05641
▁노력	-9.05684
▁복수	-9.05703
튼	-9.05722
▁끝내	-9.0586
▁엄청난	-9.05958
▁좋네요	-9.06059
▁귀	-9.06115
▁망작	-9.06161
▁돌아	-9.06273
▁전개가	-9.06304
▁슬픈	-9.06407
▁이미	-9.06415
▁아쉬운	-9.066
패	-9.06622
▁선택	-9.06657
▁그게	-9.06679
혹	-9.06726
또	-9.06839
런	-9.06883
고싶다	-9.06941
변	-9.06964
껏	-9.06989
▁힘들	-9.07213
▁따뜻한	-9.07379
▁오히려	-9.0738
▁어디	-9.07498
▁해서	-9.07618
▁M	-9.0775
▁인물	-9.07751
▁편은	-9.07847
▁후반부	-9.07933
▁했	-9.07933
졌다	-9.0798
▁것은	-9.08178
▁지루해	-9.0826
뜨	-9.08305
거냐	-9.08327
▁죽음	-9.08432
▁아빠	-9.08529
▁괜히	-9.08561
▁모르고	-9.08595
▁결혼	-9.08688
▁흥미	-9.08709
거리	-9.08744
▁보는데	-9.08778
사람들	-9.08798
ᅳ	-9.08806
딩	-9.08858
▁없었	-9.08885
나서	-9.08918
많	-9.08941
▁s	-9.09058
함을	-9.0906
벌	-9.09082
이라니	-9.09186
▁이것도	-9.09191
▁까	-9.09272
▁아닌가	-9.09371
▁그래픽	-9.09379
배우들	-9.09379
멋	-9.09553
같	-9.09576
▁낫다	-9.09636
▁디	-9.09663
완	-9.09704
▁영화도	-9.09745
끝	-9.09781
▁더럽게	-9.09804
하던	-9.09871
동안	-9.09877
▁재밌었다	-9.1002
▁해도	-9.10142
▁느끼	-9.10196
짝	-9.1046
을듯	-9.10462
▁아쉽	-9.10506
▁괜찮	-9.10515
▁귀신	-9.10573
▁낮	-9.10591
여서	-9.10654
놓	-9.10775
▁쓴	-9.10788
▁자꾸	-9.10825
기대	-9.11055
▁온	-9.11185
걸까	-9.11262
▁독	-9.11333
▁봤네요	-9.11437
필	-9.11506
립	-9.117
▁완벽한	-9.11777
▁예고편	-9.11781
▁설명	-9.11828
롭	-9.1188
▁돈이	-9.11993
▁사랑을	-9.11998
▁목소리	-9.12096
▁사람들은	-9.12137
▁ost	-9.1219
겟	-9.12214
▁바보	-9.12216
▁숨	-9.12284
▁지루하	-9.12312
▁저질	-9.12343
▁투	-9.12389
도없고	-9.12398
시리즈	-9.12466
▁감사	-9.12472
▁연출이	-9.12541
규	-9.12601
▁전형적인	-9.12627
▁없을	-9.1263
▁없네	-9.12633
▁일본영화	-9.12659
기가	-9.12688
하시	-9.12695
리가	-9.12746
모르	-9.12771
▁감상	-9.12793
▁싸	-9.12799
▁반전이	-9.12811
▁알았	-9.12822
▁힘든	-9.12823
예요	-9.12862
씩	-9.12908
아이	-9.12937
▁프로	-9.12978
▁인간의	-9.1301
▁합니다	-9.13021
▁교	-9.13024
하는거	-9.13055
▁앞으로	-9.1306
▁웃긴	-9.13062
본다	-9.13099
전개	-9.13101
▁재밌는데	-9.13172
이냐	-9.1333
▁영화보다	-9.1348
▁현재	-9.13484
▁무서운	-9.13525
▁있음	-9.13601
▁늘	-9.13611
▁병맛	-9.13639
주세요	-9.13671
▁이정도	-9.13687
▁여성	-9.13708
▁상상	-9.13717
▁집	-9.13773
▁모르는	-9.13907
아깝다	-9.14066
▁나라	-9.14111
ᄂ	-9.1426
▁허무	-9.14263
▁대한민국	-9.14265
▁SF	-9.14267
▁나쁜	-9.14316
마다	-9.14349
▁세상	-9.14459
나라	-9.14507
▁가는	-9.14527
▁배우가	-9.14742
했고	-9.14814
듣	-9.14841
▁이러	-9.14899
놈들	-9.14919
▁미화	-9.1503
▁억지로	-9.15048
▁그런데	-9.15095
▁아무것도	-9.15142
▁년전	-9.15172
v	-9.15309
▁완성도	-9.15322
만든	-9.15417
▁티	-9.15452
OO	-9.15519
함이	-9.15597
▁프랑스	-9.15619
▁느낄	-9.15651
▁부족한	-9.15687
였습니다	-9.15747
▁좀비	-9.15798
▁연출력	-9.15801
▁어이없	-9.15849
▁절	-9.15856
▁여운	-9.15868
▁안보	-9.15875
재미없	-9.161
들과	-9.16187
▁평점은	-9.16197
주고	-9.16204
전에	-9.16219
▁뭔지	-9.16398
▁골	-9.16459
▁지나	-9.1649
봐라	-9.16496
▁꼬	-9.1651
▁급	-9.16605
▁의도	-9.16655
▁이상한	-9.16735
▁만나	-9.16744
성을	-9.16757
▁화이팅	-9.16802
킹	-9.16812
힌	-9.16812
시켜	-9.17052
낮	-9.17069
▁자연	-9.17115
남자	-9.17143
▁인정	-9.17202
팬	-9.17286
f	-9.17301
▁없네요	-9.17424
먼	-9.17455
▁믿고	-9.17562
▁액션도	-9.17593
▁평점에	-9.17614
▁느끼게	-9.1763
▁우연히	-9.17702
▁탄	-9.17719
▁진실	-9.17801
▁개그	-9.17808
야지	-9.17922
▁그래	-9.18009
▁알았다	-9.18111
▁신기	-9.18126
보는데	-9.18238
▁라	-9.18254
한영화	-9.18278
▁슬프	-9.18359
▁이런거	-9.184
▁있다는	-9.18466
는걸	-9.18477
▁바람	-9.18483
▁만들지	-9.18503
▁키	-9.18811
는것	-9.18832
▁믿	-9.18884
▁스타일	-9.18897
x	-9.18986
▁메세지	-9.18988
싸	-9.19045
▁알게	-9.19049
▁기대하고	-9.19062
▁이리	-9.19114
▁비슷한	-9.19146
▁서로	-9.19298
▁형	-9.19313
▁지금도	-9.19414
▁청춘	-9.19433
버렸다	-9.1944
▁천재	-9.19488
한데	-9.19639
하세요	-9.19782
▁대작	-9.19796
이에요	-9.19796
▁전작	-9.19825
▁이야기를	-9.19891
▁맥	-9.19927
▁C	-9.19942
▁케	-9.20014
▁재밌어	-9.20027
▁됐	-9.20073
곤	-9.20088
누	-9.20096
만으로도	-9.20171
▁남주	-9.20192
▁작품성	-9.20463
그냥	-9.20501
▁m	-9.20545
▁처음으로	-9.20663
▁교훈	-9.20749
▁재미없어	-9.20775
얼	-9.20855
▁중간	-9.20864
▁이후	-9.2087
▁유머	-9.20878
됐	-9.20969
▁시청률	-9.21022
▁수준이	-9.21167
▁대단하다	-9.21318
▁이런걸	-9.21348
ᄏᄏᄏᄏᄏᄏᄏᄏ	-9.21536
▁좋았어요	-9.21716
에요	-9.21742
▁질질	-9.21937
▁처	-9.21949
▁코메디	-9.22084
어도	-9.22148
답	-9.22173
▁특유의	-9.22248
▁좋음	-9.22359
▁아이들이	-9.2254
▁비추	-9.22574
▁누	-9.22643
준다	-9.22644
▁놓	-9.22704
풍	-9.22743
▁새	-9.22748
▁우울	-9.22758
▁지루하지	-9.22779
쪽	-9.22815
▁재미있고	-9.22847
났다	-9.22855
▁볼수	-9.22864
속에	-9.22877
자가	-9.22907
이런	-9.22924
▁년도	-9.22982
▁실제	-9.2301
었습니다	-9.23107
▁d	-9.23121
효	-9.23156
▁마무리	-9.23162
▁관계	-9.23175
가서	-9.23195
꼬	-9.23263
▁졸라	-9.23407
▁듯한	-9.23427
▁왜이리	-9.23547
▁불편	-9.23554
스럽	-9.23601
영화다	-9.23608
더군요	-9.23684
▁둘	-9.23697
▁성장	-9.23702
십	-9.2372
▁저도	-9.2395
▁황	-9.24055
▁임	-9.24195
렌	-9.24405
▁화려한	-9.24407
텐데	-9.24447
▁근	-9.24472
▁광	-9.24494
▁속편	-9.24533
▁알았는데	-9.24557
▁어렸을때	-9.24569
▁킬링타임용	-9.24672
▁왠지	-9.24757
▁나만	-9.2479
▁확	-9.24838
▁리메이크	-9.2487
▁노출	-9.24935
▁얼	-9.2512
▁않을	-9.25146
▁가치	-9.25266
▁시간낭비	-9.25361
▁느	-9.25438
▁액션영화	-9.25467
▁지난	-9.25482
다시	-9.25519
▁안나오	-9.25554
드는	-9.25586
▁것이다	-9.25589
갑	-9.25594
▁끌	-9.25634
감이	-9.25717
▁재미없고	-9.25724
▁유치하고	-9.25778
독	-9.2578
좋은	-9.25825
으며	-9.25892
냥	-9.25998
윤	-9.26141
받	-9.2626
▁받아	-9.26261
빡	-9.26279
▁마치	-9.26342
마저	-9.26363
▁짜증나	-9.26378
인거	-9.26393
말이	-9.2652
였던	-9.26521
봐야	-9.26615
▁이젠	-9.26971
려서	-9.26992
때마다	-9.26999
▁몰	-9.27069
▁진부한	-9.27087
▁모습이	-9.27088
맛	-9.27102
▁본다	-9.27138
▁시대	-9.2726
▁무엇보다	-9.27296
▁정치	-9.27347
▁분명	-9.27392
▁그녀	-9.27397
▁등장	-9.27398
▁A	-9.27434
▁tv	-9.27515
▁게임	-9.2753
로서	-9.27582
▁ᄏᄏᄏᄏᄏ	-9.27599
놓은	-9.27659
▁않았다	-9.27664
▁생각해	-9.27666
징	-9.27673
▁어찌	-9.2775
▁삶	-9.27756
▁빠져	-9.27796
▁수가	-9.27869
▁훌륭	-9.27881
▁또한	-9.2796
시절	-9.28108
▁귀여운	-9.28201
으면서	-9.28204
▁사건	-9.28237
▁관심	-9.28262
리스	-9.28314
▁성인	-9.28468
▁만들었다	-9.28522
▁인상	-9.28559
면서도	-9.28589
엉	-9.28666
▁니	-9.28685
▁관람	-9.28714
▁보고싶	-9.2875
처음	-9.28841
▁겁나	-9.28866
▁작품이	-9.28941
p	-9.28975
▁경찰	-9.28979
▁자유	-9.29018
▁않음	-9.29086
▁보고나서	-9.29115
하긴	-9.29147
▁민	-9.29155
▁용	-9.29156
▁트	-9.29193
▁밀	-9.29247
던가	-9.29259
해주는	-9.2929
▁답답	-9.29298
▁주인공들	-9.29361
충	-9.2961
것이다	-9.29623
▁극장	-9.29657
▁황당	-9.29703
▁장면은	-9.29713
▁대충	-9.29729
▁명작이다	-9.29987
▁브	-9.30005
렸다	-9.30021
네여	-9.30067
려는	-9.30086
▁전체적으로	-9.30159
▁최악이다	-9.30209
▁점짜리	-9.30324
▁알아	-9.30425
밀	-9.30553
▁아니면	-9.30568
▁목	-9.30595
▁복	-9.30614
▁그렇고	-9.30627
안되	-9.3067
▁사랑이	-9.30689
수록	-9.30711
▁아니지만	-9.30757
▁이어	-9.30828
별로	-9.30836
▁군대	-9.30853
돼	-9.30935
많이	-9.30959
괴	-9.3105
앙	-9.31089
▁씨	-9.31107
시고	-9.31178
▁밑에	-9.31201
▁미래	-9.31405
▁아오	-9.31421
▁아닐까	-9.31559
▁내인생	-9.31688
▁맞는	-9.31738
▁심리	-9.31828
▁사이	-9.31907
▁똑같	-9.31982
▁ᄃᄃ	-9.32052
▁떠나	-9.3209
땅	-9.3212
▁하면	-9.32132
▁행동	-9.32157
▁범죄	-9.32221
▁지금봐도	-9.32278
하는게	-9.32284
▁소재는	-9.32369
이면	-9.32422
사람이	-9.32492
량	-9.3255
셔	-9.3256
▁평론가	-9.32594
봣	-9.32634
명작	-9.32704
▁허접한	-9.32731
놀	-9.32774
했을	-9.32778
▁독립영화	-9.3281
스타	-9.32852
▁아들	-9.32928
완전	-9.33041
탕	-9.33094
춘	-9.33111
턴	-9.33127
▁ᄉᄇ	-9.33132
▁먼저	-9.33161
굿	-9.33177
을텐데	-9.33195
▁좋았고	-9.33241
엿	-9.33243
팔	-9.33262
딱	-9.33263
에서는	-9.33308
▁별루	-9.3342
곳	-9.33499
▁카메라	-9.33534
끼리	-9.33565
쉽	-9.33644
한번	-9.33646
▁좋았습니다	-9.33711
▁춤	-9.33732
▁성공	-9.33737
▁제작비	-9.33751
이거	-9.33823
모습	-9.33844
없어	-9.33998
버리	-9.34023
▁너무나도	-9.3406
아닌	-9.34096
에겐	-9.34198
▁한편	-9.3423
▁보여준	-9.3423
▁엉성	-9.34242
▁세상에	-9.34316
▁보여	-9.34327
한다는	-9.34374
픈	-9.34461
▁흐	-9.3447
▁눈이	-9.34564
들아	-9.34624
로운	-9.34625
▁깊이	-9.34658
▁감사합니다	-9.34711
▁보이는	-9.34765
▁같습니다	-9.34797
▁상상력	-9.34808
대박	-9.34887
▁입니다	-9.34969
▁삶을	-9.3501
하자	-9.35019
▁창	-9.35022
▁생각한다	-9.35031
▁어색한	-9.35107
▁모르겠	-9.35153
됩니다	-9.35174
▁촬영	-9.35174
했는지	-9.35328
▁중에	-9.35346
▁싫	-9.35538
▁한계	-9.3558
▁영화였습니다	-9.35588
▁억	-9.35608
오는	-9.35627
페	-9.35672
지고	-9.35706
든다	-9.35755
▁범인	-9.35889
▁점준다	-9.35914
암	-9.3593
▁받	-9.35946
▁OST	-9.35979
▁함	-9.36136
▁여자가	-9.36178
▁아까워	-9.36198
좋다	-9.36207
뻐	-9.36211
▁중간중간	-9.36213
▁저예산	-9.36213
▁확실히	-9.36213
짜리	-9.36234
▁명작이	-9.36242
▁잘봤습니다	-9.36258
▁취	-9.36305
시키	-9.36474
▁앞	-9.36555
끔	-9.36625
▁c	-9.36671
ᄃ	-9.36684
▁예전	-9.36719
▁상영	-9.3672
▁로맨틱	-9.3673
팅	-9.36735
▁깊은	-9.36736
▁자신의	-9.36736
▁cg	-9.36752
▁년에	-9.36799
▁다소	-9.36805
했으면	-9.36823
▁스토리에	-9.3685
▁액션이	-9.3687
봉	-9.36878
영환	-9.36978
▁잘만든	-9.37009
▁마음을	-9.37036
겠네	-9.3707
▁일상	-9.37111
실망	-9.37123
순간	-9.37145
▁자신	-9.3729
▁느껴	-9.37335
것은	-9.37369
▁통해	-9.3737
▁아놔	-9.37393
▁특	-9.3742
월	-9.37458
▁그랬	-9.37507
령	-9.37563
▁싫어	-9.37594
나옴	-9.37607
줘야	-9.37638
있게	-9.37674
▁어이없는	-9.37702
▁드라마를	-9.37799
▁어쩌	-9.37825
▁못하고	-9.37898
▁권	-9.38101
▁역시나	-9.38172
한건	-9.38173
▁여자들	-9.38266
▁영웅	-9.38352
▁전편	-9.38379
▁연애	-9.38439
▁빈	-9.38479
거같다	-9.38557
인이	-9.38576
닥	-9.38582
ᄉ	-9.38628
풀	-9.3864
그런	-9.38683
▁보이	-9.38683
▁다만	-9.38689
보다가	-9.38692
했어	-9.38699
▁유쾌	-9.38714
▁긴	-9.3877
▁꺼	-9.38827
드리	-9.38871
착	-9.38966
시는	-9.39001
▁영화중에	-9.39009
하지않	-9.39014
노잼	-9.39169
▁홍	-9.39172
념	-9.39221
▁팔	-9.39253
▁있었던	-9.39253
▁순수한	-9.39266
지마라	-9.39299
▁맨	-9.39311
널	-9.39389
▁메시지	-9.39401
▁답	-9.39443
되지	-9.39467
▁재밌었어요	-9.3951
▁표	-9.39606
▁이영화가	-9.39612
것을	-9.39663
시다	-9.39714
방송	-9.39746
▁커	-9.39761
뒤	-9.39791
▁스케일	-9.39939
▁단순	-9.39945
와서	-9.39995
▁볼때마다	-9.40025
▁좋았는데	-9.40054
▁해준	-9.40061
버리고	-9.40063
▁좋았음	-9.40082
▁낚	-9.40086
▁하는데	-9.4009
해보	-9.40113
▁취향	-9.40134
▁화가	-9.40176
▁나에게	-9.40206
▁벌	-9.40212
▁같네요	-9.4028
자체	-9.40319
던지	-9.4038
▁갑	-9.40388
▁눈을	-9.40435
웅	-9.40448
▁읽	-9.40498
ᄏᄏᄏᄏᄏᄏᄏᄏᄏᄏᄏᄏᄏᄏᄏᄏ	-9.405
▁보지마세요	-9.40539
▁후반	-9.40576
▁왜이렇게	-9.40601
▁이런게	-9.40663
▁유쾌한	-9.40673
▁매력적인	-9.40676
▁이야기가	-9.40788
▁몰랐	-9.40806
거임	-9.40865
▁그림	-9.4097
▁진정	-9.40979
뿌	-9.41026
▁미소	-9.41078
▁고민	-9.41139
▁갖	-9.41172
▁그런가	-9.41179
▁모습을	-9.41208
▁제작진	-9.41213
▁역대	-9.41217
▁동화	-9.41218
▁멀	-9.41237
▁빼	-9.41252
는영화	-9.41358
w	-9.4147
쿠	-9.41472
▁틀	-9.41666
▁기분이	-9.41671
▁평생	-9.41691
▁영화에서	-9.41768
취	-9.42001
▁놀라	-9.42036
▁게이	-9.4206
▁프로그램	-9.42076
웠	-9.42094
흐	-9.42096
센	-9.42119
▁감탄	-9.42159
▁이쁘	-9.42205
▁초반에	-9.42212
▁호러	-9.42347
버렸	-9.42555
득	-9.42564
▁기본	-9.42611
▁느낀	-9.4269
▁스토리와	-9.42705
▁조폭	-9.42731
▁낭비	-9.42752
▁미치	-9.42851
▁생각나	-9.42894
하라	-9.42991
▁부분이	-9.43014
▁가지	-9.43021
▁현실성	-9.43031
드라	-9.43034
견	-9.43044
였어요	-9.4306
▁아저씨	-9.43069
▁식	-9.43074
▁딴	-9.43157
껄	-9.43243
▁여전히	-9.43276
한다면	-9.4331
걸로	-9.43312
▁훨	-9.4347
▁붙	-9.43486
▁내용을	-9.43517
▁느껴지는	-9.43521
일뿐	-9.43566
▁매력이	-9.43621
좋았	-9.43651
주인공	-9.43695
▁독특한	-9.43706
염	-9.43746
잉	-9.43794
있어	-9.43852
스런	-9.43986
▁떨어지는	-9.43988
▁나를	-9.44044
▁하게	-9.44052
르는	-9.44253
▁찍은	-9.44315
▁나중에	-9.44318
수도	-9.44333
▁액션은	-9.44333
▁현대	-9.44345
최악	-9.44361
▁평범한	-9.44362
▁꼴	-9.44555
▁돌려	-9.44605
▁전달	-9.44687
▁더이상	-9.44702
한듯	-9.44823
▁애들이	-9.44846
▁왔	-9.44863
▁이건뭐	-9.44868
책	-9.44896
▁했지만	-9.44932
▁슬픔	-9.4494
▁해야	-9.4514
▁풀어	-9.45224
재밌게	-9.45249
급영화	-9.45355
율	-9.45427
더만	-9.45469
▁섹시	-9.45511
봤음	-9.45515
▁신선한	-9.45533
▁살짝	-9.45567
보게	-9.45642
▁티비	-9.4566
▁끝나고	-9.4568
▁처음이다	-9.45748
▁죽는	-9.45772
▁각	-9.45774
▁사랑하는	-9.4579
▁역할	-9.45836
▁캐	-9.45997
나온	-9.4606
▁저렇게	-9.46084
▁있나	-9.46085
▁리뷰	-9.46093
깨	-9.4611
▁과연	-9.46145
으론	-9.46164
에서도	-9.46168
▁악역	-9.4618
킨	-9.46184
▁사극	-9.46307
▁싶어	-9.46336
내는	-9.46369
▁아닌데	-9.46385
지않고	-9.46453
▁슬프다	-9.46453
▁든다	-9.46488
압	-9.46654
▁해주는	-9.46711
▁국	-9.46718
▁사람을	-9.46744
▁좋을	-9.46746
▁젤	-9.46773
▁굳이	-9.46984
▁이유가	-9.47042
▁죄	-9.47098
▁있다면	-9.47116
시킨	-9.47142
▁이것	-9.47153
▁글쎄	-9.47247
▁예쁜	-9.4726
하려는	-9.47262
▁표절	-9.47267
▁종교	-9.47284
▁영화관	-9.47316
▁봤었는데	-9.47329
만으로	-9.47336
인의	-9.47369
▁괴물	-9.47421
▁그럼	-9.47425
▁그들의	-9.47506
▁마라	-9.47518
▁시선	-9.47608
▁알바들	-9.47669
▁소재를	-9.47687
▁음악이	-9.47721
▁T	-9.47754
▁잼없	-9.47786
릭	-9.47794
▁귀엽고	-9.47802
몰	-9.47818
▁이연걸	-9.4783
링	-9.47931
▁표정	-9.47944
애니	-9.47961
▁뒷	-9.47964
인것	-9.48063
▁분노	-9.4812
▁고전	-9.48141
▁연기력이	-9.48166
지마	-9.48166
▁아름답고	-9.48167
▁아름답다	-9.482
이며	-9.48351
왔다	-9.48367
끊	-9.48416
▁찍어	-9.48425
다운	-9.48469
▁홍콩	-9.48543
▁감동적이고	-9.48575
▁나오고	-9.4859
먹고	-9.48711
▁퍼	-9.48739
ᄏᄏᄏᄏᄏᄏᄏᄏᄏᄏᄏᄏ	-9.48826
니깐	-9.48902
▁필요한	-9.48987
ᄅ	-9.49008
▁어릴적	-9.49072
▁벗	-9.49116
▁우정	-9.49142
▁능력	-9.49184
▁추천합니다	-9.49197
▁접	-9.49205
새끼	-9.49299
▁아깝	-9.49301
내요	-9.49302
▁칼	-9.49313
까진	-9.49343
영화중	-9.49447
▁보고싶다	-9.49474
▁시원	-9.49482
▁흘러	-9.49539
묘	-9.49553
▁뮤지컬	-9.49603
▁그의	-9.49661
엄	-9.49669
▁드라마가	-9.49679
▁좋았	-9.49684
응	-9.49713
쇼	-9.49756
보세요	-9.49776
었으면	-9.49809
▁처음엔	-9.49848
▁심심	-9.49871
▁가진	-9.49963
▁a	-9.50173
▁희생	-9.50238
▁전에	-9.50319
▁기대를	-9.5038
▁되었	-9.50502
▁드는	-9.50529
▁동물	-9.50549
▁용서	-9.50562
▁반성	-9.50602
▁필	-9.50728
떨	-9.50778
▁이하	-9.50783
▁먼	-9.50827
▁웃겨	-9.50853
것같	-9.50993
▁리얼	-9.50999
▁넣	-9.51027
▁안되고	-9.51034
▁이정도면	-9.51044
▁폭력	-9.51097
▁결과	-9.51098
▁말로	-9.51164
▁보는게	-9.5117
▁몰입이	-9.51192
▁어렸을	-9.51197
▁몰입감	-9.51214
버려	-9.5123
빨	-9.51332
▁클	-9.51365
▁보기엔	-9.51377
V	-9.51396
▁올라	-9.51436
▁판	-9.51456
▁말할	-9.5146
▁포장	-9.51577
▁I	-9.5161
▁않아	-9.51645
웠다	-9.51678
▁소름	-9.51686
▁사랑과	-9.51715
째	-9.51902
시키는	-9.51932
▁스토리를	-9.51933
▁무지	-9.5195
협	-9.51951
항	-9.52017
▁열심히	-9.5202
ᄀ	-9.5203
▁불쾌	-9.52049
되서	-9.52085
▁잊혀지지	-9.52105
▁자막	-9.5219
▁환	-9.52212
▁재밌었는데	-9.52236
▁의심	-9.5224
▁끼	-9.52329
빙	-9.52391
▁재밌었	-9.52404
▁ᅲᅲᅲ	-9.52412
알바	-9.52439
▁스타	-9.5246
▁풍	-9.52588
▁여러	-9.526
굴	-9.52614
re	-9.52702
▁싫다	-9.52714
▁요소	-9.52741
▁아는	-9.52769
▁드러	-9.5278
▁티비에서	-9.52883
▁끝난	-9.52885
쓴	-9.52902
됬	-9.52922
▁언	-9.53109
▁어제	-9.53123
▁다르	-9.53129
▁법	-9.53201
이건	-9.53206
값	-9.53251
낼	-9.53251
▁압권	-9.53251
▁소녀	-9.53271
▁상처	-9.53298
온다	-9.53397
▁인기	-9.53398
▁짜증나는	-9.5342
▁연기와	-9.53426
는건지	-9.53454
▁아닌듯	-9.53502
▁친	-9.53603
▁주인공의	-9.53613
▁남는다	-9.53644
보면서	-9.53659
▁중요한	-9.5366
▁짠	-9.53749
▁북한	-9.53816
틈	-9.53872
▁안됨	-9.53874
친구	-9.53926
▁볼거리	-9.53957
줌	-9.53969
▁출	-9.54035
▁까지	-9.54074
▁잼있게	-9.54079
▁다행	-9.54323
▁밥	-9.54327
씨가	-9.5433
▁만드	-9.54405
or	-9.54436
벽	-9.5448
더라구요	-9.54492
▁나왔으면	-9.54499
▁묘사	-9.54506
▁했던	-9.54507
쁘	-9.54563
▁공감이	-9.54592
▁설레	-9.54722
인간	-9.54729
▁죽어	-9.5474
▁안하고	-9.54744
킬	-9.54771
▁하나하나	-9.54789
▁그걸	-9.54807
빵	-9.5483
줬	-9.54831
둘	-9.54859
▁연기에	-9.54873
▁최근	-9.54891
▁생각합니다	-9.54932
▁넘어	-9.54947
▁희망	-9.54981
▁빛	-9.55037
할듯	-9.55056
▁포기	-9.55061
▁긴장	-9.55088
▁섹스	-9.55129
▁몸매	-9.55182
▁지루할	-9.55191
끄	-9.55276
황	-9.55342
하는지	-9.55388
▁만들어진	-9.55392
하다니	-9.55424
자들	-9.55429
북	-9.55434
▁언제나	-9.55478
하는것	-9.55525
▁사랑에	-9.55541
▁별로다	-9.55572
사가	-9.557
▁안타깝	-9.55742
렉	-9.55755
애들	-9.55773
▁흐름	-9.55787
▁빨	-9.55834
말고	-9.55854
쳤	-9.55863
▁w	-9.5588
▁나가	-9.55881
갔다	-9.55895
나올	-9.55936
▁에로	-9.55957
▁올해	-9.5597
만들어	-9.55976
▁네	-9.55986
었지만	-9.56027
▁S	-9.56096
▁나서	-9.56119
딸	-9.5615
마지막	-9.56153
▁진심으로	-9.56167
▁올리	-9.56181
기엔	-9.562
▁짓	-9.56205
▁영화보고	-9.56236
추천	-9.56342
▁지루해서	-9.56373
스러움	-9.56396
▁아마	-9.56478
▁개판	-9.56532
▁굳	-9.56603
결말	-9.56631
그러	-9.56677
▁달리	-9.56706
▁이유는	-9.56745
▁잔인하	-9.56821
함과	-9.56849
하려고	-9.56908
▁젊은	-9.56962
▁퀄리티	-9.56978
▁몇번을	-9.56979
▁같음	-9.57027
▁힐링	-9.57037
▁해피엔딩	-9.57038
▁음악도	-9.57083
▁청	-9.57091
▁고생	-9.57184
▁같아	-9.57269
점이	-9.57272
▁썩	-9.57288
없네	-9.57292
람	-9.57308
▁감동과	-9.57366
an	-9.57386
▁느끼는	-9.5744
▁먹먹	-9.57481
▁과정	-9.57488
▁돋	-9.57549
▁무섭다	-9.57578
▁되었다	-9.57604
▁킬링타임	-9.57611
▁오버	-9.57643
▁봤으면	-9.57682
튀	-9.57682
▁제목이	-9.57688
▁쉽게	-9.57698
▁에휴	-9.57702
▁재미를	-9.57728
▁봤다가	-9.57782
▁크게	-9.57867
것들	-9.5789
▁낫	-9.57901
작가	-9.57963
럼	-9.58078
찌	-9.58086
▁보시길	-9.58105
▁허술	-9.5811
▁덜	-9.58198
홀	-9.58321
▁디즈니	-9.58331
▁미안	-9.58367
▁국민	-9.58383
이었	-9.58398
▁많다	-9.58456
▁만큼	-9.58462
▁분들	-9.58521
▁있지	-9.58535
▁시간을	-9.58561
▁난다	-9.58581
▁재미있음	-9.58706
▁우리가	-9.58774
▁어린이	-9.58862
오빠	-9.59093
▁결	-9.59191
▁엉성한	-9.59222
▁울었	-9.59249
▁보러	-9.5929
손	-9.59505
▁사는	-9.59578
쏘	-9.59639
폰	-9.59643
것만	-9.59676
▁되게	-9.59692
▁볼수록	-9.5976
▁가끔	-9.59766
져서	-9.59826
▁어쩔	-9.59834
▁추억의	-9.59886
속에서	-9.59887
▁다큐멘터리	-9.5989
▁출연진	-9.59947
▁재밌습니다	-9.59996
누나	-9.60048
▁슬	-9.60075
▁빌	-9.60125
골	-9.6013
뜻	-9.6018
C	-9.60186
▁영화이다	-9.60194
느라	-9.60243
▁동생	-9.60286
▁라고	-9.60303
▁가볍게	-9.60305
▁그럭저럭	-9.60305
▁헐리우드	-9.60305
▁삶의	-9.60422
관계	-9.60464
▁비극	-9.60531
▁멋	-9.60548
▁좋았던	-9.60589
▁광고	-9.60716
▁만든다	-9.60735
▁지구	-9.60828
▁열정	-9.60837
흘	-9.60921
▁비주얼	-9.60972
▁쓰래기	-9.60972
만화	-9.60974
▁통쾌	-9.60984
▁정서	-9.60985
▁갔	-9.61016
▁그다지	-9.61095
일이	-9.61208
▁생각나는	-9.61213
▁아쉬움	-9.61321
지않은	-9.61342
▁아련	-9.61364
▁유치함	-9.61367
▁얻	-9.61494
즘	-9.61622
하면서도	-9.617
▁페	-9.61714
마음	-9.6183
▁부터	-9.61867
한게	-9.61901
▁루	-9.61912
▁ᄉ	-9.61927
소재	-9.61947
▁철	-9.61975
▁없지만	-9.62009
▁슬프고	-9.62056
▁폭	-9.62066
ᅲᅲᅲ	-9.62073
▁짱짱	-9.62102
험	-9.62147
▁꾸	-9.62254
▁싸구려	-9.62319
감을	-9.62325
표현	-9.62358
▁몇년	-9.62435
▁다시한번	-9.62443
스터	-9.62527
▁쓸	-9.6254
▁잔인한	-9.62583
▁봐야할	-9.62673
▁죽여	-9.62674
▁쩌	-9.62769
▁재미없네	-9.62778
욱	-9.62808
폭	-9.6286
▁아깝지	-9.62877
탁	-9.62955
클	-9.62956
롱	-9.62958
나게	-9.62965
D	-9.62978
▁반전도	-9.62982
▁해주	-9.63
▁그려	-9.63086
▁중반	-9.63142
하셨	-9.63159
얘기	-9.63177
er	-9.63222
▁소재가	-9.63248
in	-9.63272
스럽고	-9.63311
▁홍보	-9.63314
▁킬링타임용으로	-9.63367
혼	-9.63415
▁딱히	-9.63416
▁돌아가	-9.63445
▁드라마는	-9.63508
▁팬이	-9.63573
졸	-9.63608
나고	-9.63645
홍	-9.63646
농	-9.63683
▁연예인	-9.63684
▁남아	-9.637
▁눈빛	-9.63705
로써	-9.63714
▁방금	-9.63724
끝나	-9.63748
▁믿을	-9.63777
▁남기	-9.63813
▁게다가	-9.63829
▁맘	-9.63989
보이	-9.64055
있는데	-9.64106
on	-9.64121
반전	-9.64147
▁ᄋ	-9.64182
였지만	-9.64258
▁몰라도	-9.64279
▁배우의	-9.64365
ᅡ	-9.64373
스러웠	-9.64395
▁악당	-9.64542
▁보고싶은	-9.6455
으로서	-9.64694
▁놈	-9.64885
▁느꼈	-9.64898
▁찡	-9.64904
▁그것	-9.64932
는듯	-9.64981
▁점주는	-9.65009
▁우주	-9.65036
송	-9.65053
▁남을	-9.65092
▁암튼	-9.65095
넣	-9.65111
봤던	-9.65121
▁채	-9.65144
▁못했다	-9.65153
▁소재로	-9.65184
▁조연	-9.65254
▁둘다	-9.65334
▁필요없는	-9.65402
▁이쁜	-9.65414
▁점수를	-9.65462
▁무시	-9.65493
▁어른	-9.65504
▁뜨	-9.65519
▁하면서	-9.65561
▁헤	-9.65567
▁여기서	-9.65634
▁문화	-9.65719
흑	-9.6575
힐	-9.65767
j	-9.65767
▁시사회	-9.65808
T	-9.65836
▁어이가	-9.65914
가지고	-9.66046
필요	-9.66101
어지는	-9.66121
▁사람의	-9.66131
▁좀더	-9.66142
▁좋아서	-9.66171
▁모르	-9.66297
있었	-9.66369
▁연출도	-9.66451
▁펑펑	-9.66471
▁이제야	-9.6653
▁결말은	-9.66549
죄	-9.66555
놨	-9.66575
▁쫌	-9.66583
줄이야	-9.66615
▁이루	-9.66762
딴	-9.66799
▁인생을	-9.66966
▁재밋게	-9.66969
한것	-9.67
겼	-9.67098
▁어려운	-9.67181
▁무섭	-9.67249
▁보았	-9.67281
▁필요없다	-9.67316
아님	-9.67353
세계	-9.67406
▁끝나는	-9.67417
가족	-9.67459
▁끄	-9.67468
▁평이	-9.67563
찾	-9.67577
▁가서	-9.67591
▁전문가	-9.67601
▁한국인	-9.67709
▁영화지만	-9.67771
▁실패	-9.67879
▁아쉬웠	-9.67898
스가	-9.67942
▁아픔	-9.67966
▁지금은	-9.67986
▁빠지	-9.68007
▁죽이	-9.68143
▁볼만하	-9.68148
▁외국	-9.68282
▁투자	-9.68488
력이	-9.68512
려면	-9.68564
봣는데	-9.68575
릿	-9.68601
솔	-9.68612
털	-9.68614
텔	-9.68614
▁불구하고	-9.68616
▁결말도	-9.68638
▁뛰어난	-9.68648
집니다	-9.68719
▁엉망	-9.68734
코미디	-9.68785
머리	-9.68788
▁웃기고	-9.68791
▁잭	-9.68795
▁발전	-9.6884
되면	-9.68841
하겠	-9.68862
▁그린	-9.68883
▁니들	-9.68981
스의	-9.69172
▁풀	-9.69179
▁무엇	-9.69231
▁들었	-9.69238
봤어요	-9.69251
끌	-9.69258
▁집에서	-9.69258
▁산으로	-9.69273
▁않게	-9.6928
▁그렇다고	-9.69305
▁단지	-9.69309
컷	-9.69339
▁견자단	-9.69339
▁로그인	-9.69339
▁무언가	-9.69341
▁느와르	-9.69351
▁어머니	-9.6938
▁배우들도	-9.69381
극장	-9.69408
냈	-9.69421
▁사랑스러운	-9.69476
▁남녀	-9.6953
했나	-9.69547
▁재밌네	-9.69565
▁봣	-9.69604
▁볼만함	-9.69613
먹는	-9.69635
인들	-9.69699
▁높다	-9.69714
▁재미있네요	-9.69805
▁끌어	-9.69817
했다는	-9.69833
▁차이	-9.69843
▁현실적이	-9.6985
▁유명	-9.69886
▁하루	-9.69888
▁멋지다	-9.69948
▁찍었	-9.70068
▁아름다움	-9.70069
▁할말	-9.70072
▁평범	-9.70126
▁보아	-9.70146
▁연결	-9.70161
겁	-9.70173
나와서	-9.7019
▁마세요	-9.70192
st	-9.70241
▁단연	-9.70245
▁낮아서	-9.70245
▁좋습니다	-9.70258
▁전체	-9.70317
▁정말로	-9.70346
몽	-9.70359
무섭	-9.7039
▁만들고	-9.70415
하신	-9.70422
랬	-9.7051
▁달라	-9.7053
▁있게	-9.70556
짧	-9.70585
재밌어요	-9.70625
O	-9.70663
N	-9.70803
멘	-9.70803
▁흔한	-9.70821
거라	-9.70835
▁베스트	-9.70887
▁탈	-9.70903
▁꽃	-9.70905
▁대화	-9.70964
▁남겨	-9.71048
▁재밌었음	-9.71058
총	-9.71065
▁남편	-9.7107
었고	-9.71113
▁매력있	-9.7113
▁그렇다	-9.71164
▁이따위	-9.71169
▁유치하다	-9.71262
▁불쌍	-9.71272
▁핵	-9.71308
▁시걸	-9.71309
▁캐릭터들	-9.71326
▁봣는데	-9.71492
▁거지	-9.71543
▁청소년	-9.71545
▁스스로	-9.71549
▁전설	-9.71557
▁벌써	-9.71562
▁시대를	-9.71568
▁맨날	-9.71603
리아	-9.71629
▁고통	-9.7163
▁멍청한	-9.7164
▁시청	-9.71652
▁생생	-9.71665
워서	-9.71685
▁가득	-9.71799
끈	-9.71804
확	-9.7181
슈	-9.71832
▁현실적인	-9.719
▁되지	-9.71966
랜	-9.7207
았던	-9.72129
▁탄탄한	-9.72223
▁기독교	-9.72291
▁헐리웃	-9.72291
중의	-9.72292
▁많았	-9.723
▁연속	-9.72322
▁귀엽	-9.72324
아까움	-9.72327
▁빌려	-9.72353
▁죄다	-9.72362
▁뒤로	-9.72365
할까	-9.72382
▁시각	-9.72422
▁뜻	-9.72423
▁옛날에	-9.72478
▁씬	-9.725
좋아요	-9.72517
▁아직까지	-9.72532
축	-9.72609
▁안돼	-9.72625
▁많아	-9.72664
▁푹	-9.7276
▁야한	-9.7283
▁세기	-9.72874
했네	-9.7292
▁작가가	-9.72947
에대한	-9.72953
빼고	-9.72969
▁할말이	-9.73
나와	-9.73017
콜	-9.73028
▁행	-9.73043
▁드럽게	-9.7305
▁바뀌	-9.73051
▁슬퍼	-9.7306
▁무엇을	-9.73113
ᄏᄏᄏᄏᄏ	-9.73156
▁인간들	-9.73157
자체가	-9.73162
시간에	-9.73177
▁주변	-9.73199
▁채널	-9.73231
용으로	-9.73278
잼있	-9.7329
첨	-9.73344
▁무서워	-9.7337
S	-9.73394
▁누구나	-9.73417
다른	-9.73435
▁때문	-9.73444
▁인간이	-9.73494
▁없나	-9.73555
▁볼만하다	-9.73583
짜증	-9.73596
▁사기	-9.73662
쾌	-9.73665
▁점준	-9.73673
▁예쁘	-9.73678
버림	-9.73723
▁눈물을	-9.73724
▁단순한	-9.7376
하시는	-9.73774
▁운	-9.73785
컨	-9.738
▁김기덕	-9.73801
▁분이	-9.73813
하구	-9.73875
▁미드	-9.73956
▁영국	-9.73994
▁설마	-9.73995
쩌	-9.73998
▁쩝	-9.74004
무비	-9.74027
자는	-9.74032
▁자극	-9.74036
▁몰입해서	-9.74039
▁환상	-9.74056
▁뻔하고	-9.74097
▁직	-9.7413
폐	-9.74165
있음	-9.74217
▁이런영화가	-9.74249
▁이후로	-9.74259
인가요	-9.74329
큐	-9.74343
놔	-9.74375
택	-9.7448
▁남자가	-9.74533
ᄇ	-9.74557
▁러닝타임	-9.74564
님의	-9.74575
▁이거보고	-9.74582
▁나왔다	-9.74584
높	-9.74635
▁생애	-9.74662
내고	-9.74713
같음	-9.74746
▁힘들다	-9.7485
▁국내	-9.7491
떠	-9.74928
안에	-9.74983
▁느낄수	-9.75034
좋고	-9.75105
▁히	-9.75127
눈물	-9.75143
나가는	-9.75206
▁f	-9.75208
▁봤었	-9.75219
많은	-9.7523
▁송	-9.75279
R	-9.75333
는것도	-9.75337
▁모든게	-9.75393
▁명품	-9.7541
을수	-9.75413
왔는데	-9.75515
▁매력적이	-9.75516
하지도	-9.75526
겟다	-9.7553
▁괜찮았	-9.75567
▁지나치	-9.75568
▁심장	-9.75617
▁되고	-9.75618
엘	-9.75767
A	-9.75776
재미없다	-9.75778
했으나	-9.75803
▁생각없이	-9.75808
연출	-9.75846
▁한심	-9.75863
프로	-9.75882
▁보니까	-9.7589
▁보았다	-9.75907
▁잔잔하고	-9.75943
▁나오면	-9.75968
▁알겠	-9.76013
영상	-9.76038
▁말을	-9.76058
고싶은	-9.76118
▁안타깝다	-9.76129
▁관객들	-9.76195
▁아이돌	-9.76201
▁왠	-9.76209
하는건	-9.76213
▁앤	-9.76301
친다	-9.76332
수없는	-9.76339
▁샤	-9.76365
▁보지마	-9.7649
▁떠나서	-9.76491
▁있습니다	-9.76532
뭔	-9.76626
▁영어	-9.76639
▁표현한	-9.76646
으로써	-9.7665
▁솔직	-9.76818
▁슈퍼	-9.76882
컬	-9.76885
몬	-9.76889
▁기대안하고	-9.76892
▁위대한	-9.76893
▁찌	-9.77037
▁알수	-9.7707
버리는	-9.77108
▁인도	-9.7719
최고의	-9.7721
셔서	-9.77246
▁공부	-9.77313
접	-9.7735
▁ᄋᄋ	-9.77365
해주세요	-9.77366
▁못한다	-9.77378
들만	-9.77379
꼭	-9.77408
으려	-9.77419
영화라고	-9.77437
긴한데	-9.77483
▁와닿	-9.77484
▁이해할	-9.77495
▁중요	-9.77525
재밌다	-9.77578
▁긴장감도	-9.77579
▁노답	-9.77627
그래	-9.77644
좌	-9.77675
스러워	-9.77693
▁무서웠	-9.77701
▁찌질	-9.77755
▁지켜	-9.77768
대는	-9.77876
▁끝이	-9.7791
▁장면에서	-9.77918
▁와우	-9.77949
기분	-9.77961
▁철학	-9.77987
▁덕분에	-9.78
▁싶네요	-9.78071
▁나옴	-9.78146
▁나은	-9.78207
▁특이	-9.7822
현실	-9.78339
지를	-9.78342
▁있으면	-9.78403
닝	-9.78471
깎	-9.78471
▁레전드	-9.78471
▁로봇	-9.78475
▁발로	-9.78477
▁즐겁게	-9.78482
▁느낌을	-9.78484
▁보고나면	-9.78485
들고	-9.78495
▁같아서	-9.78496
▁뽑	-9.78498
스타일	-9.78506
▁발견	-9.78516
▁t	-9.78554
▁아역	-9.78555
▁완	-9.78616
님들	-9.78636
▁인물들	-9.78673
전쟁	-9.78675
수있는	-9.78744
▁좋았을	-9.78745
▁유쾌하고	-9.7882
▁눈에	-9.78869
▁높아	-9.78893
어울리	-9.78949
▁한참	-9.7898
▁순수	-9.78982
▁아나	-9.79071
▁하네요	-9.79082
육	-9.79087
▁않지만	-9.79143
겹	-9.7915
무슨	-9.79241
▁유명한	-9.79242
▁건지	-9.79268
▁갈등	-9.79335
▁재미있었다	-9.79348
기위해	-9.79371
▁반복	-9.79386
▁있어요	-9.7941
한다고	-9.79434
▁꼽	-9.79469
았는데	-9.79515
▁허세	-9.79524
▁말하는	-9.7964
▁줌	-9.79679
사람은	-9.79782
▁보길	-9.79855
▁쇼	-9.7987
▁우와	-9.79892
▁활	-9.79903
정이	-9.79926
까지는	-9.80049
떄	-9.80077
톱	-9.80077
▁쵝오	-9.80077
▁착한	-9.80147
▁본인	-9.8026
리를	-9.80313
사는	-9.80321
중에서	-9.80342
▁흥	-9.80343
했네요	-9.80404
▁뭐라	-9.8048
더라도	-9.80489
만드	-9.80518
▁부모	-9.80527
▁자식	-9.80594
▁같았	-9.80597
식이	-9.80627
싱	-9.80638
르고	-9.80672
젤	-9.80734
▁가져	-9.80784
▁독특	-9.80847
▁멋있다	-9.80848
▁왜케	-9.80848
▁늘어	-9.8088
▁즐거운	-9.8089
▁영화인	-9.80929
▁어휴	-9.80948
▁학교	-9.80952
겁니다	-9.8098
더라면	-9.80988
▁코난	-9.81025
▁싶지	-9.81026
it	-9.8106
▁시청자	-9.81099
▁잊지	-9.81122
ar	-9.81265
영화의	-9.8127
▁재밌을	-9.81295
거면	-9.81338
▁안보고	-9.81343
헤	-9.81359
▁재밋다	-9.81375
웨	-9.81414
옥	-9.8143
휴	-9.81477
▁친구들	-9.81498
학생	-9.81615
낫	-9.81631
엄마	-9.81666
▁않나	-9.81673
▁시도	-9.81694
▁시트콤	-9.8171
▁에피소드	-9.8171
▁의외로	-9.8171
▁아줌마	-9.81723
▁새롭	-9.81731
▁편견	-9.81784
▁최강	-9.81791
▁개연성이	-9.81923
▁학교에서	-9.81959
▁앞으로도	-9.82018
지않는	-9.82055
해진	-9.82063
음악	-9.82098
▁나오지	-9.82149
▁생각하는	-9.82174
▁엄	-9.82234
▁보인다	-9.82259
▁못할	-9.82389
E	-9.82411
▁생각하고	-9.82413
믿	-9.8249
혁	-9.82495
하더라	-9.82497
잤	-9.82511
▁무리	-9.82524
▁초등학생	-9.82536
혈	-9.82536
▁짝퉁	-9.82536
▁마이클	-9.82543
▁못해	-9.82752
▁지루했다	-9.82814
▁이쁘고	-9.82839
▁내려	-9.82855
지금	-9.82921
줘서	-9.83001
▁미모	-9.83064
▁어렵	-9.83113
▁혼	-9.8314
▁대사가	-9.83163
▁침	-9.83191
▁멍청	-9.83274
봅니다	-9.83274
▁영화냐	-9.83289
계의	-9.83305
▁진리	-9.83317
▁년전에	-9.83335
▁여행	-9.83339
▁촌	-9.83339
▁영화에요	-9.83357
쥬	-9.8337
사이	-9.83396
▁굿굿	-9.83417
다는게	-9.83435
▁작은	-9.83478
▁점주	-9.83498
▁기술	-9.83553
▁진부	-9.83565
▁받았	-9.8357
▁있네요	-9.83574
▁잔	-9.8358
▁음악과	-9.83614
▁한데	-9.83621
▁모르겠고	-9.83679
점수	-9.83745
장면이	-9.83776
▁논	-9.83787
▁자살	-9.83787
▁울었다	-9.83876
▁하는지	-9.83891
▁빼고	-9.83958
어진	-9.83982
▁실제로	-9.84079
냈다	-9.84114
자의	-9.84138
▁작가님	-9.84138
▁부르	-9.84206
례	-9.8421
▁마이너스	-9.8421
칙	-9.8421
▁뭉클	-9.8421
▁외계인	-9.8421
이라서	-9.84211
▁슬펐	-9.84211
▁떨어지	-9.8428
님이	-9.84294
▁옛	-9.8433
▁손발이	-9.84384
▁대부분	-9.84496
▁비슷	-9.84559
▁대중	-9.84577
언니	-9.84585
▁당시에	-9.84586
▁연기자들	-9.84631
▁이기	-9.84781
▁감동적	-9.84826
▁이미지	-9.84911
떡	-9.8506
▁경험	-9.85081
▁개인	-9.851
▁제로	-9.85117
▁편보다	-9.85132
▁달달	-9.85146
▁좋게	-9.85238
▁무척	-9.8526
▁신파	-9.85365
받는	-9.85391
고싶어	-9.85412
▁이쁘다	-9.85442
할수있	-9.85442
▁헤어	-9.85477
나온다	-9.85497
▁아침	-9.85518
▁체	-9.85532
▁평론가들	-9.85544
▁연기력도	-9.85611
▁재미없어요	-9.85615
씬은	-9.85634
▁누군가	-9.8568
▁망한	-9.85684
영화임	-9.85713
해야지	-9.85716
▁힘이	-9.85755
였고	-9.85773
▁볼게	-9.85781
그리고	-9.8581
뛰	-9.85897
멸	-9.85912
탓	-9.85912
▁더러운	-9.85913
▁the	-9.85915
▁주성치	-9.85915
▁더불어	-9.85916
만들었	-9.85919
▁죽은	-9.85922
▁낳	-9.85926
▁국가	-9.85954
▁전투	-9.85971
▁기다리	-9.86004
▁영화였어요	-9.86034
▁양심	-9.86043
하려	-9.86078
이유	-9.86187
▁있어야	-9.86232
▁속에	-9.86247
있어서	-9.86254
▁아쉽네요	-9.86292
▁없는데	-9.86301
지말고	-9.86332
▁인생의	-9.86438
본다면	-9.86487
▁케이블	-9.8653
▁아이가	-9.86559
엇다	-9.86564
보자	-9.86675
▁신선하고	-9.86709
룡	-9.86712
춰	-9.86748
ᅵ	-9.86774
▁봤더니	-9.86774
▁싸이코	-9.86775
▁스크린	-9.86776
▁그거	-9.86796
▁복잡	-9.86818
M	-9.86822
▁주말	-9.86834
형님	-9.86878
▁재미있었	-9.86893
▁울고	-9.8695
▁외모	-9.8699
▁에이	-9.87204
▁죽을	-9.87288
▁무비	-9.87294
▁이래	-9.87302
았음	-9.8731
상을	-9.87347
않는	-9.87361
가요	-9.87377
▁얘	-9.87386
▁완전히	-9.87404
▁뇌	-9.87431
▁웃음이	-9.87545
앞	-9.87579
▁카리스마	-9.87644
▁직접	-9.87651
▁쩐다	-9.87655
▁흥미로운	-9.87663
▁영혼	-9.8768
▁방법	-9.87698
즐겁	-9.87718
있나	-9.87727
구성	-9.87735
▁역대급	-9.87751
▁받을	-9.8778
▁빼고는	-9.87781
따라	-9.87802
▁조합	-9.87824
▁합	-9.87836
연기가	-9.87845
빼곤	-9.87903
▁모르겠지만	-9.87929
도안	-9.87959
▁볼만했	-9.88029
▁오글	-9.88037
▁볼수있	-9.88094
▁적당	-9.88204
▁검	-9.88231
▁충	-9.88326
▁좋지만	-9.88348
▁폴	-9.88355
아주	-9.88408
▁몇번	-9.88414
▁원작이	-9.88422
▁쌍	-9.88484
낀	-9.88511
▁군	-9.88515
▁왠만하면	-9.88521
▁고양이	-9.88523
와는	-9.88577
봐요	-9.88596
▁한번쯤	-9.88615
버릴	-9.88713
▁작품을	-9.88725
해준	-9.88797
▁사랑의	-9.88816
▁어른들	-9.8882
이니	-9.88845
▁삶에	-9.88852
▁없었던	-9.88868
있네	-9.88901
기로	-9.88931
▁평점보고	-9.8894
▁피해자	-9.88956
영화로	-9.89011
▁힘들었	-9.89036
꾸	-9.89108
▁무섭지도	-9.89131
했을까	-9.89197
▁오바	-9.89269
럽	-9.89287
▁바꿔	-9.89406
뽕	-9.89406
▁패러디	-9.89406
▁포르노	-9.89406
▁크리스마스	-9.89406
하지마라	-9.89443
식으로	-9.89448
▁G	-9.89486
▁웃기지도	-9.89518
▁밤	-9.89645
▁좋았지만	-9.89661
▁용기	-9.89677
▁말하고	-9.89683
▁지루하게	-9.89697
▁작품이다	-9.89707
▁승	-9.89737
▁극치	-9.89739
▁이럴	-9.8983
▁살고	-9.89835
▁잼나	-9.89845
▁즐기	-9.89874
안되는	-9.89898
만큼은	-9.89925
늘	-9.90001
사회	-9.9002
▁잊	-9.90046
는줄	-9.90061
▁도전	-9.90114
이렇게	-9.90254
▁p	-9.90268
댄	-9.90274
칭	-9.90298
퀴	-9.90299
▁교육	-9.90312
▁필름	-9.90333
하기엔	-9.90336
▁좋겠어요	-9.90367
▁응원	-9.90369
▁재미있었어요	-9.90413
▁동안	-9.90445
벨	-9.90447
▁일품	-9.90457
▁점정도	-9.90567
▁싱	-9.90571
켜	-9.90593
▁한명	-9.90611
▁부족하다	-9.90625
이였다	-9.90724
▁보자	-9.90761
▁원작의	-9.90763
주고싶	-9.90792
근데	-9.90816
▁영화인듯	-9.90843
▁썼	-9.90888
▁그럴	-9.9097
막장	-9.91022
▁지루하기	-9.91035
▁퇴	-9.91047
▁살려	-9.91107
델	-9.912
▁아름다웠	-9.912
▁좋았으나	-9.91223
됐다	-9.91268
▁레알	-9.91269
▁깔끔	-9.91337
▁옥	-9.91371
▁희	-9.91371
씨의	-9.91443
까요	-9.91475
▁해석	-9.91481
▁답답한	-9.91502
▁전설의	-9.91547
▁들어가	-9.9158
▁무협	-9.91652
▁잊을	-9.91666
▁최고입니다	-9.91681
하던데	-9.91703
▁비판	-9.91717
▁감정을	-9.91729
▁사랑은	-9.91782
▁훈훈한	-9.91904
▁홍콩영화	-9.91921
아가	-9.91954
텐	-9.91999
▁영화보면서	-9.92063
벅	-9.92109
점을	-9.92175
▁찬	-9.92181
▁다룬	-9.92203
시길	-9.92227
▁견	-9.92238
했었	-9.92242
보지	-9.92267
▁질리지	-9.92317
캐	-9.92332
▁인상적이	-9.92365
▁중에서	-9.92395
▁박수를	-9.92422
해진다	-9.92434
셈	-9.92458
OOO	-9.92486
만드는	-9.92489
부족	-9.92494
▁기대했는데	-9.92526
웃기	-9.92541
상태	-9.92578
내내	-9.92591
▁기자	-9.9262
▁따뜻해지는	-9.92673
문화	-9.92691
▁밝	-9.92692
▁웃김	-9.92709
▁꿈을	-9.92715
▁콩	-9.9277
▁의리	-9.92788
▁아프	-9.92793
▁의미를	-9.92901
재밌음	-9.92926
했었는데	-9.92929
▁진부하고	-9.92954
뉴	-9.93018
렁	-9.93026
둔	-9.93026
▁디테일	-9.93026
▁스트레스	-9.93027
▁good	-9.93028
▁잠깐	-9.93034
▁몇몇	-9.93047
만의	-9.93126
받고	-9.93153
자를	-9.93171
평가	-9.93196
▁뛰어	-9.93222
콩	-9.93274
괜찮	-9.9328
ᄌ	-9.93281
▁밑	-9.93289
▁신경	-9.93296
제목	-9.93384
en	-9.93387
나왔	-9.93415
▁올려	-9.93427
▁있던	-9.93437
▁이해하기	-9.93505
쳤다	-9.93509
쟁이	-9.93509
개봉	-9.93522
▁O	-9.93617
▁나쁘지	-9.93678
▁없다는	-9.93714
▁행복한	-9.93801
새끼들	-9.93853
내용이	-9.93897
▁블랙	-9.93946
▁젠장	-9.93954
▁알려	-9.93968
ing	-9.93972
▁개성	-9.93973
▁느껴진다	-9.93979
▁할머니	-9.94007
▁풍경	-9.94015
▁일어나	-9.94017
▁탑	-9.94098
쳐서	-9.94111
▁쓰레기같은	-9.94128
기까지	-9.94192
밥	-9.94201
▁똑같은	-9.94209
간의	-9.94211
▁이유를	-9.94212
▁싶었	-9.94215
B	-9.94248
▁감히	-9.94262
▁결론	-9.94278
야한다	-9.94281
이었음	-9.94317
▁악마	-9.94328
▁웬	-9.94381
▁낚시	-9.94402
▁가슴에	-9.94417
ᅮᅮᅮ	-9.94454
▁한마디	-9.94502
나오네	-9.94546
▁응	-9.94575
인건	-9.94579
이해	-9.94584
▁부작	-9.94592
▁남자의	-9.94633
동생	-9.94671
▁얼마	-9.94705
▁안맞	-9.94708
▁멍	-9.94722
▁척	-9.9473
우스	-9.94789
▁좋아할	-9.94801
▁보며	-9.9485
엠	-9.94885
뮤	-9.94886
룩	-9.94887
층	-9.94887
콧	-9.94887
▁말도안되는	-9.94903
▁좋아해서	-9.94988
감독이	-9.95018
▁그녀의	-9.95054
▁괜찮다	-9.95066
▁뿐이다	-9.95086
▁욕망	-9.95114
없어서	-9.9515
읽	-9.95186
쥐	-9.95214
▁십	-9.95232
▁우리는	-9.95235
상황	-9.95348
았습니다	-9.95358
▁막판에	-9.95358
▁않을까	-9.9537
▁편의	-9.9538
▁모르게	-9.95384
중독	-9.95408
잇는	-9.9554
▁하는거	-9.95692
설정	-9.95714
▁보여준다	-9.9577
▁할까	-9.95789
▁커플	-9.95798
랫	-9.9583
▁아까울	-9.95832
▁비현실적	-9.9584
▁맹	-9.95878
▁짜증난다	-9.95886
▁봤을때	-9.95889
▁가능	-9.95908
▁빵점	-9.95931
▁결정	-9.95988
▁사랑이야기	-9.95995
주기도	-9.96049
활	-9.96105
▁P	-9.96111
쟁	-9.96126
아니다	-9.9613
is	-9.96147
▁ᄏᄏᄏᄏᄏᄏ	-9.96169
캐릭터	-9.96182
▁선생님	-9.96185
▁실력	-9.96231
되었	-9.96256
▁보통	-9.96256
▁쪽	-9.96261
▁넘치는	-9.96263
▁애기	-9.96278
▁본방사수	-9.96288
치곤	-9.96289
▁타임	-9.96291
▁씁쓸	-9.96355
흔	-9.96363
▁최대	-9.96379
▁전개도	-9.96435
▁모를	-9.96447
▁안나	-9.9651
이자	-9.96544
적은	-9.96606
▁많고	-9.96644
▁개봉한	-9.96653
정신	-9.96677
▁졸리	-9.96724
껴	-9.96757
아요	-9.96763
겠어요	-9.96764
▁이제서야	-9.96785
▁재미와	-9.96787
▁반개도	-9.96787
▁테러	-9.96796
▁겨우	-9.96807
▁따로	-9.96862
▁존경	-9.96913
▁개막장	-9.96918
▁처럼	-9.96993
▁신고	-9.97015
▁이래서	-9.97045
▁보려고	-9.97078
▁미쳤	-9.97083
저리	-9.97086
▁재밌다고	-9.97086
▁빠져들	-9.97138
깔	-9.97178
하고싶은	-9.97184
▁오랜만	-9.9719
▁관점	-9.97285
▁보지마라	-9.97368
▁아내	-9.97373
▁한심한	-9.97439
▁관한	-9.97579
▁싶은데	-9.97603
▁어릴	-9.97614
줬다	-9.97621
잡고	-9.97649
▁이것이	-9.97676
헌	-9.97707
▁수도	-9.97738
냉	-9.97741
앉	-9.97744
▁DVD	-9.97744
핑	-9.97744
롤	-9.97744
칸	-9.97744
▁시간가는줄	-9.97745
▁감흥	-9.97764
▁흑인	-9.97765
▁어린시절	-9.97768
▁없지	-9.97772
지네요	-9.97777
▁추억이	-9.97778
▁남자주인공	-9.97809
시작	-9.97832
▁변태	-9.97842
▁들었다	-9.97882
▁식상	-9.97916
야할	-9.97929
▁해결	-9.97958
▁쩔	-9.97963
▁마이	-9.98118
▁영화라는	-9.98125
▁그건	-9.98127
답답	-9.98206
▁간다	-9.98256
▁둘이	-9.98283
▁그렇지	-9.98296
▁빠진	-9.98362
▁거기에	-9.98451
▁영화보는	-9.98557
▁심하게	-9.98567
▁ᄆ	-9.98588
▁형사	-9.98602
▁심각	-9.98695
붕	-9.98705
넹	-9.98715
▁감동적이다	-9.98722
▁소중한	-9.98723
▁제임스	-9.98724
▁아동	-9.98747
▁참신한	-9.9875
▁개뿔	-9.98759
▁하나의	-9.98884
▁먹고	-9.98929
으니까	-9.98931
▁야동	-9.98948
흥	-9.99117
▁오락	-9.99119
▁좋아하는데	-9.99146
▁생각하면	-9.99242
▁읽어	-9.99289
▁어쩔수	-9.99363
▁대해서	-9.99364
▁자주	-9.99374
▁보여줬	-9.99479
같지	-9.99508
아깝	-9.99566
때부터	-9.99609
모양	-9.99612
▁한국영화는	-9.99667
▁우리의	-9.99696
하다가	-9.99704
▁기다려	-9.99717
▁주기	-9.99795
요소	-9.9985
▁장르가	-9.99857
▁보내	-9.99874
▁잼있다	-9.99897
▁육	-9.99907
쁜	-10.0004
▁죽이는	-10.001
▁꽝	-10.0012
▁재미잇	-10.0013
겠습니다	-10.0014
로만	-10.0017
▁긴장감이	-10.0035
인생	-10.0037
▁L	-10.0041
▁이용	-10.0058
▁위로	-10.0058
노래	-10.0063
것인가	-10.0066
▁점수가	-10.0068
▁동성애	-10.0069
▁말아먹	-10.0069
▁속에서	-10.007
▁어쩜	-10.0072
▁나머지	-10.0075
▁대본	-10.0078
거같	-10.0086
▁이때	-10.0088
▁무술	-10.0091
▁없어요	-10.0095
따위	-10.0096
▁맞아	-10.0096
▁부모님	-10.0099
▁시리즈중	-10.01
자나	-10.0101
▁됨	-10.0102
▁부자	-10.011
문제	-10.0118
덤	-10.0124
붙	-10.0125
내가	-10.0128
▁망치	-10.0129
▁있었지만	-10.0138
▁톰	-10.0157
재밋음	-10.0157
▁남아있	-10.0162
나올때	-10.0163
▁g	-10.0167
폼	-10.0169
납니다	-10.017
▁여러가지	-10.017
▁영원히	-10.0173
▁거짓말	-10.0174
바닥	-10.0177
▁하늘	-10.0178
나오고	-10.0179
속의	-10.018
▁색	-10.0181
▁깨닫게	-10.0184
▁비디오로	-10.0185
▁쿠	-10.0187
▁색감	-10.0196
▁녹	-10.02
▁헛	-10.0202
▁보긴	-10.0203
▁자신이	-10.0204
▁아픈	-10.0206
▁아니었	-10.0208
▁할수	-10.0211
받은	-10.022
▁괜찮은데	-10.0226
지마세요	-10.023
드립니다	-10.0231
▁잊을수	-10.0232
혹은	-10.0233
스럽게	-10.0259
겠네요	-10.0261
▁관객을	-10.0263
▁쓰레기다	-10.0264
▁웃고	-10.0265
▁마지막장면	-10.0268
핀	-10.027
거같은데	-10.0271
었어	-10.0272
▁특별한	-10.0272
▁이런영화를	-10.0274
▁신선하	-10.0277
▁보여주고	-10.0281
▁인해	-10.0283
▁전율	-10.0284
▁여름	-10.0287
▁못함	-10.0293
▁왜이래	-10.0296
▁있구나	-10.0296
▁생각함	-10.0298
▁신선	-10.0301
학교	-10.0301
▁재미없게	-10.0302
▁충격적이	-10.0312
쩔	-10.0319
▁캐릭터가	-10.0319
▁정의	-10.0323
하기도	-10.0323
것같아요	-10.0325
스크	-10.0326
그리	-10.033
돋	-10.033
닌	-10.0332
▁탐	-10.0342
▁야구	-10.0343
사람들은	-10.0345
▁보기에	-10.0345
올리	-10.0348
▁ᄀ	-10.0348
▁그것도	-10.0351
▁전쟁영화	-10.0355
최	-10.0362
략	-10.037
장애	-10.0371
▁세상을	-10.0371
▁안타까운	-10.0372
낯	-10.0372
▁줬	-10.0372
▁떨어진다	-10.0375
▁번째	-10.0378
▁모험	-10.0378
▁등등	-10.0381
▁비밀	-10.0384
▁아예	-10.0388
▁단편	-10.039
▁기대이상	-10.0391
▁과장	-10.0392
▁도망	-10.0396
▁액션씬	-10.0397
럴	-10.0402
▁점줌	-10.0405
▁빵	-10.0407
▁돼	-10.0412
▁정도의	-10.0416
지지	-10.0416
▁옷	-10.0425
둥	-10.0425
▁웃기다	-10.0427
▁형님	-10.0433
▁모두가	-10.0434
틱	-10.0435
이즈	-10.0436
▁소름이	-10.0438
쓸	-10.044
샤	-10.0441
I	-10.0441
꼴	-10.0441
스릴러	-10.0441
있냐	-10.0441
되네요	-10.0446
휘	-10.0447
겠음	-10.0452
▁내면	-10.0461
했더니	-10.0464
였어	-10.0467
앵	-10.0475
삐	-10.0475
▁전기세	-10.0475
▁색다른	-10.0475
무서움	-10.0476
▁워	-10.0477
도아니고	-10.0479
하겠다	-10.0487
웃음	-10.0492
스키	-10.0493
▁배역	-10.0496
▁대놓고	-10.0502
▁대표	-10.0502
머니	-10.0504
▁본영화	-10.0506
▁있으	-10.0529
▁자신을	-10.0529
임에도	-10.0531
▁죽는줄	-10.0533
아까	-10.0536
랄까	-10.0538
▁끈	-10.0538
▁조작	-10.0541
푸	-10.0542
P	-10.0548
사람들이	-10.0552
다니는	-10.0555
▁노래도	-10.0556
▁술	-10.0563
콘	-10.0566
▁쓰는	-10.0571
▁않네요	-10.0574
흡	-10.0576
▁만든영화	-10.0577
▁다루	-10.0578
셀	-10.0579
▁짜임새	-10.0579
▁잔뜩	-10.0579
▁sf	-10.0582
하기에	-10.0585
▁최초	-10.0587
▁만들면	-10.0591
▁화려하	-10.0592
▁방영	-10.0597
▁싸움	-10.0597
▁오래된	-10.06
▁그만큼	-10.0602
▁ᄏᄏᄏᄏᄏᄏᄏ	-10.0603
공주	-10.0605
▁본거	-10.0606
트리	-10.0621
▁ᄃᄃᄃ	-10.0623
▁됬	-10.0635
▁감정이	-10.0638
▁알려주	-10.0638
▁봤을	-10.0643
▁최고였다	-10.0644
▁사진	-10.0645
▁쥐	-10.0647
▁훌륭하다	-10.0653
▁위해서	-10.0657
했다고	-10.0661
좋아하는	-10.0662
▁명작입니다	-10.0663
▁조화	-10.0666
▁재난영화	-10.0677
잃	-10.0681
쿨	-10.0684
▁아이디어	-10.0684
▁심지어	-10.0685
손가락	-10.0686
시오	-10.0687
보내	-10.0688
▁바꾸	-10.0689
▁그저그런	-10.0689
같네	-10.069
▁억지스러운	-10.0692
▁한숨	-10.0692
▁받는	-10.07
▁집에	-10.0701
힘	-10.0705
▁세번	-10.0706
▁재미있어	-10.0711
▁정말이지	-10.0711
하지마	-10.0715
▁못하다	-10.0716
매력	-10.0722
▁감안	-10.073
ᄋᄋ	-10.0731
▁답답하고	-10.0736
▁단어	-10.0738
버전	-10.0741
세상	-10.0741
젠	-10.0741
▁생각나서	-10.0748
▁에로영화	-10.0749
공포	-10.0751
부분이	-10.0753
앤	-10.0764
잠	-10.0765
▁프	-10.0768
얼굴	-10.0769
▁먼가	-10.0772
빠지	-10.0782
기억	-10.079
럭	-10.079
▁극장가서	-10.0793
▁결코	-10.0795
하기만	-10.0795
▁아무런	-10.0796
▁가치가	-10.0798
▁지났	-10.0801
▁알겠는데	-10.0809
▁하나같이	-10.0811
생활	-10.0813
▁만들다니	-10.0813
안됨	-10.0815
때문	-10.0818
▁재미도없고	-10.082
▁영상이	-10.0821
▁낮다	-10.0823
▁일이	-10.0824
▁있는지	-10.0824
▁푸	-10.0825
▁훈훈	-10.0839
▁최근에	-10.0839
냐고	-10.0849
▁불러	-10.0851
▁듣고	-10.0853
▁보지말	-10.0854
▁사고	-10.0855
▁남자들	-10.0856
▁가족영화	-10.0864
▁넌	-10.0869
옴	-10.0872
빛	-10.0874
럽다	-10.0876
논	-10.0878
▁촌스럽	-10.0878
▁진부하	-10.0884
건가요	-10.0885
▁감동의	-10.0886
▁아래	-10.0886
▁안볼	-10.0898
▁후속작	-10.0899
▁감정이입	-10.09
▁낙	-10.0904
하길	-10.0911
▁현실이	-10.0913
▁성격	-10.0917
평점이	-10.0922
떨어지	-10.0923
▁느꼈다	-10.0925
▁살아가는	-10.0929
▁모르겠음	-10.0929
▁그당시	-10.093
▁있었는데	-10.0939
▁다르다	-10.0939
▁멋지	-10.0939
▁ᄍᄍᄍ	-10.0941
티비	-10.0943
코드	-10.0945
▁애들은	-10.0946
는거야	-10.0949
▁분위기가	-10.0952
되나	-10.0953
▁없습니다	-10.0957
▁명화	-10.0957
▁여러분	-10.0959
▁작품은	-10.0961
▁캬	-10.0962
▁효과	-10.0965
▁제외	-10.0965
▁낚였다	-10.097
특	-10.0974
야겠다	-10.0991
▁배우를	-10.0992
맥	-10.0993
▁여운을	-10.0994
▁다운받아	-10.1001
▁싶을	-10.1001
액	-10.1005
묵	-10.1006
▁돌리	-10.1006
▁아쉬워	-10.1007
▁잔혹	-10.1008
보구	-10.1009
▁무엇인지	-10.1015
▁적당히	-10.1016
▁분들은	-10.102
▁연극	-10.1025
▁끝났	-10.1029
▁변화	-10.1035
▁문제가	-10.1047
▁오빠	-10.1059
긴다	-10.1059
▁잇	-10.1072
▁풍자	-10.1073
▁F	-10.1075
▁재미없었다	-10.1079
라곤	-10.1079
▁뭐하나	-10.1081
역시	-10.1082
▁낚였	-10.1083
▁혹시	-10.1084
영화인데	-10.1087
이제	-10.1094
거같아요	-10.1101
꽃	-10.1101
밤	-10.1104
G	-10.1105
▁반전은	-10.1105
싸움	-10.111
기에는	-10.111
닿	-10.1111
주면	-10.1112
만듬	-10.1113
▁출연한	-10.1114
렷	-10.1117
찔	-10.1117
z	-10.1117
ᄎ	-10.1117
ᅥ	-10.1117
▁블록버스터	-10.1117
▁아닙니다	-10.1117
▁끔찍	-10.1117
▁사운드	-10.1117
▁소소한	-10.1117
▁앞뒤	-10.1118
보여	-10.1119
긴하지만	-10.1124
본영화	-10.1128
▁가정	-10.1135
▁보았습니다	-10.114
장이	-10.114
▁내가본	-10.115
▁부실	-10.115
놈이	-10.115
▁주인공은	-10.1153
▁막장드라마	-10.1154
좋겠	-10.116
▁원작에	-10.1161
▁찾아보	-10.117
▁높게	-10.1171
후에	-10.1171
as	-10.1174
▁비하면	-10.1174
▁갖고	-10.1176
▁개연성도	-10.1177
적이다	-10.1178
▁몽	-10.1183
▁수준의	-10.1183
▁기준	-10.1185
짜증나	-10.1197
▁뛰어나	-10.1198
▁식상한	-10.1199
지도않고	-10.12
▁지나도	-10.1201
▁엿	-10.1202
▁길게	-10.1205
때매	-10.1205
▁년도에	-10.1206
닐	-10.1209
섭	-10.1212
챙겨	-10.1214
궁	-10.1222
때까지	-10.1227
강추	-10.1227
숭	-10.1228
U	-10.1228
▁살다살다	-10.1228
닉	-10.1228
▁울컥	-10.1228
▁작위적	-10.123
▁죽인	-10.1233
관람	-10.1233
▁맡	-10.1237
▁데리고	-10.1237
려다	-10.1239
▁또다른	-10.1239
▁그야말로	-10.1239
장난	-10.1245
당한	-10.1245
▁씹	-10.1248
ᄒᄒᄒ	-10.1254
거리는	-10.1258
듯이	-10.126
▁남은	-10.1265
▁연출과	-10.1268
▁드립니다	-10.1274
ᄃᄃ	-10.1278
▁엉성하고	-10.1279
▁뻔하	-10.128
▁시청률이	-10.128
▁가슴을	-10.1283
▁추리	-10.1296
좋음	-10.1298
▁잔인	-10.1298
▁아니야	-10.1301
깝	-10.1301
▁ᄌ	-10.1308
본사람	-10.1311
볼만	-10.1314
▁승리	-10.1314
▁맞추	-10.1316
녕	-10.1318
▁의미가	-10.1325
▁탄탄	-10.133
륜	-10.1336
있습니다	-10.1339
뚱	-10.134
▁장국영	-10.134
▁등장인물	-10.1341
▁충실	-10.1344
에서의	-10.1345
▁첫사랑	-10.1346
▁감각	-10.1348
▁담배	-10.135
▁첨엔	-10.1354
▁열연	-10.1362
▁수많은	-10.1369
▁선동	-10.137
▁노래가	-10.1372
▁잔잔하	-10.1373
▁대단하	-10.1374
였으면	-10.1381
▁싸우는	-10.1381
▁책을	-10.1385
자리	-10.1387
▁아기	-10.1388
▁낮네	-10.1388
▁잼나게	-10.1389
▁요리	-10.1389
받아	-10.1395
▁살면서	-10.1397
▁놀랍다	-10.1398
▁북	-10.1399
햇다	-10.1402
싶다	-10.1404
▁마지막까지	-10.1404
▁깔	-10.1405
쓰고	-10.1408
▁답이	-10.1409
▁공포물	-10.1409
▁헬	-10.1411
▁폐	-10.1414
▁약간의	-10.1417
▁예쁘고	-10.1419
▁당신은	-10.142
▁좋겠	-10.1432
▁여주가	-10.1433
제작	-10.1436
▁의문	-10.1436
▁낮아	-10.1437
▁새로	-10.1437
보이는	-10.1441
꿀잼	-10.1441
▁열받	-10.1447
▁편을	-10.1447
▁짐	-10.1449
몇	-10.1451
▁포인트	-10.1452
옹	-10.1452
▁처음에는	-10.1452
▁로버트	-10.1454
▁아류작	-10.1454
▁다양한	-10.1454
▁흔들	-10.1459
앞에서	-10.146
▁운명	-10.1462
했을때	-10.1463
▁탄생	-10.1465
▁잘만들었	-10.1474
▁사상	-10.1475
덕에	-10.1485
▁매력을	-10.1486
▁언니	-10.1487
연기도	-10.1491
▁코드	-10.1497
왓	-10.1497
▁조카	-10.1498
쓰는	-10.1499
▁만남	-10.1504
▁안습	-10.1527
만하다	-10.1545
▁봤네	-10.155
▁보려	-10.1554
▁찰	-10.1554
▁가면	-10.1554
객	-10.1559
▁스티븐	-10.1569
▁특수효과	-10.1569
▁태어나서	-10.1569
▁러시아	-10.1569
▁핵노잼	-10.157
▁많은데	-10.1571
▁배경음악	-10.1571
▁궁	-10.1573
▁코미디영화	-10.1574
타임	-10.1575
▁구성이	-10.1577
진심	-10.1579
▁봅니다	-10.1582
같고	-10.1583
▁결말을	-10.1584
▁레이	-10.1584
▁년작	-10.1585
▁한국에서	-10.1587
▁죽이고	-10.16
해준다	-10.16
아닌가	-10.16
했지	-10.1601
드가	-10.1602
▁잘봤어요	-10.1602
시간이	-10.1603
▁집중해서	-10.1606
▁축	-10.1609
▁두고	-10.1614
▁그자체	-10.1617
▁방식	-10.1621
하하하	-10.1623
둥이	-10.1625
▁이런건	-10.1638
▁연기자	-10.1642
▁별로임	-10.1643
ad	-10.1647
▁샘	-10.1658
브라	-10.1663
▁정작	-10.1663
▁떨어	-10.1667
어여	-10.1678
J	-10.1685
찐	-10.1685
▁심형래	-10.1685
뽀	-10.1685
▁플롯	-10.1685
▁치고	-10.1687
▁집착	-10.1687
▁짧은	-10.1688
큰	-10.1693
겠죠	-10.1693
▁놀라운	-10.1695
갑니다	-10.1695
영화입니다	-10.1696
커플	-10.1697
그만	-10.1698
▁만들었는지	-10.1698
▁재밌던데	-10.1707
▁짜증만	-10.1709
▁소년	-10.1719
▁빼면	-10.172
▁궁금하다	-10.1723
▁잡아	-10.1727
▁안본	-10.1728
▁아쉽지만	-10.1731
보니까	-10.1731
해주고	-10.1733
▁좀비영화	-10.1734
받았	-10.1735
▁생각했는데	-10.1737
▁안좋	-10.174
▁포스	-10.1741
▁느껴지	-10.1742
▁밋밋	-10.1746
▁그립다	-10.1747
쓰레기영화	-10.1748
bb	-10.1749
▁최고임	-10.175
▁생긴	-10.1751
리스트	-10.1759
▁내용인지	-10.176
▁철학적	-10.1761
▁매일	-10.1762
지요	-10.1763
검	-10.1771
▁신비	-10.1772
▁W	-10.1784
▁폐지	-10.1786
▁낮게	-10.1793
▁편도	-10.1793
▁일반	-10.1797
▁만한	-10.1798
▁돈을	-10.1799
갱	-10.1803
▁쓸데없이	-10.1803
▁바랍니다	-10.1805
▁크리스	-10.1807
못해	-10.1807
▁당연히	-10.1808
대사	-10.1808
하는영화	-10.181
▁잘하는	-10.181
▁여자주인공	-10.1812
▁근래	-10.1815
▁어느정도	-10.1815
▁꼬마	-10.1824
엔딩	-10.1827
▁이딴걸	-10.1828
▁이드라마	-10.184
▁형편없	-10.1843
받아서	-10.1844
▁욕심	-10.1845
▁생활	-10.1845
▁본듯	-10.1851
▁인디	-10.1852
되었다	-10.1853
▁손에	-10.1855
▁역사를	-10.1855
▁키스	-10.1855
▁친구가	-10.1856
▁매력적	-10.1866
▁신선했	-10.1868
▁엔딩이	-10.187
보셈	-10.1875
▁바다	-10.1877
▁편안	-10.1883
▁엘	-10.1888
▁배신	-10.1888
▁볼수있는	-10.1889
없는영화	-10.1892
▁남네요	-10.1894
해야할	-10.1895
사를	-10.1903
▁맞지	-10.1911
았지만	-10.1914
▁주기도	-10.1915
ᅲᅲᅲᅲ	-10.192
섹	-10.1921
▁주윤발	-10.1922
컴	-10.1922
▁교과서	-10.1922
▁이상하게	-10.1923
찰	-10.1925
▁할아버지	-10.1925
▁한편의	-10.1926
▁살린	-10.1928
▁영향	-10.1933
▁해라	-10.1933
▁일부러	-10.1934
▁만약	-10.1936
몸	-10.1937
ᄆ	-10.1937
▁뭘까	-10.1938
▁보기에는	-10.1943
▁기회	-10.1945
▁어울리는	-10.1945
▁점이상	-10.1946
▁무료	-10.1948
씬이	-10.1949
▁식상하	-10.1953
▁책임	-10.196
▁재미있습니다	-10.196
▁어른이	-10.1962
▁꽤나	-10.1964
▁고마	-10.1965
거든	-10.1968
▁몰랐다	-10.197
스카	-10.1978
▁뭐니	-10.198
▁잔잔	-10.1981
▁주제를	-10.1982
▁프리	-10.1985
▁많은걸	-10.1988
▁소재도	-10.1993
▁호구	-10.1995
것같은	-10.1995
감독님	-10.2
▁불쌍한	-10.2
▁망친	-10.2003
▁조선	-10.2004
계속	-10.2006
법한	-10.2006
▁ᅲᅲᅲᅲ	-10.201
기전에	-10.201
했다면	-10.2012
▁범	-10.2015
▁했으면	-10.2016
▁교훈을	-10.2017
▁벤	-10.202
es	-10.203
▁손발	-10.2034
할만한	-10.2035
픽	-10.2039
▁반대	-10.2041
▁가벼운	-10.2042
▁임팩트	-10.2042
싹	-10.2042
▁반드시	-10.2042
▁때려	-10.2042
▁유일하게	-10.2042
▁두번째	-10.2044
▁년만에	-10.2047
▁위험	-10.2048
떨어진	-10.205
▁여자친구	-10.2051
거죠	-10.2056
▁소설을	-10.2056
▁따분	-10.2056
▁주제가	-10.2056
▁순수함	-10.2058
▁나름대로	-10.206
생각이	-10.2061
▁이해할수	-10.2061
벗	-10.2062
▁좋겠네요	-10.2064
▁말하고자	-10.2064
▁프레	-10.2065
▁최고로	-10.207
▁점대는	-10.207
▁어설프고	-10.2072
있을	-10.2073
▁휘	-10.2074
▁예쁘다	-10.2076
▁케이블에서	-10.2076
▁배우들은	-10.208
없었	-10.2082
▁잼잇	-10.2083
▁나랑	-10.2084
▁목적	-10.2088
될듯	-10.2089
▁플	-10.2098
▁않아서	-10.2098
▁시간만	-10.21
▁아름답	-10.2102
유치	-10.2102
▁짜증나서	-10.2106
것만으로도	-10.2109
▁상업	-10.2109
▁어처구니	-10.2109
▁이런영화는	-10.2114
▁다시보니	-10.2114
▁격	-10.2119
모르겟	-10.212
▁자리	-10.212
▁다운	-10.2122
두고	-10.2124
▁거리	-10.2128
▁부분도	-10.2128
거같음	-10.2133
▁주연배우	-10.2135
잖	-10.2141
▁만들수	-10.2143
▁명장면	-10.2144
따구	-10.2144
▁낮지	-10.2148
▁불쌍하다	-10.2153
▁귀여워	-10.2153
▁생각할	-10.2154
뻔한	-10.216
씨는	-10.2161
▁아닐	-10.2162
찮	-10.2163
펑	-10.2164
벼	-10.2164
▁dvd	-10.2164
▁클레멘타인	-10.2164
▁해리포터	-10.2164
▁제니퍼	-10.2164
▁인내심	-10.2164
▁홍상수	-10.2164
▁목숨	-10.2165
▁당황	-10.2168
▁거기다	-10.2169
아까운	-10.2173
똥	-10.2175
▁어째	-10.2176
▁추격	-10.2178
볼까	-10.2183
든지	-10.2183
이었습니다	-10.2184
▁재능	-10.2186
뇌	-10.2186
▁마약	-10.2189
덜	-10.2189
▁봐도봐도	-10.2189
▁삶이	-10.2193
찡	-10.2193
▁나에겐	-10.2193
▁잼있어요	-10.2195
곳에	-10.2197
▁깜	-10.2199
▁아름답게	-10.22
▁안맞는	-10.22
었을	-10.2201
▁정상	-10.2204
▁어이	-10.2204
▁기가	-10.2204
▁우연	-10.221
▁곧	-10.221
▁강렬한	-10.2215
▁버리	-10.2215
▁내용과	-10.2225
▁시간아깝다	-10.2226
려다가	-10.2226
▁알수있	-10.2227
▁확인	-10.2228
▁못보겠	-10.2229
하진	-10.2235
▁여전	-10.2238
사건	-10.2238
▁있다니	-10.224
▁결론은	-10.2249
▁하다가	-10.2249
▁재미없어서	-10.2251
여행	-10.2256
▁돈아깝	-10.2258
할수없	-10.2259
▁엉망이	-10.2267
▁볼때	-10.227
▁떨어지고	-10.2272
▁흐르는	-10.2276
▁잘하고	-10.2284
▁k	-10.2287
랩	-10.2288
▁설득력	-10.2288
▁조니뎁	-10.2288
▁터미네이터	-10.2288
긋	-10.2288
▁you	-10.2288
▁배트맨	-10.2288
▁짜집기	-10.2288
▁늑대	-10.2288
▁모른다	-10.2288
▁유일한	-10.2289
▁기대했	-10.2291
▁이야기는	-10.2296
▁떨	-10.2298
▁봤을까	-10.23
▁보던	-10.2301
▁멋졌	-10.2304
▁E	-10.2306
▁업	-10.2309
라는걸	-10.231
빌	-10.2311
않은	-10.2314
▁넘게	-10.2319
▁조절	-10.2321
었네요	-10.2321
▁죽었	-10.2324
질질끌	-10.2324
▁혹시나	-10.2326
▁다시는	-10.2326
▁타고	-10.2327
▁동심	-10.2328
들에	-10.2338
▁따뜻하고	-10.2344
▁처음에	-10.2346
▁시리즈는	-10.2349
것처럼	-10.235
소설	-10.2354
▁억지스럽	-10.2356
ut	-10.2361
▁선물	-10.2361
▁자체는	-10.2365
▁엄마가	-10.2374
짱짱	-10.2375
▁수작이다	-10.2376
▁적절	-10.2377
▁하아	-10.2381
▁수입	-10.24
렵	-10.2407
삭	-10.2412
▁고등학교	-10.2413
탱	-10.2413
▁유덕화	-10.2413
▁이소룡	-10.2413
▁박진감	-10.2413
▁내생에	-10.2414
▁웃으면서	-10.2419
같은영화	-10.2421
▁잠이	-10.2421
▁몰라	-10.2421
▁상영관	-10.2421
▁끼워	-10.2422
▁현실과	-10.2423
▁피해	-10.2423
▁없으면	-10.2427
▁ᄏᄏᄏᄏᄏᄏᄏᄏᄏ	-10.2427
▁단순히	-10.2429
▁불편한	-10.243
촌	-10.244
L	-10.2447
부러	-10.245
▁독일	-10.2451
▁아까운영화	-10.2451
뿐이다	-10.2456
싫어	-10.2458
배경	-10.2476
▁모든걸	-10.2477
▁연인	-10.2477
▁아까웠	-10.248
▁공감할	-10.2481
▁그동안	-10.2485
▁한국의	-10.2487
방식	-10.249
죽는	-10.2505
▁발상	-10.251
▁음식	-10.2511
▁난해하	-10.2512
▁섬	-10.2521
출연	-10.2523
▁점이다	-10.2523
▁오글거리	-10.2529
▁편에	-10.2534
이랄까	-10.2537
▁대통령	-10.2539
랭	-10.2539
및	-10.2539
▁뱀파이어	-10.2539
▁제이슨	-10.2539
▁줄수	-10.254
▁생각으로	-10.2542
보게되	-10.2542
▁여러번	-10.2543
할것	-10.2544
▁인상적	-10.2545
▁내일	-10.2547
▁로코	-10.2548
▁다섯	-10.2552
오르	-10.2555
▁괜찮았다	-10.2555
▁상대	-10.2556
▁감동받	-10.2558
뭐야	-10.2563
▁쉬	-10.257
보고싶다	-10.2572
▁틀어	-10.2573
▁희망을	-10.2574
없네요	-10.258
아저씨	-10.2581
▁어렵다	-10.2584
맞추	-10.2585
▁만든거	-10.2585
▁세상이	-10.2587
슬프	-10.2588
▁기억나는	-10.259
▁실화를	-10.2593
▁새벽에	-10.2594
려나	-10.2595
▁가족들	-10.2602
지말자	-10.2605
혼자	-10.2617
▁재밌어서	-10.2636
▁하나로	-10.2645
본영화중	-10.2652
▁어디에	-10.2659
▁이상하고	-10.2661
▁아이들과	-10.2663
균	-10.2665
땀	-10.2667
ᄁ	-10.2667
▁우뢰매	-10.2667
퓨	-10.2667
▁숨겨진	-10.2667
▁이토록	-10.2667
▁갠적으로	-10.2667
▁한번도	-10.2668
▁이끌어	-10.2668
▁of	-10.2668
▁빵빵	-10.2668
▁맞춰	-10.2671
▁허허	-10.2676
▁디워	-10.2683
▁예능	-10.2687
▁동양	-10.2687
▁무너	-10.2694
▁개념	-10.2698
않다	-10.2699
▁하지원	-10.2699
▁의사	-10.2701
생겼	-10.2709
▁아우	-10.271
썼	-10.2712
▁마지막회	-10.2713
에대해	-10.2713
▁많아서	-10.2715
▁제목만	-10.2724
▁살아있	-10.2725
▁아쉬움이	-10.2729
▁참신하	-10.274
le	-10.2743
감독의	-10.275
씀	-10.2751
공포영화	-10.2752
▁이해를	-10.2753
▁빅	-10.2758
▁잘만들	-10.2759
▁초딩때	-10.2761
부분은	-10.2765
▁즐거웠	-10.2765
▁영상과	-10.2767
▁영화화	-10.2769
오브	-10.2773
▁후에	-10.2774
▁끝에	-10.2776
▁사랑해	-10.2778
▁쓰고	-10.2778
▁삼류영화	-10.2778
▁인생에	-10.2778
▁봤어	-10.2779
지않아	-10.2783
▁보다니	-10.2785
줄알았	-10.2785
▁명작을	-10.279
꾼	-10.2793
수밖에	-10.2793
달아	-10.2794
▁재미로	-10.2796
▁할리우드	-10.2797
깃	-10.2797
셋	-10.2797
뗄	-10.2797
▁뭥미	-10.2797
▁착각	-10.2797
▁사투리	-10.2797
▁깜짝	-10.2798
▁오락영화	-10.2801
있지	-10.2802
효과	-10.2802
▁서양	-10.2802
▁언제봐도	-10.2807
좋았다	-10.2812
▁다시보고싶	-10.2817
랜드	-10.2821
▁명배우	-10.2823
▁울리는	-10.2825
옆	-10.2838
▁짜증이	-10.2841
웨이	-10.2844
보인다	-10.2845
F	-10.2846
팀	-10.2846
갓	-10.2846
였나	-10.285
▁과학	-10.2854
톤	-10.2855
시즌	-10.2855
▁사랑해요	-10.2858
모두	-10.2858
▁강한	-10.2859
▁정보	-10.2862
▁싶어요	-10.2864
▁지겹다	-10.2868
▁봐야하는	-10.2871
▁느낌의	-10.2878
보신분	-10.2884
▁부부	-10.2884
▁기타	-10.2887
▁받은	-10.2888
할뿐	-10.2892
개그	-10.29
살아	-10.2906
▁밀려	-10.2906
▁감동은	-10.2908
주기	-10.2917
▁넘치	-10.2919
▁살리	-10.2919
▁있네	-10.2922
못하는	-10.2923
같아서	-10.2923
▁만들기	-10.2926
닫	-10.2927
▁하길래	-10.2928
덴	-10.2929
램	-10.2929
▁쓸데없는	-10.2929
▁아놀드	-10.2929
▁흑백	-10.2929
▁마음으로	-10.2929
▁영환데	-10.293
▁눈물나	-10.2932
엇는데	-10.2934
▁놓고	-10.2934
▁실수	-10.2934
듯하다	-10.2936
▁적어도	-10.2937
▁빠른	-10.2937
▁사라지	-10.2938
물로	-10.2939
▁안봐도	-10.294
▁h	-10.294
재밌어	-10.2942
▁장면도	-10.2946
▁잘못된	-10.2949
▁머리가	-10.295
메이	-10.2954
▁다운받	-10.2957
▁아깝고	-10.2957
ᄍᄍ	-10.2958
보여주	-10.296
하러	-10.2965
이름	-10.2967
받을	-10.2973
▁시대에	-10.2979
▁좋네	-10.2986
느껴	-10.2987
일듯	-10.2987
▁돋보이는	-10.2988
몰입	-10.2989
웃김	-10.2991
▁없었음	-10.2991
레스	-10.2993
▁거장	-10.2996
▁장면들	-10.2999
았어요	-10.3006
▁쉽지	-10.3007
기도하고	-10.3011
그래도	-10.3014
끝까지	-10.3017
▁멋지고	-10.3019
▁현실감	-10.3019
▁검색	-10.3019
▁그지같	-10.3021
▁어색하고	-10.3023
▁어디가	-10.3034
감정	-10.3037
▁형제	-10.3045
▁가수	-10.3045
▁장진	-10.3054
▁메이	-10.3059
딘	-10.3062
젖	-10.3062
짤	-10.3062
▁컨셉	-10.3062
▁희대의	-10.3062
▁겨울	-10.3064
▁즐겨	-10.3065
▁실험	-10.3066
▁명대사	-10.3067
▁만화책	-10.3067
▁처절	-10.3068
▁에효	-10.3069
분들은	-10.3071
▁본게	-10.3073
▁충분	-10.3073
▁안들	-10.3073
▁이상해	-10.3076
▁내용전개	-10.3079
▁짜증남	-10.3084
▁하품	-10.3092
▁집중이	-10.3092
▁개노잼	-10.3094
▁여자의	-10.3101
▁정신병자	-10.3113
▁모르겠네요	-10.3123
보시길	-10.3134
더빙	-10.3135
▁슈	-10.3142
▁중심	-10.3144
▁안간다	-10.3149
▁맛이	-10.3154
▁논리	-10.3155
▁잠들	-10.3164
ᄍ	-10.3164
곳에서	-10.3164
▁갔다	-10.3168
▁줍니다	-10.3171
▁뒤에	-10.3171
▁장면을	-10.3173
▁링	-10.3173
놨네	-10.3177
▁싸우	-10.3183
▁매니아	-10.319
맘	-10.3196
뎅	-10.3197
▁나레이션	-10.3197
▁왤케	-10.3197
눌	-10.3197
밴	-10.3197
팠	-10.3197
▁공짜로	-10.3197
▁하정우	-10.3197
▁떠오르	-10.3199
▁뭐하자는	-10.3199
▁떨어짐	-10.3199
▁탈출	-10.3201
치고는	-10.3205
▁생기	-10.3206
▁서울	-10.3208
▁저평가	-10.321
▁다시보고	-10.321
▁반전을	-10.3212
▁들고	-10.3212
▁여친	-10.3214
▁아냐	-10.3214
장르	-10.3216
▁아니지	-10.3217
▁ᄒᄒᄒᄒ	-10.3218
▁쭉	-10.3219
알아	-10.3226
▁일본인	-10.3236
었네	-10.3237
▁연출은	-10.3241
▁덤	-10.3258
▁ᅲᅮ	-10.326
틴	-10.3262
느끼	-10.3266
▁X	-10.3266
▁진수	-10.327
▁보이지	-10.3276
▁으리	-10.3277
▁다르게	-10.3278
▁앞에	-10.3283
부터가	-10.3303
▁여주인공이	-10.3311
감동적	-10.3315
인물	-10.3315
으려고	-10.3319
▁아니라고	-10.3321
하니까	-10.3325
▁굉장	-10.3327
장면은	-10.333
▁오랫만에	-10.3334
▁케릭터	-10.3334
곱	-10.3334
▁이뻐서	-10.3335
▁도무지	-10.3335
▁재미있을	-10.3335
▁사용	-10.3335
▁이런류의	-10.3336
▁폭풍	-10.3336
▁평균	-10.3337
가슴	-10.3337
▁일본은	-10.3338
▁히어로	-10.334
▁남았	-10.3342
▁루즈	-10.3342
▁돈내고	-10.3344
줄알았는데	-10.3346
보긴	-10.3348
▁염	-10.3348
al	-10.3351
▁스릴도	-10.3357
▁최고봉	-10.3363
▁어거지	-10.3369
▁인형	-10.3371
▁평소	-10.3378
▁하는게	-10.3381
▁높아서	-10.3383
▁박수	-10.3387
▁정신없	-10.3391
져요	-10.3392
▁공간	-10.3397
▁아까웠다	-10.3407
비디오	-10.3407
▁봤다면	-10.3411
▁잊고	-10.3418
갈수록	-10.3418
자신	-10.3418
▁달려	-10.343
▁선정	-10.3433
또한	-10.3437
▁훈훈하	-10.3441
▁김치	-10.3443
▁떼	-10.3446
▁학년	-10.3452
▁의상	-10.3455
▁이번에	-10.3458
하시길	-10.3461
▁내돈	-10.3466
▁배경이	-10.3471
쿵	-10.3473
▁네티즌	-10.3473
▁늦게	-10.3473
▁송강호	-10.3473
앨	-10.3473
켄	-10.3473
넬	-10.3473
▁걱정	-10.3473
▁여자애	-10.3474
트로	-10.3475
▁황당한	-10.3475
▁민폐	-10.3475
▁보시면	-10.3477
▁재개봉	-10.3478
맞는	-10.348
▁아무튼	-10.3481
▁폭발	-10.3481
▁유럽	-10.3483
▁판단	-10.3484
하는건지	-10.3485
있었다	-10.3498
▁ᄒᄃᄃ	-10.3498
갈때	-10.3501
▁기존	-10.3502
▁안보는게	-10.3506
▁궁금해서	-10.3513
▁어울리지	-10.3514
▁만들어주	-10.3516
▁괜찮음	-10.3524
무시	-10.3533
▁표현할	-10.3536
▁사랑한다	-10.3538
▁포스터에	-10.3539
▁최고의영화	-10.354
▁장난치	-10.3546
▁한국판	-10.3547
▁짜증나고	-10.3549
▁생겼	-10.3557
▁갓	-10.3561
▁어쩌면	-10.3565
▁고어	-10.3565
▁마리	-10.357
억지	-10.3581
▁나네요	-10.3581
▁불안	-10.3581
못하고	-10.3582
▁없냐	-10.3588
▁땡	-10.3591
▁세월	-10.3596
▁오브	-10.3603
낭	-10.3605
▁따라가	-10.3605
▁망쳐	-10.3606
▁겁	-10.3607
▁갑니다	-10.361
하지말고	-10.3611
▁최소	-10.3612
멈	-10.3614
▁인터넷	-10.3614
펜	-10.3614
▁짐캐리	-10.3614
닷	-10.3614
얄	-10.3614
▁브루스	-10.3614
▁달콤	-10.3615
▁꿈꾸	-10.3616
▁각색	-10.3619
▁관련	-10.3621
▁재미없을	-10.3621
▁믿고보는	-10.3623
▁요새	-10.3624
▁억지감동	-10.3624
▁거북	-10.3626
▁라스트	-10.3627
자들이	-10.3627
▁자극적인	-10.363
▁무엇인가	-10.3631
▁담겨	-10.3631
▁점수는	-10.3632
▁알겠다	-10.3636
▁괜찮았는데	-10.3637
▁살인마	-10.3642
▁얼굴이	-10.3642
▁반담	-10.3643
▁남긴	-10.3643
▁부담	-10.3644
오래	-10.3648
▁스토리전개	-10.3654
▁액션신	-10.3656
▁한방	-10.3658
▁절정	-10.3661
▁최소한	-10.3663
▁시작부터	-10.3667
▁잔잔하게	-10.3672
있으면	-10.3673
▁허술한	-10.3674
▁적당한	-10.3676
▁아들이	-10.3676
▁유발	-10.3676
▁의지	-10.3676
▁이름이	-10.3677
보는게	-10.3687
드립	-10.3693
▁답답해	-10.3695
▁마지막엔	-10.3695
▁따위	-10.3696
할수가	-10.3698
▁강렬	-10.3701
나왓	-10.3702
있지만	-10.371
▁인간은	-10.3714
올라	-10.3725
▁초등학교	-10.3731
▁부정	-10.3736
▁망했	-10.3744
▁귀엽다	-10.375
▁볼만했다	-10.375
▁보게된	-10.3752
깍	-10.3754
엑	-10.3757
닼	-10.3757
렴	-10.3757
▁소중함을	-10.3757
▁리얼리티	-10.3757
▁언젠가	-10.3757
▁오프닝	-10.3757
▁부끄럽	-10.3757
▁자동차	-10.3757
▁내생애	-10.3757
덩어리	-10.3757
▁정우성	-10.3757
신분	-10.3759
▁왠만한	-10.376
▁왜이러	-10.3763
▁흘리	-10.3763
▁작품입니다	-10.3765
▁파괴	-10.3766
▁극복	-10.3767
▁환경	-10.3767
▁무겁	-10.377
▁개똥	-10.3772
▁유치해	-10.3772
▁천국	-10.3777
▁말자	-10.3779
만큼이나	-10.3783
▁말이필요	-10.3789
▁찾아볼	-10.379
▁없게	-10.379
곳이	-10.3791
▁원조	-10.3792
▁유행	-10.3799
▁부럽	-10.3801
▁전쟁의	-10.3801
▁평화	-10.3803
겨운	-10.3804
햇는데	-10.3808
▁화나	-10.381
▁그렇지만	-10.3819
▁본건데	-10.3824
아빠	-10.3825
▁기대없이	-10.3831
▁다신	-10.3833
▁넣어	-10.3839
▁아진짜	-10.3845
공감	-10.3848
허접	-10.3849
▁대신	-10.3864
▁잔잔하면서	-10.387
▁추천하고	-10.3873
▁가능한	-10.3873
보소	-10.3875
마리	-10.3878
▁가득한	-10.388
▁찾는	-10.3884
▁그것이	-10.3887
▁곰	-10.3889
▁예술영화	-10.3889
바라	-10.3889
랍	-10.3899
시키지	-10.39
납	-10.39
▁재미없다고	-10.39
꼈	-10.3901
팍	-10.3902
뻥	-10.3902
웟	-10.3902
▁도데체	-10.3902
▁제시카	-10.3902
▁우려먹	-10.3902
▁헛웃음	-10.3902
▁블랙코미디	-10.3903
▁스포츠	-10.3903
재미없음	-10.3904
▁시나리오가	-10.3905
것보다	-10.3906
▁꿀	-10.3907
낮은	-10.3908
▁파리	-10.3911
차별	-10.3916
▁꼭보세요	-10.3918
자마자	-10.3919
▁볼만합니다	-10.3919
▁거품	-10.3922
▁아만다	-10.3923
싫	-10.393
▁정도면	-10.393
▁죽고	-10.3939
▁시점	-10.394
느낌이	-10.3941
▁쫓	-10.3941
▁영화라니	-10.3941
▁포스터만	-10.3942
▁영원한	-10.3945
▁빛을	-10.3946
▁재밋어요	-10.3954
▁없나요	-10.3957
잖아요	-10.3962
▁비슷하	-10.3964
자들의	-10.3967
▁영상미가	-10.3968
▁녹아	-10.3971
▁같고	-10.3971
높은	-10.3971
▁놀랍	-10.3974
▁사랑합니다	-10.3976
▁끌고	-10.3979
▁않았지만	-10.3983
▁유치해서	-10.3983
▁좋을듯	-10.3988
▁지겹	-10.3989
▁그것을	-10.399
▁소화	-10.3992
졸작	-10.4012
세여	-10.4015
▁벨	-10.4024
볼수있	-10.4028
▁재미있는데	-10.4029
할줄	-10.4029
었는지	-10.4037
등록	-10.4041
녀석	-10.4045
▁자극적	-10.4046
▁묻어	-10.4047
▁떡	-10.4048
▁러브	-10.4048
▁등장인물들	-10.4048
덩	-10.4049
켰	-10.4049
▁깡패	-10.4049
▁임창정	-10.4049
껀	-10.4049
▁동시에	-10.405
▁역겨운	-10.4051
▁잤다	-10.4053
▁분만에	-10.4054
▁장난하냐	-10.4055
▁은근히	-10.4056
표정	-10.4056
장에서	-10.4057
▁소장	-10.4061
▁전체적인	-10.4062
▁진지한	-10.4063
▁김정	-10.4065
▁뻔한스토리	-10.4066
▁여태	-10.4069
▁즐	-10.4072
▁축구	-10.4083
빼	-10.4083
빠져	-10.4083
▁갖다	-10.4089
▁보았는데	-10.409
▁담은	-10.4094
▁생각난다	-10.4099
▁믿기지	-10.41
▁자아	-10.4101
하자면	-10.4102
▁아깝네	-10.4102
스틱	-10.4105
▁목소리가	-10.4106
▁나무	-10.4108
게만드는	-10.4109
연기력	-10.411
▁싶었다	-10.4122
▁먹는	-10.4123
같아	-10.4123
▁별하나	-10.4126
이었던	-10.4128
▁잼있음	-10.413
스톤	-10.4132
▁잠시	-10.4136
▁괜찮아	-10.4139
▁팀	-10.4142
▁답답함	-10.4143
▁만난	-10.4149
▁받고	-10.4158
▁보는거	-10.4158
므	-10.4159
▁찍고	-10.4161
▁각자	-10.4169
줬으면	-10.417
웃겨	-10.4171
▁두시간	-10.4179
▁멋있는	-10.418
▁그립	-10.4191
▁생명	-10.4192
주연	-10.4197
똘	-10.4198
▁류승범	-10.4198
▁명불허전	-10.4198
▁이병헌	-10.4198
걷	-10.4198
릇	-10.4198
인상깊었	-10.4198
▁아무생각없이	-10.4198
▁어두운	-10.4198
▁가까운	-10.4198
▁베드신	-10.4198
▁상관없	-10.4199
보느니	-10.4199
▁신인	-10.4201
▁빛나는	-10.4202
▁역량	-10.4203
▁그림체	-10.4205
▁고독	-10.4206
▁전반적으로	-10.4206
것같은데	-10.4213
▁분들이	-10.4224
▁만들어서	-10.4226
▁첨부터	-10.4227
▁인류	-10.4227
빨리	-10.4227
▁탄탄하고	-10.4229
▁분장	-10.4231
▁교훈도	-10.4239
능력	-10.4239
▁작품이라	-10.4239
el	-10.4244
▁친구랑	-10.4245
▁뭐하는	-10.4247
▁나이가	-10.4251
▁극중	-10.4254
▁안될	-10.4256
겐	-10.4256
▁사랑하고	-10.4261
▁아깝네요	-10.4263
▁아파	-10.4269
보고있어요	-10.4273
▁사람들에게	-10.4275
▁왜곡	-10.4291
▁보기싫	-10.4297
▁옆에	-10.4302
빠진	-10.431
멜	-10.4311
▁불가능	-10.432
▁아프다	-10.4323
▁밤에	-10.4327
▁매력에	-10.4328
윈	-10.4335
▁명연기	-10.4335
았으면	-10.4336
봐야지	-10.4336
▁허무한	-10.4345
뷰	-10.4347
▁웰메이드	-10.435
뢰	-10.435
몫	-10.435
읍	-10.435
썸	-10.435
▁양아치	-10.435
▁라이언	-10.435
▁첩보	-10.435
▁여배우들	-10.4351
있던	-10.4352
▁센스	-10.4352
▁한개도	-10.4352
▁짝이	-10.4354
▁좋았을텐데	-10.4354
▁무섭고	-10.4354
▁이해불가	-10.4355
▁상징	-10.4357
▁절망	-10.4362
▁읽고	-10.4364
▁액션과	-10.4366
▁만들어낸	-10.4369
▁벌어	-10.4373
▁치유	-10.4386
▁사람이라면	-10.4386
▁to	-10.4388
싶은데	-10.4388
▁보고싶어	-10.4394
▁좋지	-10.4403
▁울면서	-10.4404
▁적절한	-10.4409
하거나	-10.4416
▁난리	-10.4419
▁만들었나	-10.4421
▁강간	-10.4421
작이라	-10.4421
▁전개와	-10.4424
▁볼려고	-10.4432
▁돼지	-10.4432
유쾌하게	-10.4435
▁하하	-10.4439
께요	-10.4442
구리	-10.4448
▁소장하고	-10.445
▁기적	-10.4452
▁정신병	-10.4457
▁남성	-10.4461
꼽	-10.4461
▁책으로	-10.4463
꺼면	-10.4466
▁찍는	-10.4469
▁일부	-10.4483
▁봐야지	-10.4486
▁아니었다	-10.4489
▁되네요	-10.4493
젊	-10.4501
괜	-10.4503
빗	-10.4503
▁쏟아	-10.4503
▁신하균	-10.4503
▁호기심	-10.4503
▁혐오	-10.4504
있어요	-10.4504
▁배급사	-10.4504
▁누군지	-10.4504
▁짜릿	-10.4506
▁부탁	-10.4507
보는내내	-10.4508
▁이것보단	-10.4509
습니까	-10.4518
▁말아야	-10.4519
▁글고	-10.4519
▁개콘	-10.4522
▁옳	-10.4523
▁류영화	-10.4527
였지	-10.4529
▁다행이다	-10.4535
▁강력	-10.4536
▁담긴	-10.4536
▁쩔어	-10.4539
▁ᄡ	-10.4545
▁시대의	-10.4551
▁K	-10.4556
▁조연들	-10.4559
▁초반부	-10.4559
▁냄새	-10.4562
▁재난	-10.4563
▁알았네	-10.4567
▁뜬금없는	-10.4569
X	-10.4572
찾아	-10.4572
▁천만	-10.4574
▁무섭지	-10.4583
어디	-10.4585
하군	-10.4587
▁따뜻하	-10.4589
▁신선함	-10.4605
▁동네	-10.4605
셔야	-10.4608
기억이	-10.4608
재미있게	-10.4616
▁부족함	-10.4617
▁보고나니	-10.4617
▁나오는데	-10.4619
▁마니	-10.462
없나	-10.4628
늙	-10.4628
비슷	-10.4629
렬	-10.463
삶	-10.463
춤	-10.463
▁끝나서	-10.4631
▁단점	-10.4638
▁떨어져	-10.4638
▁찾아서	-10.4643
▁장난아니	-10.4644
▁미국식	-10.4648
랙	-10.466
뭉	-10.466
퀄	-10.466
▁movie	-10.466
▁드디어	-10.466
▁무거운	-10.466
▁일주일	-10.466
▁귀여움	-10.4662
▁고뇌	-10.4663
▁극단적	-10.4664
▁돈아까워	-10.4664
▁즐길	-10.4664
▁케빈	-10.4665
▁은근	-10.4665
▁장애인	-10.4665
▁로빈	-10.4666
답게	-10.4666
ed	-10.4667
▁좋앗	-10.4667
에비해	-10.4669
▁소름돋	-10.467
▁분동안	-10.4681
▁놀란	-10.4685
▁전화	-10.4687
러스	-10.4687
▁H	-10.4691
뭐냐	-10.4696
었나	-10.4699
▁대사들	-10.4711
▁풋풋한	-10.4712
▁백인	-10.4717
▁알았음	-10.4722
ic	-10.4722
안된다	-10.4727
특집	-10.4742
▁반영	-10.4742
▁못보겠다	-10.4745
▁따지	-10.4752
럽게	-10.4756
▁연출력이	-10.4773
▁여신	-10.4776
▁따뜻해	-10.478
뻔했다	-10.4783
봣다	-10.4784
▁잘만들었다	-10.4791
▁하나님	-10.4793
탑	-10.4793
▁영화예요	-10.4796
할수있는	-10.4798
▁배경으로	-10.48
▁어이없다	-10.4803
그랬	-10.4805
▁쪼	-10.481
쩜	-10.4813
▁뭐임	-10.4815
▁졸려	-10.4818
뚝	-10.4818
▁EBS	-10.4818
랴	-10.4818
뱀	-10.4818
▁러브라인	-10.4818
▁하이틴	-10.4819
▁비행기	-10.4819
▁오글오글	-10.4819
▁무간도	-10.482
▁낭만	-10.482
특별	-10.482
▁향수	-10.4825
답니다	-10.4826
▁창피	-10.4828
것같아	-10.4831
▁느낌이다	-10.4833
▁벗어	-10.4834
▁던져	-10.4834
▁매번	-10.4838
하실	-10.4843
▁도시	-10.4844
im	-10.4846
▁싶었던	-10.4847
▁거지같은	-10.4849
▁가족애	-10.4856
▁답답하다	-10.4859
▁의도가	-10.4859
므로	-10.486
민망	-10.4863
▁언제까지	-10.4868
▁나을듯	-10.4873
▁어이없음	-10.4875
힘들	-10.4881
해놓고	-10.4881
하시고	-10.4892
였네요	-10.4898
▁빠져서	-10.4899
▁벗어나	-10.4908
▁드네요	-10.4917
지못한	-10.4921
달라	-10.493
▁가히	-10.4932
▁망할	-10.4932
▁미스	-10.4942
▁때리	-10.4944
▁않은데	-10.4947
낭비	-10.4955
분위기	-10.4962
▁괜찮게	-10.4965
목소리	-10.4971
선택	-10.4972
윌	-10.498
렀	-10.498
풋	-10.498
▁놀랐다	-10.498
▁흡입력	-10.498
닭	-10.498
룰	-10.498
뺏	-10.498
쟈	-10.498
▁빨갱이	-10.498
▁화장실	-10.498
▁삭제	-10.498
▁블루	-10.4981
▁진지하게	-10.4981
▁흥미로웠	-10.4981
▁스파이	-10.4981
▁니콜	-10.4982
▁도둑	-10.4982
▁배꼽	-10.4983
▁말그대로	-10.4987
▁동영상	-10.4987
후회	-10.4988
재미있어요	-10.499
▁장면들이	-10.5
▁드림	-10.5001
같아요	-10.5003
어이없	-10.5003
▁말하려는	-10.5006
▁불쌍하	-10.5007
▁미안하다	-10.5008
▁캐릭터들이	-10.5009
되요	-10.5012
▁괜찮았음	-10.5012
▁모르지만	-10.5018
▁극장에	-10.5018
▁군인	-10.5018
▁있었으면	-10.5021
▁미녀	-10.5035
▁역겹다	-10.5037
▁입장	-10.5038
선수	-10.5055
▁빠졌	-10.5055
꺼야	-10.5057
▁소개	-10.506
▁먹먹하	-10.5065
▁기대이하	-10.5067
▁재미없었	-10.507
▁요소가	-10.5079
▁매미	-10.5082
▁그리워	-10.5082
▁되는데	-10.5091
▁선사	-10.5094
터짐	-10.5102
▁막판	-10.5102
▁볼것	-10.5106
▁괜찮고	-10.5107
▁만드네	-10.511
었지	-10.5115
▁인상적인	-10.5122
▁전문	-10.5128
멋있	-10.5131
▁만났	-10.5133
▁안본다	-10.5134
▁다시보기	-10.5134
낚	-10.5135
처리	-10.5136
젼	-10.5143
ᅢ	-10.5144
셧	-10.5144
▁비쥬얼	-10.5144
▁알파치노	-10.5144
▁타란티노	-10.5144
쉐	-10.5144
욤	-10.5144
▁박중훈	-10.5144
▁섬세한	-10.5144
▁박보영	-10.5144
▁몽환적	-10.5144
▁거부감	-10.5144
▁상어	-10.5146
un	-10.5149
▁못했	-10.5149
▁개그맨	-10.515
당시엔	-10.5151
▁고딩	-10.5154
▁잘한다	-10.5161
▁느리	-10.5161
▁영원	-10.5161
▁재미있었습니다	-10.5164
멜로	-10.517
▁미스터리	-10.5177
▁웃었	-10.5184
▁보았던	-10.5189
것같네요	-10.5192
▁순수하고	-10.5192
해줄	-10.5193
이런영화	-10.5193
▁재밌었던	-10.5194
아까운영화	-10.5199
▁넘넘	-10.5204
▁사랑스럽다	-10.5215
모든	-10.5216
▁것들이	-10.5219
오글	-10.5226
놈들은	-10.5229
▁무대	-10.5235
보고싶어요	-10.5236
▁화끈	-10.5239
▁이거보다	-10.5244
▁뜬금없이	-10.5244
▁심한	-10.5246
▁졸았	-10.5255
지않는다	-10.5259
있을까	-10.5272
▁한시간	-10.5273
▁프랑스영화	-10.5275
▁가능성	-10.5279
▁마음속	-10.5281
▁개인적	-10.5281
애들이	-10.5285
않음	-10.5285
▁깔끔한	-10.5286
도좋고	-10.5288
▁정체	-10.529
없구	-10.5297
▁나머지는	-10.5299
꿀	-10.5299
맹	-10.5302
▁넘어가	-10.5302
엽	-10.5307
측	-10.5307
콤	-10.5309
헉	-10.531
홈	-10.531
띠	-10.531
▁별반개	-10.531
▁비호감	-10.531
▁픽사	-10.5313
▁예측	-10.5313
펙트	-10.5313
▁격투	-10.5314
▁잃은	-10.5314
▁생각해보게	-10.5316
밖	-10.5317
아아아	-10.5323
▁분량	-10.5329
해줘서	-10.533
▁장난하나	-10.5333
▁속았다	-10.5335
합시다	-10.5338
▁비록	-10.5339
se	-10.5342
▁재미있었음	-10.5347
▁다운받아서	-10.5348
▁어설프다	-10.535
▁노인	-10.5352
시키고	-10.5354
▁와닿는	-10.5361
▁부산	-10.5362
▁공유	-10.5362
▁이딴영화	-10.5371
스코	-10.5374
▁보라고	-10.5375
▁다시금	-10.5376
▁말투	-10.5377
▁한번더	-10.5384
▁그럴듯	-10.5386
였다면	-10.5386
겠는데	-10.5394
▁들어간	-10.54
▁감동적이네요	-10.5402
대단	-10.5407
으시	-10.5408
▁새벽	-10.5409
외엔	-10.5419
줄알았다	-10.5419
겠어	-10.5421
▁기대하지	-10.5427
▁범죄자	-10.5436
▁실망스럽	-10.5439
▁대학	-10.5444
▁짜증나게	-10.5445
갖	-10.5463
▁여인	-10.5464
▁당연	-10.5466
월드	-10.5472
존나	-10.5476
▁않았던	-10.5476
▁맞나	-10.5479
갠	-10.548
쯔	-10.548
▁뒤죽박죽	-10.548
▁컴퓨터	-10.548
듦	-10.548
뤄	-10.548
셜	-10.548
쉴	-10.548
▁디카프리오	-10.548
덮	-10.548
밉	-10.548
▁클래식	-10.548
▁여러모로	-10.548
▁칭찬	-10.548
▁김수현	-10.548
▁한효주	-10.548
▁혁명	-10.548
▁워낙	-10.548
▁스타뎀	-10.548
▁둘째치고	-10.5481
▁엽기	-10.5481
▁몰아	-10.5481
▁보지마셈	-10.5481
▁레옹	-10.5482
▁더러워	-10.5482
여주	-10.5483
▁묘한	-10.5486
▁혼란	-10.5492
▁만들었을까	-10.5494
▁오글거리는	-10.5497
▁흘러가는	-10.5499
으신	-10.5499
▁빠지는	-10.55
쩐다	-10.5501
줘야지	-10.5502
거라고	-10.5502
▁소통	-10.5514
으러	-10.5515
▁천원	-10.5521
▁이별	-10.5527
ᄃᄃᄃ	-10.5529
▁멋지게	-10.5538
있네요	-10.5538
▁어우	-10.5539
▁조아	-10.5545
좋은영화	-10.5551
▁우린	-10.5554
▁소름끼치는	-10.5555
▁첨이다	-10.5555
▁구분	-10.5555
▁사회적	-10.5557
▁대부	-10.5561
▁익숙	-10.5562
▁싶어서	-10.5564
▁슬픈영화	-10.5567
ᅲᅲᅲᅲᅲᅲ	-10.5574
▁있기	-10.5577
▁숨은	-10.5579
▁뛰어넘는	-10.5582
▁건질	-10.5585
▁삶과	-10.5587
▁형편없는	-10.5593
지루함	-10.5594
해지고	-10.5598
더군	-10.5606
▁날아	-10.5609
▁보겠다	-10.5609
▁귀여	-10.561
▁편까지	-10.5618
▁소름돋는	-10.5625
역사	-10.5628
▁이도저도	-10.5638
싼	-10.5646
▁절로	-10.5647
▁어디로	-10.5652
퉁	-10.5652
▁스타워즈	-10.5652
▁스파이더맨	-10.5652
▁시종일관	-10.5652
츄	-10.5652
킴	-10.5652
▁못봐주겠	-10.5652
▁왕조현	-10.5652
맴	-10.5652
▁아마추어	-10.5652
▁객관적	-10.5652
▁아쉬울	-10.5652
▁총체적	-10.5653
▁향연	-10.5653
▁감명깊게	-10.5653
포인트	-10.5656
▁그려낸	-10.5656
▁나와야	-10.5656
화이팅	-10.5657
▁실망이다	-10.566
▁부활	-10.566
▁엄청나게	-10.566
립니다	-10.566
▁낫겠다	-10.5662
▁철저	-10.5663
▁따름	-10.5663
▁마시길	-10.5664
▁중학생	-10.5665
▁좋겠습니다	-10.5667
▁그런거	-10.5668
▁재밌게봤어요	-10.567
초반	-10.5675
▁잃었	-10.5685
▁최후	-10.5686
▁세월이	-10.5689
▁옛날영화	-10.5691
et	-10.5693
▁시도는	-10.5694
▁아이들에게	-10.5698
▁독특하고	-10.5702
▁완벽하다	-10.5705
하나하나	-10.5708
▁사랑스럽고	-10.5711
역할	-10.5711
▁믿음	-10.5711
극히	-10.5715
유발	-10.572
▁중년	-10.5724
하겠습니다	-10.5726
▁장점	-10.5727
발연기	-10.5729
▁개봉당시	-10.5736
하고싶다	-10.5737
▁아이유	-10.5739
▁예수	-10.574
▁돋보인	-10.575
까봐	-10.5751
▁맡은	-10.5754
▁연상	-10.5772
싫다	-10.5782
못함	-10.5784
▁의문이	-10.5787
었을까	-10.5798
너무너무	-10.5813
거같아	-10.5814
▁이상하다	-10.5817
좋아하	-10.582
스케	-10.5821
챙	-10.5824
▁쯧쯧	-10.5828
▁아름다워	-10.5828
맺	-10.5828
밧	-10.5828
▁괜찬	-10.5828
▁미스캐스팅	-10.5828
▁킬러	-10.5828
▁살아야	-10.5831
▁나타나	-10.5831
▁살아있는	-10.5836
코메디	-10.5838
상영	-10.5839
귀엽	-10.5839
범죄	-10.5841
▁뭐라고	-10.5844
▁귀여워요	-10.5855
▁학생들	-10.5859
▁감명	-10.5861
▁작화	-10.5866
▁충격적인	-10.5867
▁재미있었는데	-10.5872
▁케미	-10.5873
▁연기잘하	-10.5877
▁산만하고	-10.5885
▁어쩌다	-10.5892
▁시기	-10.5897
▁있으나	-10.5898
▁알리	-10.5904
▁우선	-10.5915
▁전편보다	-10.5925
시킬	-10.5927
▁알게되	-10.5928
잇엇	-10.5933
▁싫어하는	-10.5933
긴했지만	-10.5944
▁티비로	-10.595
▁지키	-10.5952
▁코믹영화	-10.5953
▁별로였다	-10.5953
▁그이상	-10.5958
는것을	-10.5961
▁흉내	-10.597
▁충분한	-10.5976
▁내시간	-10.5978
▁천사	-10.5978
▁않으	-10.5979
▁읽는	-10.6001
웠던	-10.6003
졌으면	-10.6004
▁세상에서	-10.6004
렐	-10.6006
▁엔딩크레딧	-10.6006
쌓	-10.6006
퉤	-10.6006
푼	-10.6006
혔	-10.6006
▁유치찬란	-10.6006
▁강동원	-10.6006
▁김혜수	-10.6006
▁닥치고	-10.6006
▁떡밥	-10.6007
▁ᄌᄂ	-10.6008
▁돋보였	-10.6008
▁난해한	-10.6011
▁발음	-10.6011
▁직업	-10.6012
▁오래전에	-10.6013
▁듣기	-10.6014
▁늙어	-10.6021
꿈	-10.6021
▁살렸다	-10.6022
▁로망	-10.6023
프로그램	-10.6023
▁권력	-10.6025
▁보여줄	-10.6025
▁풋풋	-10.6026
ay	-10.6027
▁챙겨보	-10.6032
▁고문	-10.6033
▁스포	-10.6046
▁입장에서	-10.6049
▁역사상	-10.6054
▁안나온다	-10.6056
▁재방	-10.6058
▁해피	-10.6067
▁준비	-10.607
▁원하는	-10.6073
▁한동안	-10.6074
▁당장	-10.6077
소름	-10.6079
▁가짜	-10.608
▁말인가	-10.6085
느냐	-10.6085
▁말밖에	-10.6096
▁일반인	-10.6098
▁미쳐	-10.6102
▁만화영화	-10.6109
▁사람에게	-10.611
▁방해	-10.611
좋으나	-10.6122
▁착하	-10.6131
하하하하	-10.6135
스티	-10.6148
거에요	-10.6148
▁스릴러물	-10.6149
말이필요없	-10.6154
뜬금	-10.6175
▁있긴	-10.6184
▁펼쳐	-10.6188
됫	-10.6188
렛	-10.6188
켓	-10.6188
튜	-10.6188
팩	-10.6188
▁차승원	-10.6188
▁한석규	-10.6188
▁바탕으로	-10.6188
▁되돌아	-10.6188
▁원숭이	-10.6188
▁명복을	-10.6188
▁섬뜩	-10.6188
▁온갖	-10.6189
▁섬세하	-10.6191
▁에라이	-10.6192
▁슈퍼맨	-10.6192
▁말씀	-10.6201
▁시험	-10.6202
▁보는것	-10.6203
멋잇	-10.6203
▁충분하다	-10.6203
굳	-10.6206
▁승부	-10.6206
▁대박이다	-10.6208
▁개꿀잼	-10.6209
▁게스트	-10.6211
섬	-10.6211
어떻게	-10.6213
▁한심하다	-10.6215
▁처음이네	-10.6222
▁조낸	-10.6223
해야하나	-10.6225
어색	-10.6227
노답	-10.6228
맞음	-10.623
▁실사	-10.6235
▁마법	-10.6236
▁주온	-10.6248
좋네요	-10.6263
▁잘생겼	-10.6272
▁잔잔함	-10.6283
▁받았다	-10.6284
▁잔인함	-10.6296
▁모르겠네	-10.6299
▁억지스럽고	-10.6299
확실	-10.6303
맘에	-10.6304
▁한가지	-10.6306
실력	-10.6321
ᄒᄒᄒᄒ	-10.6327
▁욕먹	-10.6328
▁심하다	-10.6333
답다	-10.6342
▁캐리	-10.6353
▁광구	-10.6361
ᅩ	-10.6372
▁시간때우기	-10.6373
▁안타까움	-10.6373
덧	-10.6373
캠	-10.6373
▁엄정화	-10.6373
▁즐거움	-10.6373
▁마찬가지	-10.6373
▁어차피	-10.6373
▁납득	-10.6373
▁피아노	-10.6373
▁애초에	-10.6373
▁조잡한	-10.6373
▁두고두고	-10.6374
▁기발한	-10.6374
▁니콜라스	-10.6374
▁자연스럽게	-10.6375
▁풀어낸	-10.6378
▁방향	-10.6382
▁감동적이에요	-10.6382
▁흥분	-10.6383
ᅲᅮ	-10.6384
였구나	-10.6386
▁재앙	-10.6386
▁열라	-10.6386
▁조잡하	-10.6387
▁십점	-10.6388
▁초반엔	-10.6391
행위	-10.6393
▁태국	-10.6397
멍	-10.6399
▁모욕	-10.6399
즐	-10.6403
땡	-10.6403
불쌍	-10.6404
폴	-10.6408
▁안녕	-10.641
▁뻔하다	-10.6413
▁보고있는데	-10.6413
▁울었어요	-10.6414
관객	-10.6414
▁성형	-10.6414
나왔으면	-10.6415
몰라	-10.6426
▁되야	-10.6438
▁좋아하지만	-10.6442
▁com	-10.6451
▁못하겠다	-10.6452
▁소유	-10.6455
시작해서	-10.6456
▁커서	-10.6458
▁비교해	-10.6459
걸린	-10.6461
▁화질	-10.6465
영활	-10.6468
▁죄송	-10.6471
▁멋져	-10.6473
제대로	-10.6475
▁훌륭하	-10.6476
▁잼있네요	-10.6497
▁믿어	-10.6498
▁신화	-10.6499
▁살리지	-10.6505
부르	-10.6511
속으로	-10.6519
▁찾기	-10.6521
또보고싶	-10.6526
투성이	-10.6527
▁느껴지지	-10.6537
되길	-10.6542
픔	-10.6542
▁이것보다	-10.6545
▁낚인	-10.6545
떤	-10.6556
▁배우분들	-10.6557
▁재미없네요	-10.6558
▁제작자	-10.656
▁캐릭	-10.6561
▁킬링	-10.6562
쏴	-10.6562
▁어정쩡	-10.6562
솜	-10.6562
퀸	-10.6562
톡	-10.6562
▁권상우	-10.6562
오랫동안	-10.6562
▁감성팔이	-10.6562
▁Good	-10.6562
어울림	-10.6562
생겨서	-10.6563
▁지겨워	-10.6563
▁극혐	-10.6564
▁크리스찬	-10.6564
▁그럴싸	-10.6564
▁로맨틱코미디	-10.6564
▁방황	-10.6566
▁짜증났	-10.6567
▁민족	-10.6568
▁쉬운	-10.657
▁음향	-10.6577
맞아	-10.658
▁고증	-10.6582
▁세계관	-10.6582
숨	-10.6583
▁또라이	-10.6584
▁지옥	-10.6586
▁괜찮았던	-10.6591
벤	-10.6597
아버지	-10.6598
떼	-10.6599
하더니	-10.6599
줍니다	-10.66
추억	-10.6602
바람	-10.6614
▁아니잖아	-10.6615
▁망쳐놓	-10.6629
조금	-10.6638
▁나열	-10.6646
▁아까워서	-10.6647
▁귀여웠	-10.665
▁언어	-10.6653
스틴	-10.6654
▁이거보단	-10.6657
▁무섭게	-10.6663
▁행복하게	-10.667
조연	-10.6675
▁매주	-10.6682
▁완성	-10.6682
▁니네	-10.6697
▁넘어서	-10.6742
뜬	-10.6752
▁팬들	-10.6754
숀	-10.6754
겻	-10.6754
뜸	-10.6754
렘	-10.6754
븐	-10.6754
왈	-10.6754
팽	-10.6754
▁테이큰	-10.6754
핫	-10.6754
▁미스테리	-10.6754
▁후속편	-10.6754
▁데이빗	-10.6754
▁김희선	-10.6754
▁머릿속	-10.6754
드려요	-10.6755
▁상큼	-10.6756
▁파격적	-10.6759
웠음	-10.676
▁모자라	-10.6761
▁돌아보게	-10.6764
페이스	-10.6764
▁내취향	-10.6765
▁사이코	-10.6765
유치하	-10.6768
▁복선	-10.6777
▁웃었다	-10.6779
▁순위	-10.6782
▁거짓	-10.6785
명성에	-10.6788
▁해외	-10.6788
▁살아남	-10.6792
▁싶습니다	-10.6796
▁개인적인	-10.6797
il	-10.6798
샘	-10.68
잊	-10.68
캐스팅	-10.6801
▁강추합니다	-10.6801
▁비참	-10.6804
엄청	-10.6805
소녀	-10.6809
▁웃겼다	-10.6814
▁보게되는	-10.6819
▁모든것이	-10.6819
▁애정	-10.6823
▁빠져들게	-10.6828
▁두명	-10.684
▁브레	-10.6843
줘요	-10.685
▁막상	-10.6851
▁만원	-10.6863
졌음	-10.6864
하길래	-10.6869
▁토니	-10.6886
봣어요	-10.6887
▁끝날	-10.6889
있었는데	-10.6889
될까	-10.6891
▁본격	-10.6925
소재와	-10.6925
닮	-10.6934
▁무식	-10.6944
▁미안해	-10.6947
둑	-10.6947
감명깊	-10.6949
잣	-10.695
▁런닝타임	-10.695
둠	-10.695
뼈	-10.695
짙	-10.695
▁세련된	-10.695
▁설경구	-10.695
▁수면제	-10.6951
▁치밀하	-10.6953
▁늙은	-10.6953
▁전성기	-10.6953
▁닮았	-10.6955
▁멋짐	-10.6956
▁자연스러운	-10.6958
▁억지스런	-10.6958
달라고	-10.6963
▁no	-10.6969
ᄀᄀ	-10.6971
누님	-10.6975
▁느껴질	-10.6979
내려	-10.6985
▁살때	-10.699
▁의미있는	-10.6992
▁한사람	-10.6993
▁지독	-10.6994
더라고요	-10.6996
▁극본	-10.7
▁보고싶은데	-10.7001
▁오그라들	-10.7002
잼씀	-10.7007
▁채워	-10.7008
▁느껴졌다	-10.7015
너무좋아	-10.7016
▁봐주	-10.7019
▁못만들	-10.7019
이후로	-10.702
op	-10.7026
▁제대로된	-10.7031
▁최고최고	-10.7032
절대보지마	-10.7034
▁뛰어넘	-10.7035
▁시시하	-10.7035
▁우리에게	-10.7037
▁괜찮네요	-10.704
▁밋밋한	-10.7045
▁좋으	-10.7059
sh	-10.707
▁나왔던	-10.7074
분들께	-10.7078
▁외국인	-10.7082
▁있었음	-10.7088
형제	-10.709
▁남자배우	-10.7095
▁시청자들	-10.7097
제발	-10.7114
귀신	-10.7116
빠짐	-10.7148
촬	-10.715
팝	-10.715
▁뒤늦게	-10.715
▁박찬욱	-10.715
▁크레딧	-10.715
▁포켓몬	-10.715
랏	-10.715
뻑	-10.715
얀	-10.715
▁고등학생	-10.715
꽁	-10.715
쭈	-10.715
▁스페인	-10.715
▁잊지못할	-10.715
▁나루토	-10.715
▁가슴아프	-10.715
▁어딘가	-10.715
▁원피스	-10.715
▁나머진	-10.715
시끄러	-10.7151
▁흠잡을	-10.7151
▁다니엘	-10.7151
▁완젼	-10.7151
▁오그라드는	-10.7151
▁바란다	-10.7151
죽이고	-10.7157
▁어린아이	-10.7157
▁봐줄만	-10.7158
vs	-10.7159
▁오로라	-10.716
▁눈치	-10.7162
▁재탕	-10.7164
▁시골	-10.7166
▁감동적입니다	-10.7166
▁처음본다	-10.7176
id	-10.7177
▁환장	-10.7177
▁웃겼	-10.7179
▁알아야	-10.718
▁감정선	-10.7186
▁빠질	-10.7194
▁불쌍해	-10.7199
고싶었	-10.7202
▁점만점에	-10.7204
▁최고에요	-10.7206
▁꼭봐야	-10.7206
탐	-10.721
하였다	-10.7212
▁시체	-10.7212
핵	-10.7212
TV	-10.7215
▁웃겨서	-10.7229
학원	-10.723
▁모방	-10.7231
넘치는	-10.7231
▁쓰러	-10.7235
▁회상	-10.7239
▁화끈한	-10.7244
▁상식	-10.7247
▁역작	-10.726
좋은데	-10.7263
▁두개	-10.7264
▁상업영화	-10.7266
검사	-10.7267
▁머냐	-10.7273
▁무협영화	-10.7275
피디	-10.7284
▁스릴감	-10.7288
볼때	-10.7306
▁오랜	-10.7334
딜	-10.7348
템	-10.7354
▁겨울왕국	-10.7354
▁빕니다	-10.7354
▁애니매이션	-10.7354
▁영웅본색	-10.7354
▁호불호가	-10.7354
뚫	-10.7354
좆	-10.7354
▁손예진	-10.7354
▁짬뽕	-10.7354
▁다이하드	-10.7354
▁그냥저냥	-10.7354
▁아바타	-10.7355
▁엠마	-10.7355
▁전지현	-10.7355
▁귀찮	-10.7356
▁가까이	-10.7357
▁색채	-10.7358
▁찬양	-10.736
▁새삼	-10.736
▁공룡	-10.7362
▁간직	-10.737
▁히어로물	-10.7371
▁있겠지만	-10.7372
▁반갑	-10.7373
▁분짜리	-10.7376
▁동화같은	-10.7378
▁학년때	-10.7387
▁채우	-10.7388
▁결국엔	-10.7393
▁재밌었습니다	-10.7394
▁있어보이	-10.7396
▁이런식으로	-10.7401
▁마블	-10.7405
▁레오	-10.7406
▁당연한	-10.7412
▁오직	-10.7414
올린	-10.7416
▁흔하	-10.7423
▁광기	-10.7425
▁다가오	-10.7433
포스터	-10.7434
▁않습니다	-10.744
▁이딴거	-10.744
▁정체성	-10.7452
▁역사적	-10.7461
▁구조	-10.7463
구먼	-10.7469
제국	-10.7471
나봐요	-10.7476
▁만들었으면	-10.7477
▁커버	-10.7481
▁낮네요	-10.7483
he	-10.7488
▁독립	-10.749
▁힘들어	-10.7496
올려	-10.7505
▁얻어	-10.7538
할정도로	-10.7556
▁일깨워	-10.756
혐	-10.756
냄	-10.7561
▁스텝	-10.7562
륵	-10.7563
믄	-10.7563
쩍	-10.7563
ᄊ	-10.7563
ᄐ	-10.7563
▁군더더기	-10.7563
▁아이언맨	-10.7563
▁에드워드	-10.7563
곁	-10.7563
뜯	-10.7563
▁이것저것	-10.7563
▁픽션	-10.7563
▁외로움	-10.7563
▁왕가위	-10.7563
▁드니로	-10.7563
▁이정재	-10.7563
▁쏘우	-10.7564
▁거기서	-10.7564
▁호흡	-10.7568
▁흘렸	-10.7568
더럽고	-10.757
▁안가는	-10.7571
▁욕나온다	-10.7571
▁생존	-10.7574
▁치료	-10.7579
▁빨간	-10.7579
▁졸잼	-10.7579
▁뭐랄까	-10.758
▁연습	-10.758
▁어설프게	-10.7589
줄알고	-10.7594
▁네이버평점	-10.7601
것같음	-10.7601
▁되었습니다	-10.7607
▁보는동안	-10.7613
재미있었	-10.7617
▁기대된다	-10.762
▁미학	-10.7631
▁않아요	-10.7633
질질끄	-10.7638
▁허구	-10.7647
경찰	-10.765
돌려	-10.768
▁소름끼치	-10.7682
▁재수없	-10.7699
▁역겹	-10.7704
해가는	-10.7706
섯	-10.7753
룬	-10.7753
겠는가	-10.7756
높아	-10.7756
▁먹먹해	-10.7756
하든	-10.7766
댓	-10.7773
랍니다	-10.7774
뎀	-10.7775
칫	-10.7775
Y	-10.7775
▁MBC	-10.7775
▁듭니다	-10.7775
▁송승헌	-10.7775
▁어쨌든	-10.7775
숲	-10.7775
턱	-10.7775
▁엉망진창	-10.7775
쇄	-10.7775
▁구혜선	-10.7775
▁심리묘사	-10.7775
▁팝콘	-10.7775
▁빈약한	-10.7775
▁정주행	-10.7775
▁오페라	-10.7776
▁최민수	-10.7776
▁흥미롭게	-10.7777
▁택시	-10.7777
▁시간아까워	-10.7783
▁과장된	-10.7787
▁여태까지	-10.7789
▁국산	-10.779
▁지루했음	-10.7793
▁경악	-10.7795
그대로	-10.7797
▁느껴졌	-10.7797
▁멋져요	-10.7798
ter	-10.78
▁심각하게	-10.7803
▁아깝습니다	-10.7804
▁감동적이었다	-10.7809
▁웃다가	-10.7816
▁귀여워서	-10.7817
▁흉내내	-10.7819
▁인간적으로	-10.7821
▁로마	-10.7823
▁좋더라	-10.7823
ma	-10.7825
▁알바생	-10.7825
▁일찍	-10.7826
▁불쌍해서	-10.7829
▁공연	-10.7846
▁검색해	-10.785
▁봐야한다	-10.785
▁여유	-10.7854
▁피식	-10.7857
▁몰입하게	-10.7859
하려면	-10.7862
▁인연	-10.7862
▁싶음	-10.7863
▁포함	-10.7866
좋아하는데	-10.7872
tv	-10.7877
▁확실하	-10.7881
▁않으면	-10.7882
미친	-10.7897
흥미롭	-10.7904
아닌데	-10.7912
바른	-10.7914
행복	-10.7927
자꾸	-10.7931
▁엘리	-10.7932
늬	-10.7993
릅	-10.7993
▁도라에몽	-10.7993
▁싸이코패스	-10.7993
▁엑스맨	-10.7993
▁카메론	-10.7993
룸	-10.7993
훔	-10.7993
▁국어책	-10.7993
▁스필버그	-10.7993
즉	-10.7993
▁김명민	-10.7993
▁초중반	-10.7993
▁최민식	-10.7993
▁평점조절	-10.7993
▁멘탈	-10.7993
▁마누라	-10.7993
스러울	-10.7993
▁완죤	-10.7993
▁점준것중	-10.7993
▁람보	-10.7996
땜시	-10.7997
▁패션	-10.8003
▁뜬금없	-10.8004
▁웃으며	-10.8004
▁청년	-10.8004
▁커피	-10.8006
▁반응	-10.8008
▁공허	-10.8011
▁우승	-10.8025
▁모순	-10.8035
▁번역	-10.8041
남기는데	-10.8048
▁만드냐	-10.805
▁만들었냐	-10.8052
▁이은주	-10.8057
▁분정도	-10.8062
▁배울	-10.8073
▁정석	-10.8074
▁말았다	-10.8078
▁경우	-10.809
흠	-10.8093
판타지	-10.8094
오늘	-10.8159
▁나올까	-10.818
▁머리속	-10.818
▁밝혀	-10.8191
▁중학교	-10.82
▁시대적	-10.8204
▁산만하	-10.821
같애	-10.8212
썰	-10.8215
넓	-10.8215
녁	-10.8215
▁가볍지	-10.8215
▁점수준것들	-10.8215
▁김태희	-10.8215
▁깨달음	-10.8215
▁예뻐서	-10.8215
▁웬만하면	-10.8215
▁기승전	-10.8215
▁신세경	-10.8215
▁드래곤볼	-10.8215
▁데뷔작	-10.8215
▁컬트	-10.8216
▁심오한	-10.8216
보고나서	-10.8217
▁절묘	-10.8219
▁안성기	-10.8222
▁흔적	-10.8224
▁황금	-10.8225
▁낮추	-10.8225
할게요	-10.8227
▁출발	-10.823
▁신세계	-10.823
▁많은것을	-10.8233
▁운동	-10.8233
▁향한	-10.824
▁소품	-10.8241
▁흥미롭지	-10.8242
▁못따라	-10.8244
▁다음편	-10.8245
▁인권	-10.8247
▁재미없었음	-10.8248
▁경계	-10.8248
▁기억난다	-10.825
▁남친	-10.8251
▁싶었는데	-10.8258
▁에로물	-10.8265
▁못하겠	-10.8268
▁어디까지	-10.8271
▁성경	-10.8277
▁정통	-10.8279
▁고작	-10.8281
▁야하지도	-10.8295
▁실상	-10.8315
옷	-10.8324
칼	-10.8325
평론가	-10.8325
코믹	-10.8328
입니까	-10.8341
큼	-10.8343
▁풀어내	-10.8349
언제	-10.8378
▁대학생	-10.8386
▁OOOO	-10.8392
▁없으니	-10.8409
었을텐데	-10.8412
야말로	-10.8424
▁신데렐라	-10.8442
▁학창시절	-10.8442
삘	-10.8442
쇠	-10.8442
썬	-10.8442
▁소피마르소	-10.8442
▁숨막히	-10.8442
▁차태현	-10.8442
졋	-10.8442
▁이탈리아	-10.8442
▁황정민	-10.8442
▁김민종	-10.8442
▁중후반	-10.8442
▁힙합	-10.8442
▁간간히	-10.8442
▁공중파	-10.8442
▁소지섭	-10.8442
▁지저분	-10.8442
▁장동건	-10.8442
▁엽문	-10.8442
▁손색이	-10.8443
▁콜린	-10.8443
▁보낸다	-10.8443
▁클라라	-10.8443
▁냉정	-10.8443
▁틀림없	-10.8443
▁전도연	-10.8444
▁강아지	-10.8445
▁러브스토리	-10.8445
▁부끄러운	-10.8446
▁미친듯이	-10.8448
▁기다렸	-10.8448
▁문득	-10.8448
▁감옥	-10.8448
▁돈낭비	-10.845
▁말이필요없다	-10.845
▁아침드라마	-10.8456
▁열광	-10.8457
▁의견	-10.8457
▁재방송	-10.8457
▁환상적인	-10.8462
▁중반부터	-10.8464
▁이기적인	-10.8465
팬이라	-10.8465
▁적극	-10.8472
보기엔	-10.8472
▁향기	-10.8479
▁초반부터	-10.8481
거같네요	-10.8485
▁우리들	-10.8487
ie	-10.8489
▁직장	-10.8501
▁힘내	-10.8519
▁법정	-10.8519
▁씁쓸하	-10.8546
CG	-10.8565
훨	-10.8572
병맛	-10.8572
보니깐	-10.8574
▁돋보이	-10.8578
깐	-10.8582
ri	-10.8584
▁형식	-10.8592
보여서	-10.8594
▁데려다	-10.8595
▁알게된	-10.8642
▁보게되었	-10.8643
킥	-10.8675
밍	-10.8675
넷	-10.8675
헨	-10.8675
▁고맙습니다	-10.8675
▁다크나이트	-10.8675
▁아카데미	-10.8675
▁안타까웠	-10.8675
▁트랜스포머	-10.8675
▁흐지부지	-10.8675
꾹	-10.8675
떳	-10.8675
▁미장센	-10.8675
▁애국심	-10.8675
▁어떠한	-10.8675
▁임청하	-10.8675
▁다세포소녀	-10.8675
▁성유리	-10.8675
▁농담	-10.8675
▁솔까	-10.8675
▁납치	-10.8675
▁이연희	-10.8675
▁강력추천	-10.8676
▁관람객	-10.8677
▁뉴스	-10.8677
▁어지럽	-10.8679
▁각각	-10.8682
▁에릭	-10.8685
▁몰락	-10.8687
▁교회	-10.8688
▁꺼져	-10.869
▁복수극	-10.8691
것도아니고	-10.8691
▁태양	-10.8691
▁좋아하시는	-10.8691
▁허탈	-10.8692
▁사람마다	-10.8703
▁신경쓰	-10.8703
씩이나	-10.8711
기억에남	-10.8711
▁유치하기	-10.8714
▁소중하	-10.8714
▁미술	-10.8719
▁실화라는	-10.8728
▁없애	-10.8731
▁찍으	-10.8759
▁흐르	-10.8787
밑	-10.8807
애니메이션	-10.8807
댓글	-10.881
꽝	-10.881
▁떨어졌	-10.8821
끝날때까지	-10.8867
▁좋구	-10.8879
▁깨닫	-10.888
ᅲᅲᅲᅲᅲ	-10.8897
씁	-10.8911
삽	-10.8913
▁새록새록	-10.8913
▁첫번째	-10.8913
겸	-10.8913
뚜	-10.8913
묶	-10.8913
헝	-10.8913
훗	-10.8913
▁어설퍼	-10.8913
▁정확히	-10.8913
끓	-10.8913
▁사무라이	-10.8913
▁따뜻함	-10.8913
▁오우삼	-10.8913
▁박평식	-10.8913
▁멈추	-10.8913
▁레이첼	-10.8913
▁모자란	-10.8913
▁함부로	-10.8913
▁이따구로	-10.8913
▁지브리	-10.8914
▁스킵	-10.8914
▁색다르	-10.8914
▁어지간	-10.8914
▁The	-10.8914
▁증명	-10.8914
▁깜놀	-10.8915
▁김구라	-10.8916
▁사라진	-10.8917
▁갖춘	-10.8917
▁죽기전에	-10.8917
▁댄스	-10.892
▁피곤	-10.893
▁노튼	-10.8933
▁오글거려서	-10.8933
▁여튼	-10.8936
▁모독	-10.8936
▁백배	-10.8939
▁유령	-10.894
▁적당하다	-10.8944
▁단역	-10.8945
▁감동적임	-10.8945
▁부각	-10.8948
▁분명히	-10.895
▁히트	-10.8952
봤을땐	-10.8968
▁go	-10.9009
더욱더	-10.9025
▁돌아오	-10.9026
▁없을까	-10.9047
▁더더욱	-10.9049
웃겼음	-10.9054
▁싶으면	-10.9055
덕분에	-10.9057
시나리오	-10.9057
그렇게	-10.9057
얼마나	-10.9058
무서워	-10.906
아까워	-10.906
특히	-10.9061
폭력	-10.9075
▁미스터	-10.9135
즌	-10.9138
밋	-10.915
▁굳굳	-10.9154
흉	-10.9156
긍	-10.9157
갇	-10.9157
곽	-10.9157
▁과대평가	-10.9157
▁윌리엄	-10.9157
▁조기종영	-10.9157
▁톰크루즈	-10.9157
▁홧팅	-10.9157
궈	-10.9157
껍	-10.9157
뎌	-10.9157
줫	-10.9157
펠	-10.9157
▁키아누	-10.9157
▁아프리카	-10.9157
▁흑역사	-10.9157
▁시끄럽	-10.9157
찜찜	-10.9157
▁긴박감	-10.9157
▁흑흑	-10.9157
▁오인혜	-10.9157
깁니다	-10.9158
▁색깔	-10.9158
▁학살	-10.9158
밖엔	-10.9162
▁낚여서	-10.9162
▁이민기	-10.9165
▁고마운	-10.9166
▁그럼에도	-10.9167
▁마틴	-10.9168
궁금해	-10.917
▁볼만해요	-10.9176
▁틀어주	-10.9177
▁재밌기만	-10.9186
▁제왕	-10.9199
수가없다	-10.9205
▁소소하	-10.9208
▁짧아	-10.9219
만들엇	-10.9222
타령	-10.9236
▁퇴보	-10.9265
으세요	-10.9271
훌륭	-10.9306
썩	-10.9309
멀	-10.931
선생님	-10.9313
냄새	-10.9314
힘든	-10.9322
▁시간아깝	-10.935
▁비교하면	-10.9363
살았	-10.9364
모르겠다	-10.9367
믹	-10.9403
봇	-10.9406
끗	-10.9407
▁매끄럽지	-10.9407
▁송혜교	-10.9407
▁엉터리	-10.9407
▁인상깊게	-10.9407
▁인종차별	-10.9407
겄	-10.9407
펴	-10.9407
딕	-10.9407
쉣	-10.9407
탠	-10.9407
▁가슴아픈	-10.9407
▁송지효	-10.9407
▁윌리스	-10.9407
습니당	-10.9407
▁조승우	-10.9407
▁ᄇᄉ	-10.9407
▁다운로드	-10.9407
▁강지환	-10.9407
▁클라스	-10.9407
▁일어날	-10.9407
▁멀쩡	-10.9407
▁무서울	-10.9407
▁혹평	-10.9407
▁젊음	-10.9408
▁감수성	-10.9408
▁사기꾼	-10.9408
▁힘내세요	-10.9408
▁사라져	-10.9409
▁압도적	-10.9409
▁눈요기	-10.941
▁보여줌	-10.9411
▁경의를	-10.9412
▁초능력	-10.9412
▁원작소설	-10.9413
▁어딜	-10.9414
십니다	-10.9416
헌터	-10.9416
▁존경합니다	-10.9418
▁서극	-10.9418
▁극찬	-10.942
▁우롱	-10.9422
▁실패작	-10.9426
▁존잼	-10.9429
▁한번씩	-10.943
▁드문	-10.9431
▁질문	-10.9432
▁중반부	-10.9433
▁늙었	-10.9434
▁집단	-10.9434
▁주관적	-10.9434
▁재미나게	-10.9436
▁카피	-10.9438
▁초등학교때	-10.9452
▁이해되	-10.9502
취향	-10.9568
K	-10.9575
걍	-10.9577
▁잊혀	-10.9593
페이지	-10.9632
되지않	-10.9645
탁월한	-10.9654
쯧	-10.9663
▁미야자키	-10.9663
뉘	-10.9663
밨	-10.9663
벙	-10.9663
썻	-10.9663
앜	-10.9663
윽	-10.9663
▁끝판왕	-10.9663
▁뚝뚝	-10.9663
▁여기저기	-10.9663
▁정당화	-10.9663
▁뉴욕	-10.9663
▁징징	-10.9663
▁의외의	-10.9664
▁임수정	-10.9664
▁거슬리	-10.9664
▁찬사를	-10.9665
▁노골적	-10.9665
▁증말	-10.9666
▁담백하	-10.9668
▁짱짱맨	-10.9669
▁상당한	-10.967
▁성찰	-10.967
▁장혁	-10.9676
▁대표적인	-10.968
▁몇번이나	-10.9682
▁신념	-10.9686
▁영광	-10.9689
▁총알	-10.9689
노동자	-10.969
클럽	-10.9695
잊혀지	-10.9702
작렬	-10.9707
▁도중에	-10.9709
▁꺼내	-10.982
깜	-10.9846
특유의	-10.9847
뭘	-10.9847
마무리	-10.9848
결혼	-10.9855
억울	-10.9877
▁환상적이	-10.9891
롯	-10.992
▁부끄러	-10.9922
뱅	-10.9926
깡	-10.9926
옵	-10.9926
▁http	-10.9926
▁드림웍스	-10.9926
▁서프라이즈	-10.9926
▁팀버튼	-10.9926
럿	-10.9926
릉	-10.9926
빤	-10.9926
쏙	-10.9926
코스프레	-10.9926
▁절제된	-10.9926
띵	-10.9926
▁어둡고	-10.9926
▁자본주의	-10.9926
▁끊임없	-10.9927
▁모성애	-10.9927
▁정신나간	-10.9927
▁타이틀	-10.9927
▁아이러니	-10.9927
▁실감나	-10.9928
▁짐승	-10.9931
창있네	-10.9932
▁억지설정	-10.9933
▁접근	-10.9934
▁바꾼	-10.9934
and	-10.9935
▁비싼	-10.9936
▁지나친	-10.9937
않았다	-10.9939
▁제정신	-10.994
였으나	-10.9943
▁확실한	-10.9943
▁요약	-10.9946
▁절반	-10.9947
▁필요없음	-10.995
very	-10.9952
▁장나라	-10.9953
▁알려준	-10.9963
겁니까	-10.998
돈주고	-11.0005
종류	-11.0006
▁광팬	-11.0052
▁어린이들	-11.007
미치도록	-11.009
▁표정연기	-11.0097
▁몰입되	-11.0104
퇴	-11.0122
솔직히	-11.0125
아직도	-11.0127
▁어이가없	-11.0132
▁끝날때	-11.0142
활동	-11.0144
뷔	-11.0197
▁ebs	-11.0197
욬	-11.0197
잎	-11.0197
▁똑바로	-11.0197
둬	-11.0197
드래곤	-11.0197
켈	-11.0197
펀	-11.0197
▁양동근	-11.0197
핏	-11.0197
▁모티브	-11.0197
▁클린트	-11.0197
▁팍팍	-11.0197
▁주상욱	-11.0197
▁홍금보	-11.0197
나옵니다	-11.0197
▁구역질	-11.0197
▁나쁘진	-11.0197
▁두려움	-11.0197
▁태어난	-11.0197
▁조용히	-11.0197
▁환타지	-11.0197
▁뮤직비디오	-11.0197
▁유지태	-11.0197
▁닥터	-11.0197
▁사로잡	-11.0197
▁흐뭇	-11.0197
▁일요일	-11.0198
▁이범수	-11.0198
▁고질라	-11.0198
▁best	-11.0198
all	-11.02
▁잃어	-11.0201
▁가끔씩	-11.0201
▁놀랬	-11.0201
▁사랑스럽	-11.0204
▁휴먼	-11.0205
▁가해자	-11.0208
라이브	-11.0209
▁이나영	-11.0209
▁출현	-11.0212
▁성숙	-11.022
따윈	-11.0223
▁향해	-11.0319
짓거리	-11.0395
잭	-11.0404
▁점만점	-11.0407
귀여워	-11.0409
왜이래	-11.041
무서운	-11.0411
▁잃지	-11.0412
로맨스	-11.0415
옛	-11.0421
▁오글거려	-11.0452
뿔	-11.0462
둡	-11.0474
뎁	-11.0474
▁고스란히	-11.0474
▁서스펜스	-11.0474
▁웹툰	-11.0474
▁인터뷰	-11.0474
▁임권택	-11.0474
▁파워레인저	-11.0474
룹	-11.0474
맷	-11.0474
쌩	-11.0474
웰	-11.0474
탭	-11.0474
▁장근석	-11.0475
▁뜨거운	-11.0475
▁강호동	-11.0475
▁불면증	-11.0475
떄문에	-11.0475
▁스피드	-11.0475
▁비정상	-11.0475
▁No	-11.0475
▁암걸리	-11.0475
▁신민아	-11.0475
▁불후의	-11.0475
▁록키	-11.0475
▁세련되	-11.0475
▁담아내	-11.0476
▁퍼즐	-11.0476
▁웅장	-11.0476
▁잃어버린	-11.0477
▁스텝업	-11.0477
▁짧게	-11.0479
▁특징	-11.048
▁비롯	-11.0481
▁구멍	-11.0482
▁잔인하기만	-11.0484
▁사라졌	-11.0485
▁언론	-11.0486
▁역쉬	-11.049
지마시길	-11.0493
▁공감가는	-11.0506
▁중학교때	-11.051
▁난잡하	-11.0512
▁상영시간	-11.0534
▁생각해볼	-11.054
▁전투씬	-11.0555
▁그지없	-11.0574
▁어설프	-11.0584
▁어처구니없	-11.0601
라기보다	-11.0618
ul	-11.0623
고싶지	-11.0673
H	-11.0703
긴장감	-11.0705
▁첨이네	-11.0718
▁죽을뻔	-11.0737
꿨	-11.076
넼	-11.076
▁런닝맨	-11.076
▁식스센스	-11.076
▁안타까워	-11.076
꺄	-11.076
꼇	-11.076
씹	-11.1001
쭉	-11.1006
쫌	-11.1007
첩	-11.1052
뜩	-11.1053
셉	-11.1054
흰	-11.1054
텀	-11.1054
툰	-11.1054
헐	-11.1319
쿡	-11.1357
짬	-11.1357
췄	-11.1357
캡	-11.1357
톨	-11.1357
긔	-11.1357
뒀	-11.1357
뱉	-11.1357
뺨	-11.1357
쉰	-11.1357
엎	-11.1357
억	-11.1538
쎄	-11.1668
률	-11.1669
q	-11.167
댐	-11.167
쌈	-11.167
핳	-11.167
흙	-11.167
눠	-11.167
댕	-11.167
륙	-11.167
쏠	-11.167
Z	-11.167
샷	-11.167
낙	-11.1974
엌	-11.1992
쿄	-11.1992
팡	-11.1992
댈	-11.1992
됌	-11.1992
샀	-11.1992
숫	-11.1992
펄	-11.1992
샹	-11.1992
헷	-11.1992
ᅦ	-11.1992
얘	-11.2216
뽑	-11.2314
낳	-11.232
꽂	-11.2326
냅	-11.2326
됴	-11.2326
콕	-11.2326
샬	-11.2326
쌀	-11.2326
칩	-11.2326
횽	-11.2326
줍	-11.2669
훼	-11.2671
킷	-11.2671
닦	-11.2671
듀	-11.2671
햄	-11.2671
촉	-11.2671
탔	-11.2671
첫	-11.2677
뀌	-11.3024
깁	-11.3026
엣	-11.3028
뻘	-11.3028
ᄑ	-11.3028
뺀	-11.3028
슐	-11.3028
씌	-11.3028
젓	-11.3028
쫙	-11.3028
쬐	-11.3028
멕	-11.3028
솟	-11.3028
욜	-11.3028
쌍	-11.3037
쪼	-11.3047
뭇	-11.3397
쑤	-11.3398
괘	-11.3398
욧	-11.3398
췌	-11.3398
힛	-11.3398
귓	-11.3398
뇨	-11.3398
돕	-11.3398
샌	-11.3398
쌔	-11.3398
곰	-11.3431
왠	-11.3432
좁	-11.3783
갸	-11.3783
썽	-11.3783
쨩	-11.3783
쪄	-11.3783
켠	-11.3783
롬	-11.3783
홉	-11.3783
덥	-11.3783
톰	-11.3829
펐	-11.4182
ᅭ	-11.4183
꿋	-11.4183
밭	-11.4183
쌤	-11.4183
씽	-11.4183
얹	-11.4183
짖	-11.4183
퍽	-11.4183
훅	-11.4183
W	-11.4247
훌	-11.4599
륭	-11.4599
꼼	-11.4599
댔	-11.4599
엥	-11.4599
윙	-11.4599
햐	-11.4599
갤	-11.4599
짠	-11.4684
밌	-11.5027
낄	-11.5033
죤	-11.5034
깬	-11.5034
늠	-11.5034
뛴	-11.5034
뤘	-11.5034
뤽	-11.5034
몹	-11.5034
셰	-11.5034
얕	-11.5034
쵸	-11.5034
핍	-11.5034
붓	-11.5034
횡	-11.5034
녹	-11.5131
쵝	-11.5489
붐	-11.5489
얌	-11.5489
Q	-11.5489
깽	-11.5489
낱	-11.5489
뎈	-11.5489
뜰	-11.5489
썅	-11.5489
윗	-11.5489
쟝	-11.5489
캅	-11.5489
퀼	-11.5489
힝	-11.5489
낰	-11.5489
넌	-11.5614
캔	-11.5964
ᅧ	-11.5965
겜	-11.5965
팜	-11.5965
앳	-11.5965
굼	-11.5965
됀	-11.5965
밸	-11.5965
웁	-11.5965
짭	-11.5965
곸	-11.5965
휼	-11.5965
빅	-11.6114
펙	-11.6455
낌	-11.6462
쩡	-11.6464
걱	-11.6464
찜	-11.6465
힙	-11.6465
뚤	-11.6465
쑈	-11.6465
꾀	-11.6465
꿉	-11.6465
뱃	-11.6465
싯	-11.6465
융	-11.6465
젬	-11.6465
텍	-11.6465
뵈	-11.6465
ᅣ	-11.6465
맡	-11.664
얻	-11.664
밝	-11.6644
댜	-11.6991
돠	-11.6991
빽	-11.6991
빔	-11.6991
샴	-11.6991
섰	-11.6991
얔	-11.6991
헬	-11.7196
푹	-11.7196
텝	-11.7543
땟	-11.7547
떴	-11.7547
쁠	-11.7547
욘	-11.7547
욯	-11.7547
읎	-11.7547
쟤	-11.7547
짚	-11.7547
쾅	-11.7547
쿤	-11.7547
퀘	-11.7547
쉘	-11.7547
캣	-11.7547
캬	-11.7784
꽤	-11.7785
넉	-11.8135
갚	-11.8135
걔	-11.8135
뇬	-11.8135
댁	-11.8135
룻	-11.8135
맬	-11.8135
뭍	-11.8135
뺐	-11.8135
숴	-11.8135
웡	-11.8135
훤	-11.8135
귄	-11.8135
늑	-11.8759
첼	-11.876
젝	-11.876
괄	-11.876
꿰	-11.876
됏	-11.876
뤠	-11.876
뮬	-11.876
죵	-11.876
쨔	-11.876
챔	-11.876
퉷	-11.876
핰	-11.876
좃	-11.876
쨋	-11.876
뭥	-11.9426
굉	-11.9426
겔	-11.9427
벡	-11.9427
첸	-11.9427
쏜	-11.9427
웹	-11.9427
겅	-11.9427
넥	-11.9427
멧	-11.9427
믓	-11.9427
뿅	-11.9427
뿍	-11.9427
슥	-11.9427
쪙	-11.9427
킁	-11.9427
웬	-11.979
땜	-12.0027
썹	-12.0141
뺑	-12.0141
잌	-12.0141
륨	-12.0141
퐁	-12.0141
굽	-12.0141
껌	-12.0141
끽	-12.0141
넴	-12.0141
눅	-12.0141
쒯	-12.0141
얍	-12.0141
잰	-12.0141
찼	-12.0141
쳇	-12.0141
칵	-12.0141
텨	-12.0141
툴	-12.0141
휙	-12.0141
흣	-12.0141
쩐	-12.0804
샵	-12.091
깼	-12.091
꼐	-12.091
넛	-12.091
넝	-12.091
뒹	-12.091
렜	-12.091
볶	-12.091
섀	-12.091
챈	-12.091
춥	-12.091
꽈	-12.091
돔	-12.091
뷁	-12.091
뎃	-12.1744
왁	-12.1744
캄	-12.1744
갯	-12.1744
괸	-12.1744
냔	-12.1744
넨	-12.1744
멱	-12.1744
뿡	-12.1744
쎈	-12.1744
욥	-12.1744
졷	-12.1744
팰	-12.1744
햅	-12.1744
헿	-12.1744
눕	-12.1744
뻗	-12.1744
곧	-12.2302
줏	-12.2653
컵	-12.2653
곀	-12.2653
딥	-12.2653
랖	-12.2653
쑥	-12.2653
궤	-12.2653
꺠	-12.2653
뒈	-12.2653
밓	-12.2653
벳	-12.2653
윅	-12.2653
읭	-12.2653
혓	-12.2653
헛	-12.3302
컥	-12.3649
봅	-12.365
눔	-12.3653
앰	-12.3653
ᄈ	-12.3653
딛	-12.3653
떵	-12.3653
펭	-12.3653
ᆪ	-12.3653
깟	-12.3653
닛	-12.3653
쨰	-12.3653
챤	-12.3653
큭	-12.3653
툼	-12.3653
끙	-12.3653
짰	-12.3653
쫘	-12.3653
쒸	-12.3653
잦	-12.3653
갘	-12.3653
놉	-12.4764
뭄	-12.4764
쏭	-12.4764
ᄡ	-12.5662
쫓	-12.5662
쩝	-12.5664
뒷	-12.7092
킵	-12.7438
퀀	-12.7442
웍	-12.7442
밈	-12.9109
옳	-13.3258
슷	-13.3596
씸	-13.6812
썪	-13.6813
쌉	-13.6814
숟	-13.6815
뺄	-13.6816
빴	-13.6817
벚	-13.6818
랗	-13.6819
냨	-13.682
괭	-13.6821
흩	-13.6822
헵	-13.6823
롹	-13.6824
쥑	-13.6825
잴	-13.6826
땔	-13.6827
닠	-13.6828
놧	-13.6829
뀜	-13.683
껑	-13.6831
홥	-13.6832
헴	-13.6833
콱	-13.6834
촛	-13.6835
앍	-13.6836
뉜	-13.6837
훑	-13.6838
쫑	-13.6839
샛	-13.684
덱	-13.6841
낍	-13.6842
굶	-13.6843
괞	-13.6844
휠	-13.6845
헠	-13.6846
츤	-13.6847
좔	-13.6848
꺾	-13.6849
횟	-13.685
핥	-13.6851
풉	-13.6852
폄	-13.6853
큽	-13.6854
옜	-13.6855
샐	-13.6856
쁩	-13.6857
뀔	-13.6858
휩	-13.6859
큘	-13.686
콥	-13.6861
촘	-13.6862
뺴	-13.6863
멎	-13.6864
핡	-13.6865
뵙	-13.6866
꺽	-13.6867
긁	-13.6868
딪	-13.6869
릎	-13.687
낡	-13.6871
펏	-13.6872
슌	-13.6873
씻	-13.6874
녔	-13.6875
꺅	-13.6876
굵	-13.6877
쿼	-13.6878
셸	-13.6879
닳	-13.688
쥔	-13.6881
왼	-13.6882
픕	-13.6883
웩	-13.6884
딨	-13.6885
넋	-13.6886
빚	-13.6887
꽥	-13.6888
뀐	-13.6889
뭡	-13.689
얽	-13.6891
앓	-13.6892
쫒	-13.6893
텅	-13.6894
꽉	-13.6895
붉	-13.6896
땠	-13.6897
멤	-13.6898
홧	-13.6899
빕	-13.69
밟	-13.6901
틋	-13.6902
뿜	-13.6903
컸	-13.6904
뻣	-13.6905
옮	-13.6906
핸	-13.6907
맑	-13.6908
찢	-13.6909
엮	-13.691
툭	-13.6911
쨌	-13.6912
뭣	-13.6913
쫄	-13.6914
틸	-13.6915
펼	-13.6916
띄	-13.6917
겪	-13.6918
껐	-13.6919
왤	-13.692
뻤	-13.6921
쏟	-13.6922
닙	-13.6923
딧	-13.6924
듭	-13.6925
꿔	-13.6926
섞	-13.6927
맙	-13.6928
획	-13.6929
겉	-13.693
쁨	-13.6931
됩	-13.6932
늦	-13.6933
볍	-13.6934
찝	-13.6935
묻	-13.6936
똑	-13.6937
랐	-13.6938
깊	-13.6939
떻	-13.694
렇	-13.6941
봤	-13.6942
탤	-13.6942
